#version: 0.2
Ã Ń
Ã ¡
Ġ p
Ġ s
Ä Ľ
Ġ n
Ġ v
Ã ©
n ÃŃ
Å Ļ
s t
Å ¾
o v
Ġ a
Ä į
Ġ j
c h
Ġ z
Ġ t
Ã ½
Ġ d
Ġ k
r o
Å ¡
l e
Ġ m
o u
Ġ o
e n
t e
r a
l a
Ġp o
Ġn a
l i
h o
Å ¯
Ġ b
e m
Ġs e
Ġj e
c e
ÅĻ e
Ġn e
i n
a k
n ÄĽ
Ġd o
Ġp ro
a t
l o
r Ã¡
s k
n o
i t
a n
Å¾ e
Ġ u
ÅĻ ÃŃ
o r
k u
d e
Ġ P
Ġz a
k a
k y
o n
Ġt o
Ġs t
j e
n Ã©
a l
Ġv y
Ġ Äį
n i
j ÃŃ
c i
t o
Ã½ ch
e r
ÅĻ i
c ÃŃ
p o
Å¡ ÃŃ
n a
t i
d y
r e
Ġ h
v a
Ġ V
k o
Ġb y
Ġj s
Ġ S
Ġv e
Ġp ÅĻe
Ġ ro
r u
te r
Ġo b
l Ã¡
m i
â Ģ
l u
v o
m e
a r
Ġ 1
Å¡ e
n Ã¡
c k
ov Ã¡
n e
st i
v ÄĽ
Ġ M
Ġo d
d u
z e
Ġ Å¾e
t ÄĽ
Ġt ak
Ġ (
Ġ N
Ġn Ã¡
d ÄĽ
a v
o b
Ġ f
Ġ K
Ġ i
Ġ Ã
. .
m ÄĽ
Ġz Ã¡
Ġv Ã½
Ġ T
m u
ov Ã©
d a
i l
Ġ A
Ġ 2
b o
Ġ c
Ġ J
ĠÃ º
Ġm o
t u
Ġp ÅĻÃŃ
b y
v Ã¡
Ġj ak
Ġpo d
Äį e
Ġp ÅĻi
Ġs i
Ġ D
Ã¡ l
n Ã½
j i
Ġ B
Ġk ter
t a
d i
v ÃŃ
Ã© ho
d Ã¡
Ġk o
d nÃŃ
Ġ -
Ġn ÄĽ
Ġ ho
p a
m a
l ÃŃ
Ġp r
Ġm ÄĽ
k Ã¡
ra v
m o
Ġ ch
e z
t ÃŃ
Ġt e
s e
n ou
Ġa le
l Ã©
Ġ le
ov a
n u
nÃŃ m
l y
Ġ âĢ
Ġ Z
Å¾ ÃŃ
n y
p e
0 0
Ġ re
Ġro z
no st
Ġje d
Ġ C
Å¾ i
Ġ O
Ġ Å¡
a s
u je
Ġb u
v e
t y
Ġjs em
Ã½ m
d o
d ÃŃ
r i
Äį nÃŃ
Ġne j
Å Ī
Ġ e
i s
Ġ in
Ġne bo
Ġk a
Ġs v
sk Ã©
r y
Ġ H
k la
Ġ R
ĠpÅĻe d
v nÃŃ
te l
ĠP o
Å¡ tÄĽ
u p
ov at
Ġs po
l ou
b u
ÃŃ m
Ġk on
k on
Ä Į
Ġ L
Ġv ÄĽ
r ov
m ÃŃ
Äį ÃŃ
Ġjs ou
s a
Ġm Ã¡
Ġjak o
ch o
ovÃ¡ nÃŃ
Ġ ce
Ġs ou
Ġm a
Ġ li
z i
jÃŃ cÃŃ
Ġkter Ã©
m en
s i
Ġm i
Ġm ÃŃ
Ġs p
st a
t nÃŃ
ho d
v i
l ov
k ou
Ġc o
Ġj i
Ġv z
b a
Ġm u
no sti
v y
s ob
Ġk te
s le
Ġ 3
k Å¯
Ã¡l nÃŃ
st av
Ġn i
t Ã¡
Ġ ÄĮ
b ÃŃ
Ġv o
b ÄĽ
ck Ã©
Ġk dy
.. .
Ġ I
s ÃŃ
p rav
z a
st o
h u
k ov
g i
j Å¡ÃŃ
j em
Ġ E
p ÄĽ
n Ã½ch
d en
z ÃŃ
Ġp rÃ¡
Ã© m
Å¯ Å¾e
st e
Ã¡ m
Å ¥
Ġd ÄĽ
h le
0 1
Ġ F
h a
Å¾ it
Ġz e
Ġn em
Ġd e
Ġt ÄĽ
Ġ Å¾
Ġp ou
st up
Ġt a
Ã¡ d
Ġv ÃŃ
âĢ ľ
m y
Ġj en
Ã¡ t
Ġp ra
k t
Ġv Å¡e
Äį i
Ġkter Ã½
ĠJ e
r Å¯
Ġve l
p u
Ġbu de
or u
b e
Å¡ i
Ġ U
Ġu Å¾
Ġ Å
st ÃŃ
ĠâĢ ĵ
m Ã¡
Ġjs me
d ou
ov an
ov ÄĽ
d in
Ġb ez
al Å¡ÃŃ
ĠâĢ ŀ
vÄĽ t
ĠN a
ra n
Ġ g
Ġ 4
Ġp a
Ġb o
en Ã©
Ġt u
ch Ã¡
ĠN e
Ġpo t
la t
u t
le m
h y
ov Ã½
nÃŃ ch
s u
Ġm Å¯Å¾e
ov o
Ġ 5
Ġa by
Ġp Å¯
Ġs a
k em
) .
st ÄĽ
nÃ© ho
p i
e l
ze nÃŃ
ku d
Ġ Å¾i
Ġjed no
le Äį
Ġz p
Ġtak Ã©
Ġj in
d em
Ġb Ã½
f i
at i
Ġ G
ĠÄį i
Ġje ho
Ġ ÅĻe
en a
ĠÄį e
rÃ¡ t
d nÄĽ
en t
la st
Ġh la
Ġmo Å¾
Ġd alÅ¡ÃŃ
st vÃŃ
ro u
sk Ã¡
li v
Ġt y
v r
Ġby l
Ġpo z
sk Ã½
ĠP ro
a li
Ġd ÃŃ
Ġna p
Ġa Å¾
ĠvÅ¡e ch
z u
) ,
in a
z na
Ġt Ã©
Ġkdy Å¾
Ġd i
h ra
Ġv Ã¡
Ġkte rÃ¡
Äį ka
f or
Ġ "
te k
Ġa k
ÅĻ a
c o
Ġpro to
Ġdo b
sk y
Ġm in
Ã ³
Ġz d
e t
en o
Ġv i
Ä ı
e c
Ġ2 01
Äį ky
g ra
Ġ ÅĻÃŃ
ĠbÃ½ t
i st
s o
p l
n it
Ġne Å¾
Ġt en
Ġto ho
st at
Ġd Å¯
st ÅĻe
Ġk u
Ġst Ã¡
ru h
ĠÅ¡ ko
ĠnÄĽ j
Ġ rÃ¡
Ġ ra
ov Ã½ch
v nÄĽ
Ġby la
Ġs k
b i
Ġd Ã¡
Ġs y
Ġ 6
m Ã©
Ġne nÃŃ
Ġby lo
v u
an i
le n
Ġv Å¡
cÃŃ ch
Ġspo leÄį
ji ch
ra z
Äį nÄĽ
ÅĻe j
Ġmo h
v at
nÃŃ ho
sk Ã©ho
in y
u n
ĠnÄĽ k
Ġp ÅĻ
Å¯ m
li k
Äįe nÃŃ
p ÃŃ
Ġka Å¾
Ġt r
Ġm ez
kla d
ov al
en Ã¡
ro b
Ġ1 9
Ġne p
ovÃ© ho
nÃ½ m
ck Ã½
ĠpÅĻÃŃ pa
Ġv last
Ġje jich
s y
Ġto m
k Ã©
Ġje Å¡tÄĽ
ĠÅ¾i vo
p is
Ġd ne
Ġs lu
Å¡e nÃŃ
Ġp e
Ġo sob
b or
Ġna d
Ġj ÃŃ
Ġm no
Äį it
c t
Ġp ak
ov i
Ġk de
Ġa ni
j te
ĠT o
Ġn o
Ġsv Ã©
Ġst a
ĠpÅĻe s
Ġp Ã¡
ĠÄĮ e
Ġo p
P o
ĠÄį Ã¡
ĠD o
d no
d r
h Ã¡
Äįe t
Ġt ÅĻe
m p
Ġv a
Ġna bÃŃ
sk Ã½ch
ÅĻe nÃŃ
sk u
ov e
Ġa u
va li
ch u
Ġ ru
en y
en Ã½
nou t
Ġ lÃ©
nÄĽ jÅ¡ÃŃ
ch y
s la
Ġ 7
i r
it u
Ġt ÃŃm
s pÄĽ
ter i
Ġst ra
ĠP ra
te m
Ġ ry
le nÃŃ
l nÃŃ
Ġpr Å¯
Äį as
Ġd ruh
em i
c ky
Ġm y
ĠÅ ł
Ġ W
sk o
te j
Ġce l
Ġs ku
d ob
Ġb a
Å¡ÃŃ m
v al
Ġpra c
Ġ 8
or i
Ġpod le
ĠvÄĽ t
Ġle t
lo Å¾
st Ã¡
r g
ĠnÃ¡ s
Ġs na
Ġmez i
Ġst av
Ġf o
lo gi
Ġe x
d it
d la
Ġpr vnÃŃ
Ġk ou
u jÃŃ
ck Ã½ch
h la
Ġ :
ov ou
em e
z y
Ġza Äį
Ġp rav
Ġk e
Å¾e nÃŃ
ĠnÄĽj ak
Å¯ j
ĠvÃŃ ce
ĠÄį er
Ġji Å¾
nÄĽ nÃŃ
a d
f e
in Ã¡
Ġz na
mÄĽ r
Ġob je
Ġvel mi
Ġst o
Ġu r
ĠkaÅ¾ d
Ġ l
for ma
le p
v Ã½
t r
sk a
k ti
ar t
vÃ¡ nÃŃ
Å¯ sob
s po
ov nÃŃ
v ou
Ġpot ÅĻe
nost ÃŃ
Ġm e
ch ni
ck Ã¡
p ra
a st
b li
ĠnÄĽ ko
ĠS t
s ou
an Ã©
ĠÄį as
Ġs m
de l
ĠM o
ĠV y
Ġta m
u m
h em
Ġst ÅĻe
Ġb ÄĽ
Ġd en
z en
ĠZ a
Ġ 9
v er
ka z
d Å¯
ĠR o
jem e
Ġt Ã½
Ġpro je
ĠvÅ¡ ak
Ġne z
i m
k ovÃ©
Ġje jÃŃ
d le
ÄĽ k
Ġsa mo
Ġp ov
Ġroz hod
Ġ ,
Ġto mu
ni ce
Ġh ra
Ġs o
Ġn ÃŃ
Ġ1 0
Ġs vÄĽ
st u
nu tÃŃ
Ġproto Å¾e
in g
to m
Äįe k
nÃ© m
ra t
Ġ rÅ¯
âĢ ¦
ĠÃº Äį
Ġbu dou
st ou
Ġ w
sle d
Ġs tej
Ġro ce
r nÃŃ
Ġk rÃ¡
or y
Ġd lou
Ġpro b
c Å¯
ĠK o
Ġsy st
ch a
Ġpo mo
an e
at o
Ġte dy
Ġa si
Ġa n
Ġ2 00
Ġt i
v Ã©
Ġst u
Ġ lo
ÅĻ Ã¡d
Ġvy u
te Äį
Ġpro stÅĻe
m Å¯
ĠK Äį
in u
n ky
Ġin forma
en e
Ġv Ã¡m
j de
pa d
s lu
Ġro ku
le t
ne k
ĠM a
e b
le Å¾it
Ġp la
Ġmu sÃŃ
Ġk li
Ġv Å¯
Ã½ mi
k tu
ck Ã©ho
Ġkte ÅĻÃŃ
c en
ĠP ÅĻe
ĠK a
s Ã¡
p ro
Ġzp Å¯sob
Ġf un
ĠnÃ¡ m
p r
u jÃŃcÃŃ
ĠI n
Ġ cÃŃ
ĠmÅ¯Å¾e te
Ġf or
u b
te le
Ġho din
Ġry ch
Ġm al
sle dnÃŃ
Ġ ov
Ġp ÃŃ
Ġk vali
dÃ¡ nÃŃ
ĠzÃ¡ kla
o l
Ġs ÃŃ
z d
an a
Ġvy b
k ce
Å¾ dy
Ġo rg
ĠV e
k ra
Ġpro ti
v en
Ġpou ze
Ġp l
Ġz mÄĽ
Ġp at
t ra
Ġst rÃ¡
Ġz em
d Ã©
Ġma jÃŃ
Ġ 0
Ġt ra
c z
Ġk ra
Ġ la
st li
ro j
ĠM i
ĠnÄĽ co
p oru
Ġmo c
m in
o d
u s
Ġby ch
Ã º
ar i
v it
er i
Ġz de
chÃ¡ zÃŃ
p la
z em
Ġpou Å¾ÃŃ
Ġo n
e nÃŃ
a le
Å¡ Å¥
Ġob sa
r Ã©
ĠtÅĻe ba
o m
ro dnÃŃ
d nÃ¡
ova la
p ovÄĽ
Ġo prav
va jÃŃ
t Å¯
st ra
Ġspo lu
le kt
Ġza mÄĽ
pÄĽ t
ĠT ak
a m
Ġni c
Ġp lÃ¡
Ġu ve
st ru
Ġpo kud
Ġz ÃŃ
Ġprob lÃ©
Ġ lÃ¡
ĠÄį a
Ġpo li
Ã¡l nÄĽ
Ġsp rÃ¡
2 01
z nÃ¡
sk ou
Ġf ir
ĠpÅĻed stav
r Ã½
te ch
ĠB o
e s
ni ka
li ka
p rÃ¡
Å¯ Å¾
ĠpÅĻÃŃpa dÄĽ
u r
Ġdo st
at a
N a
k Ã½
p or
ĠtÄĽ ch
ĠA le
ĠÅ¾ Ã¡d
u l
r ch
ĠJ ak
Ã¡ n
ĠpÅ¯ j
ĠvÅ¡ech ny
Ġ1 5
ĠtÃ© to
v is
Ġ1 2
ci Ã¡lnÃŃ
s em
Ġp re
Ġ /
Ġj a
Ġs vÄĽt
ĠV Ã¡
st y
k ovÃ¡
ĠprÃ¡ ce
t Ã©
Ġkon t
Ġ ÅĻa
ĠvÃ¡ s
ĠzÃ¡ kon
v lÃ¡
ĠmÃŃ t
t ÅĻe
by t
Ġ |
ĠPo kud
v ro
Ġj Ã¡
Ġpod ob
p y
v an
ovan Ã©
ĠZ Ã¡
Ġho dno
Äį ku
ĠÃ ļ
vo d
h rÃ¡
Ġpro gra
kÃ¡ ch
g e
dÄĽ lÃ¡
Ġne by
Ġk r
Å¡ em
li t
Ġne do
b ou
Ġne s
Ġob cho
Ġst an
Ġz nÃ¡
d lo
Ġte le
Ġby ly
al y
Ġpo slednÃŃ
k e
Ġjedno t
p it
Ġvy t
h e
00 0
Ġvy so
ce nÃŃ
ĠP ÅĻi
Å¡tÄĽ nÃŃ
Ġch y
hle d
ÅĻ it
Ġo s
Ġt ro
Ġnem o
Å¾e l
ĠrÅ¯ z
Ġf il
Ġk ni
ĠV Ã½
Ġne po
k ro
Ġv Å¾dy
Ġne ch
ĠmÄĽ sÃŃ
ĠH o
Ġve li
ova li
Ġten to
ĠmÃŃ st
Ġne u
Ġz ak
Ġp ar
ÅĻÃŃ zenÃŃ
h lÃ¡
z Ã¡
c a
ck ou
Ġs pe
g a
Ġna Å¡e
Ġdo kon
ĠÅ¾ Ã¡
Ã į
Ġe lekt
ova cÃŃ
dÄĽ l
Ġni ch
Å¡ tÃŃ
ĠmÄĽ l
Ġni k
Ġpo sky
Ġ2 0
in ÄĽ
ĠÅ ½
en i
a la
n at
Ġs il
Ġj ste
Ġc en
ÅĻ Ã¡
d at
Äį Ã¡
ĠT e
Ġ ...
v ky
k lÃ¡
Ġzd ra
ĠmÃŃ sto
za ce
ĠC h
ĠN Ã¡
lo sti
z ku
ĠÄį ÃŃ
Ġpro st
g u
dy Å¾
Ġ1 8
pe Äį
z or
be c
ĠÄį in
Å¡e t
ct vÃŃ
k l
Ġp ÄĽ
s lÃŃ
. ,
s l
Ġd va
n ov
Ġz ku
je nÃŃ
Ġko m
Ġvo l
Ġkte rou
ĠR e
nÃ½ mi
Ġo ko
Ġo ch
ÄįnÃŃ ch
en Ã½ch
Ġpro du
Ġin ter
dÄĽ t
zna m
ĠO b
Ġpo Å¾
p at
Ġ en
ne d
Ġro din
Ġl ze
ce la
Ġpr ovo
Ġsku p
ĠL i
ÅĻÃŃ klad
c it
t or
Ã© mu
d l
cho p
Ġvlast nÃŃ
1 0
b er
n Å¯
Ġco Å¾
Ġko mp
w w
il y
Ġob la
Ġslu Å¾
t ky
Ġn ovÃ©
in e
la n
ĠÄį lov
nÃ¡ nÃŃ
r t
la d
Ġo te
J e
Ġtak Å¾e
Äį er
d ne
Ġh le
Ġsyst Ã©m
nÃŃ k
ĠvÃ½ rob
ĠmÃ¡ m
Å¾it ÃŃ
skÃ© m
Ġd is
Ġb ar
Ġza hra
Ġz at
Ġza jÃŃ
va tel
, âĢľ
Ġdo bÄĽ
Ġur Äįit
ĠpÅĻe de
ĠJ i
Ġmoh ou
P ro
n em
v Å¯
ĠnÄĽko lik
ov ÃŃ
ra ce
dÄĽ la
in an
Å¡ Å¡ÃŃ
Ġma teri
Ġpod mÃŃ
m an
pl nÄĽ
Ġo de
m ou
dnÃŃ ch
ÅĪ uje
Å¡ t
in ou
ÅĻej mÄĽ
Ġt ÅĻÃŃ
ĠnÄĽk ter
Ġak ti
p Ã¡
Ġd u
Ġ Â
Ġst ar
Ġd vÄĽ
Ã ģ
h l
Ġza ji
ĠvÃ½ kon
vo j
f on
ĠÄįÃ¡ st
h ou
Ġne bu
Ġs ob
en ÄĽ
a ce
Ġch tÄĽ
Ġse be
ĠA n
ĠpÅĻi po
Ġp i
dnÃŃ m
de k
ĠÃº da
ĠV a
li ne
ro z
it i
Ġko mu
Ġ rov
va jÃŃcÃŃ
ĠvÄĽt Å¡
g en
ko liv
ĠO d
Å ł
Ġpo ji
Ġdob ÅĻe
Ġ Å¡e
Ġ lÃŃ
ĠÄį lÃ¡
r nÄĽ
Ġtoho to
de nÃŃ
1 9
Ġpo stup
pu bli
ĠprÃ¡ vÄĽ
N e
Ġfo to
em o
ĠdÃŃ ky
ĠpÅĻi prav
Ġoprav du
Ġsm lou
ĠnabÃŃ d
Ġo stat
Ġd vou
Ġh u
b Ã¡
chÃ¡ ze
Ġd a
ĠdÄĽ ti
p lat
re s
Ġjed en
Ġs vo
Å¡ it
Ġp lo
ĠmoÅ¾ nÃ©
kÃ¡ nÃŃ
v nÃŃm
Ġmo de
Ġ r
Ġk la
Ġ1 4
Ġ .
ov Ã½m
ĠC o
l Ã½
c em
Ġsou Äįas
dÄĽ ji
Ġli dÃŃ
Ġve ÅĻej
ĠÄį t
Ġji m
Ġv hod
Ġh rÃ¡
p lo
Ġ %
âĢ ŀ
h lÃŃ
de j
Ġte chni
rov e
mÄĽ ÅĻ
ĠstÃ¡ le
Ġko le
ĠpotÅĻe b
me t
men t
ĠNe j
ĠspoleÄį nosti
Ġs u
Ġne vy
ra c
Ġm Ã©
Ġro k
Ġvz ni
o p
lo st
Ġ1 6
Ġa d
Ġf ak
Ġp u
ni ctvÃŃ
Ġt ÅĻi
l Å¯
ĠB y
Ġorg ani
Ġ x
Ġk do
Ġza se
Ġz vlÃ¡
de ch
ĠmÄĽ la
Ġs le
Ġs lov
ĠkaÅ¾d Ã½
Ġ1 1
ĠL e
Ġce lÃ©
ti Å¾
b ra
Ġo k
Ġa t
x i
Ġpo ko
Ġu Å¾i
h ov
v Å¡ÃŃm
lep Å¡ÃŃ
mÃ© na
Ġby li
ĠpÃ¡ r
ĠkrÃ¡ s
Ġna Å¡i
ĠzamÄĽ st
Ġre publi
Ġsp or
Ġ ci
ĠT en
Ġsv ou
Ġto tiÅ¾
Å¾ nÄĽ
li Å¡
Ġvyu Å¾ÃŃ
ĠmoÅ¾ nost
n er
Ġpod ÃŃ
m at
Ġc ent
Ġmu se
Ġa p
Ġv lÃ¡
Ġk an
Ġdne s
Ġposky t
ĠvÃ½ ro
vÃŃ c
ĠÄįÃ¡ sti
Ġf inan
5 0
Ġv r
! !
Ġli d
h uje
m av
k li
\ \
Ġp lat
Ġpo ÅĻÃ¡d
z o
Ġau to
Ġdo sta
k rÃ¡t
Ġn ut
Ġ1 3
Ġk ro
ĠrÃ¡ m
Ġen er
Ġnap ÅĻÃŃklad
Ġu mÃŃ
Ġd r
ĠS e
ĠJ a
Ġch ce
Äįet nÄĽ
Ġuve den
Ġs itu
Ġ3 0
ĠE vro
ĠvÅ¯ bec
Ġprav i
dem e
mo Å¾
ĠnÃ¡ v
ĠB u
Ġo tÃ¡
en ou
p s
b nÃŃ
Ġpo stav
Å¡e l
ist ori
Ġs la
ĠprostÅĻe d
jÃŃ t
bo Å¾ÃŃ
Ġm as
Ġc m
Ġtak y
Ġs ch
le z
ĠP ÅĻÃŃ
Ã ¬
Ġv la
s il
Ġa l
Ġpov in
Ġdo mÃ¡
Ġza ÅĻÃŃzenÃŃ
Ġjin Ã©
Ã¡ lu
Ġobla sti
ĠÅ ĺ
Ġprac ovnÃŃ
rove ÅĪ
Ġsv Ã©ho
Ġza b
Ġs r
ĠÅ¾ivo t
Äį il
Ġnej en
Ġstej nÄĽ
or e
Ġs chop
z v
te li
Ġinforma ce
Ġk ar
Ġhla vnÃŃ
ĠpÅĻede vÅ¡ÃŃm
Ġm an
Ġtro chu
nit ÅĻ
ĠPra ha
ĠtÄĽch to
Å¡ ko
2 0
.. ..
l ka
ĠÄį len
Ġod bor
Ġ1 7
h at
Ġmi mo
Å¡ nÃŃ
n ku
ĠnÃ¡ ro
te g
te ÄįnÄĽ
Ġkon ce
Ġz da
ĠvÄĽt Å¡ÃŃ
Ġs em
Ġd Ã¡l
ĠmÄĽ sta
it o
ĠÄĮe skÃ©
Ġu mÄĽ
Ġko lem
2 00
ĠÄį ty
Ġsou tÄĽ
Ġo pÄĽt
al u
vo du
dr Å¾
le tÃŃ
Ġvz ta
g o
s ÃŃm
h er
Ġte Äı
Ġs nÃŃ
Ġsp ÃŃ
ch no
k ci
Ġjedno du
Å¡ ka
Ġdo bu
ti ckÃ©
j Å¯
Ġd le
ĠdalÅ¡ÃŃ ch
pe nÃŃ
an ou
ĠpÅĻÃŃ mo
Ġpo ÄįÃŃ
ĠS a
ÄįnÃŃ ho
Ġtom to
Ġk lu
Ġ1 00
Ġne za
Ġu ni
Ġob dob
t en
Ġsv Å¯j
h ro
v nÃ©
li n
ĠM ÄĽ
ĠzÃ¡ pa
l ky
z ÅĻejmÄĽ
ne t
ĠÄĮ R
ĠnÃ¡ sle
st Ã©
Ġt er
gra fi
ĠN i
b av
Å¡ eno
Ġjednot liv
Ġb i
Ġsna d
r em
Ġpr ove
ta ce
Ġur Äį
Ġmi li
po zi
Ġvyt vo
k at
bÄĽ h
Ġa ut
Ġv ÄįetnÄĽ
kÅ¯ m
Ġvz dÄĽlÃ¡
Ġote v
ni ci
ĠnabÃŃ zÃŃ
ĠpÅ¯ sob
Å¡ ky
ĠmÄĽ li
p ÅĻe
Ġu z
ĠprÃ¡ ci
ovÃ© m
Ġspo j
Ġstu di
z ky
m eri
Å¡ lo
dÃ¡ vÃ¡
Ġz ji
Äį Å¯
Ġho dnÄĽ
vo dnÃŃ
f er
ĠrÃ¡m ci
ĠRo z
kla dy
dÃ¡ le
j mÃ©na
ĠK dyÅ¾
Ġj de
Ġmin u
Ġnem Ã¡
cho m
ova tel
Äį nÃ©
Ġho r
t ka
Ġch o
ĠÄįa sto
Ġre gi
Ġpo hy
Ġh istori
ĠvÃ½ sled
y nÃŃ
Ġpo lo
cÃŃ m
ti l
Ġdo poru
Ġpo Äį
ka m
n an
Ġt la
Ġnej lepÅ¡ÃŃ
lo g
ĠT y
s Å¯
ĠprostÅĻe dÃŃ
Å¡i chni
Å¾ stvÃŃ
Ġje stli
Ġdo m
Ġle p
ĠbÄĽ hem
ĠV Ã¡m
Ġza ÄįÃŃ
Ġzp rac
d il
ko no
dÄĽ li
Ġz boÅ¾ÃŃ
ĠL u
Ġz Å¯
se k
Ġtele fon
Ġd ru
ĠÃº spÄĽ
sk Ã½m
ni l
i li
Ġod povÄĽ
hle dem
d ar
ĠpÅĻÃŃ jem
ĠdÅ¯ leÅ¾it
Ġ +
1 1
Ġpat ÅĻÃŃ
Ġm Å¯Å¾
Ġk up
ĠdÄĽ t
tnÃŃ ho
Äį an
3 0
Ġch vÃŃ
Ġau tom
Ġst y
ck Ã½m
Ġst ro
Ġte x
ĠzÃ¡ kaz
ĠB a
Ġvy s
ĠB r
st it
Ã¡t ku
Ġle tech
on i
ÃŃ c
z uje
o k
Ġb an
ĠR a
Ġle to
Ġre ali
i lo
Ġoch ra
po Äį
te lÃ©
Ġb ÃŃ
z kou
Ã ¸
Ġv en
spo ÅĪ
ko li
Ġs mÄĽ
p t
n ka
ĠproblÃ© m
Ġp er
ĠÅ¡ i
Ġkra j
Ġob ÄĽ
Ġzdra vo
en ce
ĠT a
Ġmno ho
ĠvÃŃ c
ĠP a
h r
1 2
t t
on u
ovÃ¡ n
f o
ĠpoÅ¾ ad
kov Ã½
Ġvi de
Ġty to
Äį em
Ġsv Ã½ch
ĠS po
d ce
Ġzem ÄĽ
Ġu moÅ¾
Ġm en
Ã¡ nÃŃ
Ġsk vÄĽ
Ġna Å¡ÃŃ
Å¾ Å¡ÃŃ
Ġka m
z er
Ġt is
kov i
le k
u jeme
Ġelekt ro
ne s
Ġna vÃŃc
Ġhla vnÄĽ
Ġb lÃŃ
Ġspe ci
Ġnem ÄĽ
st ro
Ġpro stÄĽ
v il
ĠnÄĽ m
ĠÃº Äįe
ĠvÅ¡ech no
. âĢľ
E N
Ġp an
Ġkont ro
ĠÅ¡ko ly
gi e
Ġdo kÃ¡
z nÃŃ
p ovÃŃ
Ġm m
Ġna stav
Ġpomo cÃŃ
zem ÃŃ
tnÃŃ ch
Ġbez peÄį
Ġob y
d li
ovan Ã½
ĠdÃŃ tÄĽ
Ġze jmÃ©na
Ġh y
Ġzat ÃŃm
Ġvyb av
h lÃ©
d ra
Ġnebu de
it a
j u
d Ã½
Ġv er
Ġjin ak
Å¾ nÃŃ
ĠsluÅ¾ by
Ġrych le
Ġvo dy
Ġku l
ĠpÅĻÃŃ stup
Ġpro ce
chno logi
de r
dÄĽ nÃŃ
it y
Ġdo pl
lÃŃ b
Ġsv Ã½m
re k
Ġta dy
Ġd ra
ĠÃºÄį in
S T
vÄĽ d
Ġpoli ti
ĠL a
Ġsku teÄį
ob il
dÃŃ l
ĠzÃ¡kon a
Ġ5 0
Ġ2 5
Ġd ovo
Ġj as
ĠmÃ¡ te
ste ch
Ġt vo
Ġst Ã¡t
Ġb r
vÄĽt Å¡ÃŃ
Ġdo prav
ĠzÃŃ sk
my sl
kra Äį
Ġli dÃ©
Ġna v
Ġzku Å¡eno
st an
Ġne b
vÃŃ m
Ġnik dy
pra c
Ġpo ra
/ /
Ġmateri Ã¡l
d al
ĠJ o
Ġje j
Ġva Å¡e
ĠÃº plnÄĽ
ov y
ĠnÃ¡v Å¡tÄĽ
Ġse r
Ġd ÅĻe
h Å¯
Ġm et
R O
Ġza po
ĠN ÄĽ
Ġon line
Ġz vÃ½
Ġobdob ÃŃ
Ġvel kÃ©
ĠD e
ĠmÃ¡ me
Ġlep Å¡ÃŃ
h nout
ĠK on
Ġz kou
Ġz cela
jÃŃcÃŃ ch
n ce
Ġcel Ã½
ĠdÃ¡ le
Å¡ la
ĠnÄĽk do
ĠmÃŃ stÄĽ
Ġpoz or
Ġsi ce
men Ã¡
Ġse x
vÃ¡ m
ĠvÄĽ ci
Ġpo s
le j
t ou
la ce
Ġbu d
Ã© n
u sÃŃ
ĠzÃ¡kla dnÃŃ
ĠtÄĽ Å¾
kÃ¡ m
Ġh ned
rÃ¡ l
op ak
Ġ X
slu Å¡
Ġte plo
pa dÃ¡
Å¾e b
p er
k le
Ġnej sou
Ġspor t
Ġstu den
Ġo ri
Ġs lou
Ġt vr
Ġp le
ÅĻ skÃ©
ĠvÃ½ raz
leÅ¾it o
ĠvÃ½ bÄĽ
v or
ĠPro to
vÅ¯ li
Ġa b
Å¾ en
Ġbude te
Ġjed nou
Ġmno Å¾stvÃŃ
Ġ [
Ã© r
fi ka
le nÃ©
teg ori
Ġsmlou vy
tel nÃ©
Ġh er
Ġm at
ĠzajÃŃ mav
Ġso ciÃ¡lnÃŃ
ar ma
st va
Ġpra kti
an Ã¡
Ġd Ã©
Ġte chnologi
ci e
R A
ĠÄįlov ÄĽk
Ġd at
ĠÅĻÃŃ zenÃŃ
an Ã½
ĠpÃŃ s
ĠmoÅ¾ nÃ¡
p on
je t
Ġdruh Ã©
s lov
k ty
Äį nÃŃm
c ent
Ġdokon ce
Ġpr ovÃ¡
o t
Ġdo ku
Ġzp rÃ¡
p Å¯j
ĠÅĻe Å¡enÃŃ
ar d
ĠÄįt vr
Ġp ova
tÃŃ m
d nou
Å¡e k
g y
Ġ2 4
ĠV el
s lo
Ġk y
Ġtu to
ĠP et
ĠU S
Ġsou ÄįÃ¡
j ak
Ã½ vÃ¡
Ġg ra
pe l
Ġs lo
Ġk rÃ¡t
mo t
Ġsob ÄĽ
Ġz i
ze k
u k
st al
e k
ĠV i
ra k
Ġkon e
da jÃŃ
Ġap lika
Ġv stup
m ati
Ġpro Äį
Ġdlou ho
ĠP r
h li
rÃ¡ nÃŃ
slÃŃ m
e d
v ka
Ġprogra m
ovÃ¡ na
ĠD i
ĠÃºÄį ast
kov nÃŃ
j en
Ġstav eb
ĠV ÃŃ
ĠPo d
ovan Ã½ch
Ġu s
Ġprost or
Ġsp ou
Ġpro dej
ÅĻ en
D o
Ġak tu
Ġk oru
Ġja zy
ĠS ou
g li
ĠF ran
Ġro di
ĠS b
ve k
Ġkla si
Ġprovo z
cho d
ĠÅ¾ivo ta
O V
ro n
tu je
Ġt ou
k lo
h i
a g
ĠD ÄĽ
Ġuz av
Ġle h
Ġpo m
Ġjed na
Ġn or
Ġv Å¡ichni
Ġsamo zÅĻejmÄĽ
Ġu kÃ¡
Ġkul tu
do st
ĠvÃ½ znam
Å¾ nÃ©
, "
p ÅĻÃŃ
p ÅĻ
Ġvel k
Ġk m
jde te
ĠM ar
ĠA l
u ji
Ġsyst Ã©mu
ĠnÄĽko lika
ĠN o
ĠR u
Ġob ec
y zi
ĠlÃ© ka
ĠM Ã¡
lÃ¡ nÃŃ
Ġse t
Ġjak Ã©
Ġtra di
Ġnap ÅĻ
Ġpo r
ĠpÅĻÃŃ prav
t nÄĽ
Ġpro fe
Ġjed in
p re
p ou
po d
nov u
ÃŃ ky
Ġnap ro
ri e
ĠnÃ¡ vr
Ġt re
ĠzÃ¡ vÄĽ
z ni
Å¡ k
âĢľ .
ĠÅ¡ko l
T ak
Ġo zna
Ġod st
kov Ã½ch
Ġch u
Ġostat nÃŃ
du je
kt Å¯
Ġto to
Ġkont ak
Ġle d
ĠtÃ© mÄĽÅĻ
Ġv Ã½ch
Ġna kon
Ġn ovÃ½
Ġku r
Ġob rÃ¡
ĠpÅ¯j Äįka
st Å¯
Ġm lu
ĠchvÃŃ li
n d
Z a
Å ĺ
Ġk vÄĽt
Ġk vÅ¯li
Ġin ve
Ġn ynÃŃ
kt or
on Ã¡lnÃŃ
Ġ ri
Ġza s
Ġak ce
Ġs ko
ku p
Ġslu Å¾eb
c ti
Ġnakon ec
al ÃŃ
sla v
Ġpod ni
ĠV ÄĽ
ĠsvÄĽ ta
Ġdo by
ĠurÄįit ÄĽ
h Ã©
Ġveli ko
hu Å¾el
su d
Ġma x
l ze
hle du
Ġs Ã¡m
ovÃ¡ nÃŃm
: //
k rÃ©
lu je
Ġu Å¾ÃŃ
Ġpo kraÄį
ÅĻi l
ĠPra ze
Ġo me
ĠzÃ¡ sa
ÅĻÃŃ ve
st rov
ĠrÅ¯z nÃ½ch
. "
Ġfun g
f t
Ġka tegori
Å¡ ti
Å¡ le
Ġst ÄĽ
Ġ =
za ci
Ġp Ã©
Ġw eb
Ġ19 9
Ġz vÃŃ
Ġo t
ĠpÅĻe k
va la
pra va
re v
ru m
Äį in
Ġmu Å¾
ĠÃº ÅĻa
ĠvÅ¡ em
ĠzÃ¡kaz nÃŃ
ĠVÃ¡ s
Ġo pe
P ÅĻe
dÃŃ m
n ak
Ġmin ut
Ġad re
Ġ: )
ĠÅ¡ pat
ĠspoleÄį nost
Ġv Ã¡l
Å¾ a
ĠPÅĻe d
s pe
Ġb e
Ġp ovo
Ã¡l nÃŃm
E R
j mu
Ġoko lÃŃ
ĠzÃ¡ roveÅĪ
Ġvlast nÄĽ
ovÃ¡ ny
Ġnej vÄĽtÅ¡ÃŃ
Ġspo tÅĻe
Ġex ist
Ġpravi del
mÃ© nÄĽ
Ġov Å¡em
r en
Ġp art
Ã ¨
1 5
ĠJ Ã¡
r na
ĠpoÄįÃŃ ta
Ġu dÄĽ
ni c
s it
ka l
Ġz vy
g in
T o
Ġv rÃ¡
Ġop at
pozi ci
ĠsprÃ¡ v
ĠÅ¾ en
Å¡ ku
Ġvy Å¡Å¡ÃŃ
1 8
Ġzd arma
Ġ >
Ġtak ovÃ©
Ġro ÄįnÃŃ
te lem
Po kud
si g
ĠV Å¡e
nÃ© mu
ĠÄįer v
ne te
Ġne o
ĠK ar
ĠTen to
ĠpÅ¯ l
ĠzÃ¡kla dÄĽ
vnÃŃ ch
ovan Ã¡
Ġmoh l
rch i
tÄĽ z
Ġ201 8
b al
ĠpÅĻÃŃ sluÅ¡
ĠV o
ĠÅĻÃŃ kÃ¡
ÅĻ Å¯
e ch
cÃŃ ho
Ġst ÅĻÃŃ
Ġkom b
Ġfor mu
a ci
Ġre Å¾i
at u
ĠH ra
da la
dnÃŃ ho
Ġo kam
Ġp sy
rÃ¡ lnÃŃ
di tel
Ġdo sa
Ġne v
Ġ Å¡ÃŃ
Å¾ il
ĠzpÅ¯sob em
Ġdob rÃ©
Ġpo ku
di la
ĠJ an
Ġkdy by
Å ½
te ra
Ġv l
le s
ĠpÅĻi j
st r
a lo
kono mi
" .
ĠmÅ¯Å¾ eme
Ġna chÃ¡zÃŃ
ÅĻi lo
Ġn ov
Ġob Äįan
Ġj mÃ©
up er
ĠnÄĽk dy
Ġc eny
Ġp en
Ġg ene
Ġstra ny
ĠsvÄĽ tÄĽ
ĠdÄĽ tÃŃ
Ġc ca
t it
Ġce lou
Ġt ato
Ġi de
Ġp ÄĽk
Ġaut or
Ġkomu nika
ova lo
I N
Ġf yzi
A T
Ġ lu
ĠznÃ¡ m
Ġm on
Ġpod stat
ni ckÃ©
Ġsto letÃŃ
v ku
pr ve
Ġz ve
vÄĽ do
ĠnÄĽjak Ã©
Ġz ru
Ġdoku men
Ġz by
Ġs va
nÄĽ Å¾
Ġz vo
Ġce st
Ġch la
ĠpÅĻed mÄĽ
Ġpou Å¾itÃŃ
im Ã¡lnÃŃ
ĠÅĻe kl
Ġdo ma
Ġt Ã½m
Ġsto jÃŃ
z al
Ġcel kem
w a
ĠJ en
va r
Ġz t
ĠT i
ĠM y
Ġ 000
Ġp ly
ko j
J ak
Ġpo cit
Ġu li
ka mi
Ġme to
i d
Ġd ve
i tel
b an
Ġse bou
ĠmÄĽ st
A N
, -
nÃ¡ m
Ġz novu
p le
Ġm il
dÃ¡ m
ĠzÃ¡ jem
ĠI I
s Ã¡t
ĠpÅĻ Ã¡
ĠpÅĻÃŃ spÄĽ
Äįe kÃ¡
jÅ¡ÃŃ ch
Ġ4 0
Ġproje ktu
Ġnemo c
st vo
o logi
Ġh tt
ĠM e
Ġk Ã¡
ka li
Ġveli ce
Ġspolu prÃ¡
li ko
Ġzahra ni
Ġinter net
Ġfoto grafi
du jÃŃcÃŃ
Ġre kla
l nÄĽ
Ġse d
âĢľ ,
Ġn ÃŃm
Ġvy j
t Ã½
Ġpr i
ĠnaÅ¡i ch
Ġz ob
Ġkter Ã½m
ĠÄįlov ÄĽ
ĠpÅĻÃŃ liÅ¡
Ġs mÄĽr
Ġnep ÅĻe
vÃ¡ me
âĢ Ŀ
V e
ĠÄįas u
r ti
Ġ *
Ġz pÄĽt
v em
Ġ2 2
N Ãį
ĠÅ¡ tÄĽ
b it
Ġdis pozici
Ġsv Ã©m
ĠzamÄĽst nan
Ġpo Äįet
Ã ļ
ĠmÃŃ sta
Ġbo j
Ġvi dÄĽt
Ġob raz
Ġdoporu Äį
ĠS ta
t ak
Ġjed nu
ra cÃŃ
Ġfil m
mÄĽr nÄĽ
k rÃ¡
ĠP e
Ġjen om
Ġvo zi
ĠA u
s me
Ġ6 0
po dob
Ġs c
Ġh ro
Ġu Äįi
Ġs kon
ĠvÃ½ stav
Ã¡ le
h dy
Ġsamo t
Ġpot vr
V y
Ġpo lov
kov ou
ĠB e
rov na
Ġfir my
Å¾e t
Ġov lÃ¡
mu s
d ru
Ġve Äįer
Å¡ li
rÃ¡ Å¾
Ġb ra
ez i
Ġza ch
Ġkoru n
Äį kou
s li
Ġjedno ho
Ġho spo
an Ã½ch
z ovat
kti vnÃŃ
inÃ¡ rodnÃŃ
Ġn ena
Ġu kon
s on
Ġkon krÃ©
ĠblÃŃ z
Ġod povÃŃ
m it
Ġ2 1
Ġ Y
ĠnÄĽkter Ã©
Ġc y
ĠjÃŃ z
ran s
Ġkvali tnÃŃ
Ġpohy b
Ġkter Ã½ch
ro zen
ĠS o
ĠÃº zemÃŃ
Ġv nitÅĻ
Ġnep ÅĻÃŃ
ÅĻ em
g an
Ġ: -
t ro
vÃŃ ce
Ġe fe
Ġinforma cÃŃ
n al
r ky
Äįi la
po le
bÄĽ hu
s nÄĽ
Ġo Äįi
Ġu byt
ĠzÃŃ skÃ¡
Ġh r
Ġpe nÃŃ
Ġa Å¥
Ġjed nÃ©
Ġale spoÅĪ
ar k
Ġb av
ĠpoÅ¾ad av
dÃŃ me
Ġde se
" ,
ver z
bi li
d nÃ©
Ġakti vit
je z
Ġstav u
Ġtele vi
i la
Ġrozhod nutÃŃ
Ġprogra mu
Ġmoh li
p Å¯
oval y
Ġjin Ã½ch
ĠÅ¾Ã¡d nÃ©
z at
Äį en
n kÃ¡ch
ÅĻ enÃ©
ovÃ¡ no
ckÃ© m
Ġpo ho
uje te
Ġpoz dÄĽji
ĠpÅĻes nÄĽ
Ġin di
l Ã½ch
Ġc ena
Ġpova Å¾
ĠsouÄįÃ¡ stÃŃ
lÃ¡ ÅĻ
b r
Ġvz du
vro p
Äį ko
Ġkomp le
on y
Ġku chy
m Ã¡lnÃŃ
Ġk lÃŃ
ovi ce
Ġo f
Ġt rÃ¡
1 4
A R
Ġcen u
ra ci
Ġch a
ĠpenÃŃ ze
Ġprac ov
Ġdo ta
Ġpa ra
Ġfak t
vo st
Ġfun k
ĠnÃ¡ sled
1 6
b il
Äį nÃ½
ĠpÅĻÃŃ ro
\\ \\
f a
Ġstan ov
Ġbu du
ĠtÅĻe tÃŃ
ĠD ÃŃky
me nÃŃ
ĠKa Å¾
Ġpro bÃŃ
Ġob lÃŃb
st er
ĠzÃ¡ va
ro st
zi den
ĠrÃ¡ di
ra ti
E D
da tel
Äį a
en ci
st ÅĻÃŃ
hod no
z ka
nictvÃŃ m
ÃŃ ch
ma rÃ¡
hod ob
ĠspÃŃ Å¡e
da li
Ġh lu
Ġjed nÃ¡
Ġe konomi
Ġz mÃŃ
Ġu t
Ġobje dnÃ¡
st roj
Ġm lad
d ky
Ġstra nÄĽ
l ova
ho r
ĠdÄĽ lat
Å¾ nÃ¡
b oru
Ġosob nÃŃ
Ġjednodu ch
ĠÄįin nosti
k en
me c
li e
ĠumÃŃ stÄĽ
as i
Ġk ry
Ä ļ
Äį ce
ĠmÃ© nÄĽ
ze v
pa du
Ġa meri
Ġ ÅĻÃ¡d
se l
ni la
ĠpÅĻek va
Â Ń
Ġmen Å¡ÃŃ
me k
Ġk re
Ġvys vÄĽt
Ġtr hu
Ġnem usÃŃ
ĠpÅĻ it
ch i
q u
Ġobsa huje
Ġb ÅĻe
Ġd ata
Ġt zv
Ġpo zi
Ġnik do
Ġpod po
ĠnÄĽjak Ã½
va cÃŃ
Ġh ru
ĠvÄĽ c
e j
Ġat d
Ġpomo c
ĠtÄĽ lo
s pÃŃ
Ġc it
Ġrepubli ky
ĠÄįe skÃ©
Ġni mi
ne bo
sta u
Ġj em
Ġa r
Ġfo t
lo Å¾enÃŃ
o o
Ġna jdete
Ġvy rob
O R
s f
Ġli di
Ġmin ist
ĠÃº rov
ĠpodmÃŃ nky
c ou
an y
ĠN av
ĠplÃ¡ n
C H
ĠÃº to
ĠB ar
at y
Ãº Äį
ĠvÃ½ Å¡e
Ġsna Å¾ÃŃ
Ġv liv
s in
Ġb lo
Ġh ry
Ġneby lo
l ku
f in
ĠpÅĻed pis
s ho
Ġpoz em
Ġna opak
Ġmno ha
p en
Ġpo tom
Ġvel kÃ½
Ġf a
ĠnÄĽkter Ã½ch
Ġt ri
6 0
Ġh a
ĠÃºspÄĽ Å¡
ĠpÅĻÃŃ rodnÃŃ
Ġab so
Ġde sig
Ġc vi
vnÃŃ ho
Ġsa mi
c emi
nÄĽ te
ĠP ak
Ġkon stru
. )
Ã¡ r
8 0
Ġce stu
ĠvÃ½ bor
ĠC el
Ġsou hla
Ġsle d
Ã¡ k
ĠÅ¡i ro
Ġdo mu
Ġnut nÃ©
ĠÃºda je
Ġv ari
Ġna vr
ĠE x
st Ã½
Ġmo del
Ġpo ru
Ġsamo stat
ĠrÅ¯z nÃ©
Ġpoji Å¡tÄĽnÃŃ
ĠmÃ¡ lo
Ġkon ci
Ġmal Ã©
1 3
Ġby chom
ĠdÄĽ lÃ¡
ĠD alÅ¡ÃŃ
ĠÄįty ÅĻi
Ġpo k
ĠnÃ¡ d
Ġpo hod
ĠtÃ½ den
Ġf e
i g
Ġa rchi
ĠÄį ÃŃm
ĠP av
Ġn u
Ġpart ner
Ġmy Å¡
for m
ro mÄĽ
kov ÄĽ
Ġpa pÃŃ
Ġmo tor
ĠC e
ry ch
ĠE U
Ġt Ã¡
Ġpot Ã©
4 0
Ġzna menÃ¡
va tele
Ġmno hem
Ġjednotliv Ã½ch
Ġka marÃ¡
dÄĽ podob
R o
Ġby ste
P ÅĻi
Ġ2 3
Ġpro dÃ¡
v nost
m em
h ru
Ġro ky
Å¡ en
ĠPo dle
2 5
Ġka pit
Ã¡ ch
Ġvyb ra
Ġpot rav
Ġnem Å¯Å¾e
Ġo ÄįekÃ¡
Ġfir em
ĠpotÅĻe ba
ĠT ato
Ġbo le
sti ckÃ©
s nÃŃ
ĠrÃ¡ d
Ġob ra
E S
Ġpo pis
Ġak ci
ĠdomÃ¡ cÃŃ
ww w
im Ã¡lnÄĽ
ou f
Ġproje kt
Ġdo stup
O N
ĠrÃ¡ da
vy Å¡Å¡ÃŃ
Ġskup iny
Ġjs i
ĠnÃ¡ z
ĠprostÅĻed nictvÃŃm
ĠzaÄį Ã¡tku
k Ã½ch
ĠÃºda jÅ¯
Ġbu deme
ĠM art
je zd
ĠÄįÃŃ slo
kla du
Ġjin Ã©ho
ĠÄįer ven
Ġpla tÃŃ
Ġpo mÃ¡
ĠEvro p
Ã© ru
Ġdo mÅ¯
pr vÃ©
Ġk ÅĻe
hle dÃ¡
Ġsou vis
po mÃŃ
Ġko lo
Ġn ovÃ©ho
Ġsob o
Ġtak ovÃ½
ĠpÅ¯j Äįky
an t
d ro
V Ã½
ĠD u
d ka
dÄĽ lenÃŃ
ĠzÃ¡ stup
ĠvÄĽ n
ar y
Ġsku teÄįnÄĽ
Ġve dle
ĠvÄĽtÅ¡ inou
or Å¯
ĠK u
Ġener gie
m m
Ġtis ÃŃc
ĠÄĮ er
ÅĪ ujÃŃ
Ġzak Ã¡
ĠnaÅ¡e ho
zu jÃŃ
Å¾i la
Ġp enÄĽ
i e
Ã ī
li l
ĠT u
Ġf on
ez peÄį
stÃ¡ vÃ¡
Ġse z
Ġnapro sto
nÃŃ ku
Ġu dÃ¡
zÃŃ ch
ĠproblÃ© my
Ġdlou hodob
Ġri zi
ti la
ĠtÃ½ d
al Ã½
Ġve s
Ġro stli
z enÃ©
Ġne dÃ¡
Ġs vÃ¡
ĠpÅĻ em
Ġn ovÃ½ch
por t
Å¾ enÃ©
M o
Ġneby l
nu je
Ġroz dÃŃl
Ġb Ã¡
Ġu prav
ĠÅ¾ eny
Ġ em
ĠpÅĻe sto
hod ou
Ġvhod nÃ©
Å¾ ky
s s
ove nÃŃ
Ġhtt p
ĠH la
Ġst ru
ĠÃº ko
Ġ201 7
Ġobcho dnÃŃ
Ġve de
- -
nu l
Ġpo cho
ĠkaÅ¾d Ã©
p il
Ġrozhod nÄĽ
Ġre ce
Ġautom ati
ĠN ÄĽk
Ġop ak
Ġpo da
ĠudÄĽ lat
Ġob ce
po zor
Ġsitu ace
Ġre stau
Ġstan dar
s pi
i ce
Ġvz Ã¡
Ġu dÄĽla
Ġo h
Ġ Ġ
Ġa pod
ĠkterÃ© m
Ġzdra vÃŃ
Ġvyt vÃ¡
ĠuÅ¾i vatel
Ġchce te
men tÃ¡
ĠdÃŃ l
Ġka p
ĠK ra
Ġroz Å¡ÃŃ
1 7
r k
ĠÄįlÃ¡ nek
C E
ĠM u
ĠJe ho
ĠH a
on Å¯
Ġspe ciÃ¡lnÃŃ
c la
Ġst up
Ġpo ÅĻa
sta la
j nÃŃ
ĠM in
Ġ2 7
Äį nÃ¡
Ġho d
my slu
Ġz vu
ĠTak Å¾e
Ġpo ro
Ġz lo
Ġs ub
ĠzÃ¡ ÅĻÃŃ
ĠtÄĽ m
Ġch rÃ¡
Ġosob y
ov ky
ati vnÃŃ
Ġz ra
Ġt vor
Äı te
Ġob ou
Å¡k er
ĠpÅĻit om
Ġje Å¾
te ÅĻ
m Ã½
ĠVa Å¡e
Ġdi va
ĠbezpeÄį nost
Ġ8 0
Ġpo hled
ĠpÅĻe v
Ġhu d
Ġob vy
ĠP rÃ¡
Ġo ce
Ġm la
ÅĻ ka
Ġve dou
Ġcha rak
Ġc uk
Äį uje
Ġvz dÃ¡le
Ġ2 6
nÃ¡ ch
ĠâĢ ľ
Ġ Ð
Ġan gli
Ġjeho Å¾
Ġvy p
z nÄĽ
ĠprÃ¡ vo
ovÃ½ mi
ne j
d na
ĠpÅĻÃŃpa dnÄĽ
k ovÃ¡nÃŃ
ĠnÃ¡ mÄĽ
Ġty pu
Äį ÃŃm
Ġpro hlÃŃ
Ġjin Ã½
ĠmÄĽ lo
Ġ2 8
d nout
Ġdo dÃ¡
Ġpo su
Ġa no
Ġdo cela
in o
ĠpÅĻÃŃ leÅ¾ito
Ġdo spÄĽ
Ġman Å¾el
Ġspo le
Ġpo Å¡ko
Ġe vrop
sk em
ĠpÅĻed po
Ġfun kce
st nÃŃ
Ġpr vnÃŃm
ĠÄįin nost
ro ti
Ġd nÃŃ
en ta
Ġm obil
klad Å¯
Ġstar Å¡ÃŃ
ĠC a
Ġp sa
ĠM ÃŃ
v in
Ġobsa hu
Ġm l
c y
Å¡ enÃ©
na mi
Ġce lo
vo l
Ġmez inÃ¡rodnÃŃ
mÄĽ ry
Ġdi sku
la ti
ckÃ½ mi
co m
Ġz lep
Ġpa ci
Ġkan ce
Ġpo de
Ġkter Ã©ho
z ra
m bo
Ã© ri
Ġma ji
ne tu
Ġan ti
mÃŃ n
Ġnep ÅĻi
ĠnÄĽ me
Ġm ou
ĠdÅ¯ vo
al Ã¡
Ġtu ri
er u
ĠspoleÄį nÄĽ
re ch
Ġt va
ĠnÃ¡ Å¡
kon stru
Ġpou Å¾it
Ġzd roj
vi li
Ġj men
nÄĽjÅ¡ÃŃ ch
Ġvy hlÃ¡
la du
l ovÃ©
Ġsou kro
Z Ã¡
Ġst ÃŃ
Ġd nÅ¯
Ġs uper
Ġve denÃŃ
Ġro ze
Ġt rans
Ġ ly
h ned
k re
Ġrov nÄĽÅ¾
Ġu vÃ¡
Ġpo h
ku ji
ko ho
ĠJ in
Ġdo da
Ġ201 6
Ġto lik
u j
Ġjed nÃ¡nÃŃ
Ġobsa h
Ġba rev
9 0
er e
an ce
Ġdopl ÅĪ
Ġdo sÃ¡
sta va
mÄĽ ru
Ġd ny
Ġfinan ÄįnÃŃ
Ġm ne
m Ã¡t
ĠdÄĽ la
Ġbo hat
Ġpod poru
Ġpomo ci
Ġmoh la
Å¡ il
jÃŃ Å¾
dÃ¡ me
ĠZ e
Å¾i li
Ġprove denÃŃ
dÃ¡ ÅĻ
ĠprÅ¯ bÄĽhu
S S
Å¾e k
2 4
Ġop ti
Ġji stÄĽ
ĠmÄĽ sto
Ġsa ma
an ta
di li
Ġsc Ã©
ĠD ob
Ġza hÃ¡
Ġne chÃ¡
ĠS lov
ĠJi ÅĻÃŃ
ĠÂ §
ĠÄįlovÄĽ ka
a jÃŃ
Ġt vÃ¡
Ġko mi
Ġ ÅĻi
l t
Ġhodin y
Ġb ran
ĠkaÅ¾d Ã©ho
ĠmoÅ¾ nosti
Ġkomb ina
Ġprav dÄĽpodob
Ġm Å¯j
ĠbÄĽ Å¾
ĠpÅĻed cho
u de
D ob
ĠspoleÄį en
ĠÅ¡ko la
lÃ© m
ho dy
Ġpre ziden
Ġpa mÄĽ
Ġleto s
Ġnem ov
Ġaby ch
Ġt em
ĠÄį em
dÄĽ j
ch Å¯
Ġka men
Ġnap s
m nÃŃ
vÄĽ z
mÃŃ t
ĠvÄĽ cÃŃ
Ã¡l y
âĢ ĵ
Å¡ uje
ĠpouÅ¾ÃŃ t
ez pe
sti l
ĠvÃ½ zku
ĠstrÃ¡ nky
Ġ201 5
Ġt Ã©m
Ġp ru
K dyÅ¾
stÅĻe d
ĠÄįty ÅĻ
Ġzprac ovÃ¡nÃŃ
Ġ )
Ġpro u
ĠdÅ¯leÅ¾it Ã©
ĠvÃ½bÄĽ r
E L
m r
nÄĽ l
ce t
ĠpÅ¯sob ÃŃ
ĠtÃ© ma
ĠR y
ĠL o
Ġto hle
Ġz dÃ¡
ĠzaÄį al
* *
v no
ĠpouÅ¾ÃŃ vÃ¡
dÄĽ le
ve nÃŃ
ĠB ÄĽ
A L
Ġna lez
Ġta bu
Ġsp l
le r
Ġd ub
Ġsvo bo
ĠÃºÄįast nÃŃ
ĠnÃŃ z
Ġt itu
Ġhu de
Ġpo mÄĽrnÄĽ
e x
Ġvide o
rov nÃ¡nÃŃ
Ġzt rÃ¡
Å¾ enÃ½
Ġna u
an is
ho t
emo c
b Ã½
Ġbo huÅ¾el
le ÄįenÃŃ
p Å¯sob
Ġza loÅ¾
ĠvÃ½ ji
I T
Ġst ani
Ġde l
rov o
po j
vnÄĽ jÅ¡ÃŃ
E T
te ÄįnÃŃ
kla dnÃŃ
Ġspo koj
ĠnÃ¡ hra
in ci
lo stÃŃ
di a
Ġubyt ovÃ¡nÃŃ
ĠzkuÅ¡eno sti
ĠP ar
Ġpostup nÄĽ
Ġz emi
Ġbudou c
Ġ201 4
Ġka be
ĠlÃ© pe
Ġori gin
j Ã¡
C o
Ġsou bor
Ġvy rÃ¡
h t
g it
Ġne vÄĽ
ch e
ĠPra hy
Ġprofe si
liko Å¾
Ġkro mÄĽ
O d
Ġsko ro
Ġsta ro
Ġs vÃŃ
ĠmoÅ¾ nostÃŃ
Ġtvo ÅĻÃŃ
c m
ĠpÄĽ t
ĠvÃ½ mÄĽ
Ġd ale
ĠÅĻÃŃ ct
ĠâĢ ¢
Ġp ovÄĽ
sa h
ovan Ã©ho
b lÃŃ
Ã Ŀ
Ġod stra
K a
dÃŃ te
Ġby t
Ġdo z
tel nÄĽ
Ġh mot
ĠbÃ½ val
k Ã½m
ra l
Ġo z
h Ã½
Ġk ÅĻÃŃ
sta vÄĽ
jÃŃ ma
ĠzÃ¡ vis
Ġnebo Å¥
Ġh ez
Ġvel kou
Ġpod la
k ovÃ©ho
Ġna Å¡em
Ġs loÅ¾
Ġdruh ou
Ġpo pu
Ġg a
ĠposlednÃŃ ch
ĠJak o
s p
Ġtla ÄįÃŃ
Ġmy slÃŃm
ĠP ou
b le
k lu
Å¡i m
Ġst i
ĠnÄĽjak ou
ÃºÄį ast
Ġw ww
Ġza stav
Ġjak Ã½
vo je
ÅĻi la
Ġpodob ÄĽ
Ġelekt ri
Ġi hned
ĠnÃ¡sle dujÃŃcÃŃ
Ġprovo zu
Äįas ÃŃ
ĠS y
Ġvz or
ĠsouÄįas nÃ©
Ġob Äįas
k ovat
ĠvÃŃ tÄĽz
ĠV z
ĠmÄĽsÃŃ cÅ¯
Ġko la
n g
N Ã¡
Ġmo ti
ĠÅ¾Ã¡d nÃ½
Ġinve sti
s Å¥
Ġmo je
Ġpo prvÃ©
m lu
vo ji
Ġorgani zace
ĠT ÄĽ
ĠpÅĻed se
ĠU Å¾
ĠvzdÄĽlÃ¡ vÃ¡nÃŃ
Ġz ne
kla dem
ra zi
Ġhla s
ĠvÃ½ Å¡i
n skÃ©
Ne j
ĠH e
ĠvÄĽ ku
Ġdru Å¾
ze nÃŃm
ni li
vi du
Ġn ovou
Ġsna dno
Ã¡lnÃŃ ch
c vi
ĠpÅ¯ vodnÃŃ
ĠsoutÄĽ Å¾e
ĠtÃŃm to
ĠP O
Ġzaji Å¡Å¥
Ġprost oru
ĠvÃ½ voj
Ġst rav
ĠprÃ¡ va
Ġne ob
ĠchtÄĽ l
Ġdruh Ã½
Ġji ch
d lÃŃ
Ġsv at
Ġna z
ou t
Ġd Ã¡m
4 5
Ġw e
ĠprÃ¡ vnÃŃ
Ġb rÃ¡
ka jÃŃ
je dnÃ¡
ĠzÃ¡ vo
ĠdÅ¯ vodu
Ġov liv
ĠvyuÅ¾ÃŃ t
Ġnes mÃŃ
pis u
Ġnemov ito
ĠP i
ĠmÃŃst nÃŃ
Ġn ovÃ¡
Ġvy padÃ¡
Ġu sku
Ġ201 3
ĠM Å¯Å¾e
ĉ Ċ
j a
x u
an Ã©ho
Ġzna Äįky
Ġvy z
Ġ â
ĠJ sou
prav y
Ġna je
Ġba z
Ġpo p
le ch
Ġvy pl
ĠlÃ© Äį
ĠUS A
ĠvÃŃ ken
c ka
ĠtÄĽ la
ĠumoÅ¾ ÅĪuje
x e
Ġka pa
Ġf i
Ġzd ro
ta ci
Ġje z
n eme
ĠZ em
Ġpo le
Ġd ÅĻÃŃve
Ġs te
Ġho te
ovan ou
dr Å¾ÃŃ
ĠjmÃ© no
ve jte
pÅ¯j Äįka
nÄĽ nÃ©
ch ny
Ġmateri Ã¡lu
2 2
ĠvÃ½kon u
ĠÅĻa du
Ġop rÃ¡
Å¾it ÄĽ
ĠvÃ½ch o
Ġs Ã¡
Ġli sto
ĠpÅĻi je
Ġsitu aci
Ġuni verz
Å¾ uje
Ġm lÃ¡
Ġod ha
Ġd rob
Ġz rovna
Ġne vÃŃm
Ġru ce
Å¾ as
di o
Ġneby la
Ġty p
s nÃ©
? ?
ĠÄįlÃ¡ nku
Ġpen zi
Ġko ste
Ġka pe
Ã ¹
k ova
Ġa re
dÄĽ lÃŃ
ĠÅĻi di
ĠvÄĽ do
Ġdo Å¡lo
Ġpov rch
st ÅĻi
Å¡ tnÃŃ
Ġpro d
stou penÃŃ
Ġ:- )
ĠM ari
te ÅĻÃŃ
Ġtr Ã©n
f il
ra zÃŃ
Ġne vi
ka la
Ġoby vatel
ĠÅ¡ko le
c ko
k Ã©ho
Ġte st
ĠzvÃŃ ÅĻ
ent Å¯
ĠzmÄĽ ny
k ne
ĠmÄĽ ly
ĠN em
Ġnej vÃŃce
ĠÃº Äįet
vo dnÄĽ
Ġvy zkou
Å¾ÃŃ t
ĠpotÅĻe bu
) :
Ġs lova
ÅĻe l
ĠspoluprÃ¡ ci
ĠpotÅĻe by
Ġd Ã¡t
Ġna jÃŃt
Ġs nÄĽ
Ġotev ÅĻ
Ġ9 0
ĠÄĮ ÃŃ
Ġve Å¡ker
Ġ7 0
le nÃ¡
Ġkone ÄįnÄĽ
Ġnep ro
Ġkni hy
ĠÅ¾ivo tnÃŃ
Ġra dost
ĠzaÄįÃŃ nÃ¡
n ovÃ©
Ġko lik
hru ba
Ġob rov
Ġo znÃ¡
Ġdost al
ĠpÅĻes vÄĽd
Å¡et ÅĻenÃŃ
lo mou
Ġvyu Å¾itÃŃ
da jÃŃcÃŃ
stro je
Ġte ra
ĠÅ¡ Å¥
Ġh ÅĻe
ĠNe nÃŃ
Å¡ nÄĽ
ĠnÃ¡ rodnÃŃ
sti val
L A
tel nÃ½
st itu
skÃ½ mi
Ġza hr
on a
mi l
ĠâĢ ¦
Ġsobo tu
lÃŃ n
Ġk ilo
Å¡e nÃŃm
Ġne lze
Ġmo ci
Ġk lÃ¡
Ġsou d
c Å¯m
Ġdale ko
Ġdob rÃ½
Ġ5 00
ĠoprÃ¡ vnÄĽ
Ġna hra
h ne
Ġpa nÃŃ
Ġk ri
ĠvÃ½sled ky
Ġu spo
Ġmin i
Ġg e
Ġ2 9
Ġpro de
za cÃŃ
ĠvnitÅĻ nÃŃ
ĠprÅ¯ mÄĽr
ĠpÅĻe ce
te rÃ¡
Ġp Ã¸
ĠpÅĻ inÃ¡
di ska
mo sf
ĠT ÅĻe
Ġce sty
Ġnej vyÅ¡Å¡ÃŃ
v ce
lo Å¾it
Ġpod por
Ġosob nÃŃch
Ð ¾
ĠA meri
Ġnech tÄĽ
Ġm nÄĽ
tel Å¯
Ġproce s
Ġcel Ã©ho
Ġko mentÃ¡
s en
x us
ĠstÃ¡ tnÃŃ
ĠPet r
ĠjÃŃ t
st em
ĠÅĻe ditel
v Ã½ch
bÃŃ zÃŃ
te nÃŃ
Ġzdravo t
Äįi li
g re
Ġpra Å¾
ĠJe dnÃ¡
ĠÄįe kÃ¡
ĠBr no
ĠPr vnÃŃ
Ġpo ÄįasÃŃ
g er
ĠnÃ¡ zor
ĠpÅĻi z
Ġ201 2
an u
ni e
ĠÅĻÃŃ j
Ġst roj
ĠzaÄį ala
K o
Ġle ty
Ġpo j
va lo
Ġte hdy
Ġaplika ce
O P
Ġpo sti
klÃ¡ dÃ¡
Ġkup ujÃŃcÃŃ
st ane
ĠÂ »
ĠpÅĻi hlÃ¡
ban kovnÃŃ
raz it
Ġmode rnÃŃ
ĠJ u
ÅĻÃŃ m
Äįe ra
ĠvÃ¡ no
ĠnÃ¡ klady
Ġ3 5
Ġpe v
Ġsch vÃ¡
ĠstÅĻe dnÃŃ
p ar
Å¯ l
d nost
ĠprÃ¡ v
Ġinter netu
ĠnÄĽk de
ĠnÃ¡d her
ma li
sa hu
z ovÃ¡nÃŃ
Ġpe Äį
ĠNÄĽ mec
7 0
Ġspeci ali
ĠpÄĽ ti
Ġpod nika
li ce
pÄĽ tÃŃ
l ce
t ko
ĠpodmÃŃ nek
Ġu pozor
Äįe j
Ġse ri
ch ov
Ġp y
li vÄĽ
ĠÅ¾ivo tÄĽ
po z
Ġn ovÄĽ
Ġt he
Ġs klad
ĠpÅĻÃŃ j
Ġnav Å¡tÃŃ
ĠstrÃ¡ nkÃ¡ch
m lou
ĠÃº vÄĽ
Ġser ver
ĠmyÅ¡ len
Ġnez Ã¡
Ġo hro
Ġzdravo tnÃŃ
ĠjejÃŃ m
Ġrepubli ce
Ġk g
Ġdne Å¡nÃŃ
Ġu plat
ĠrÃ¡ no
N O
Ġse znam
ĠÄįe skÃ½ch
ĠvÄĽtÅ¡ ina
I S
Ġh e
ĠpÅĻipo mÃŃ
Ġma jet
k ÄįnÃŃ
Ġza stup
Ġh roz
Ġkon ku
Ġpoji st
Ġje dnÃŃm
Ġon emoc
Ġod ol
I n
pi la
t la
Ġsta ÄįÃŃ
ne ch
ĠK romÄĽ
ĠSt ÅĻe
tu ry
Ġme ch
Ġkra je
it Ã¡
ĠmÄĽsÃŃ ce
ĠvÃ¡ Å¡
2 3
Ġser vis
Ġpr Ã½
d ku
Ġ ÅĻ
Ġa gen
Å¾ Ã¡
Ã³ n
ĠÄĮe skÃ¡
l ovÃ¡
Ġstra nu
Ġdost ane
ĠpÅĻÃŃ Å¡tÃŃ
men tu
Ġvyso kÃ©
ĠA r
Ġst al
Ġp last
ĠM ezi
u ro
ĠJo se
cou z
i k
K A
Ġva Å¡i
Ġm lÃ©
Ġpod Ã¡
Ġza ÅĻa
Ġat mosf
p al
Ġzve ÅĻej
ĠpÃ© Äįe
ĠNav ÃŃc
Ġk al
p ce
ĠzÃ¡ bav
Ġ ovo
Ġre ak
d lem
Ġra d
ÅĻi li
cho du
Ġ Q
Ġkomu ni
Ġs ly
Ġjak ou
ĠnÃ¡ mi
ĠzÃŃsk at
ĠÅ¡ pi
Ġhodno cenÃŃ
ĠpÅĻÃŃ tom
t ku
Ġo sla
I C
Ġs en
ĠSpo leÄį
kaz uje
Ġdo stat
do sti
Ġpod zi
ĠMo rav
O D
an d
Ġvyj Ã¡d
f f
van Ã¡
r ka
on e
r ku
Ġde ta
Ġmu sÃŃm
Ġ201 1
d ci
k cÃŃ
Ġu p
Ġmet rÅ¯
Ġide Ã¡lnÃŃ
Ġindi vidu
Ġkon zu
Ġso ci
Ġsou ladu
pole dne
Ġli st
¿ ½
Ġs li
ĠpÅĻÃŃ bÄĽh
Ġsy n
ov u
ï ¿½
Äį eno
Ġpu bli
sle dek
ob y
Ġre zer
Ġkni hov
ĠvÃ½ z
Ġh lou
on t
Ġba teri
ĠmÄĽ stÄĽ
Ġrodin y
slov en
de sÃ¡t
stÄĽ ji
Ġstru ktu
Ġaby chom
Ġstej nÃ©
ĠpÅĻi jde
ĠV la
Ġpl nÄĽ
O b
Ġro li
Ġo le
Ġvel kÃ¡
ĠÃº Å¾as
ĠdÅ¯ m
ĠspÃŃ Å¡
ĠpoÄį tu
lÃ¡ n
ĠnabÃŃd ky
ĠprÃ¡ zd
m b
Ġk ÅĻi
Ġopat ÅĻenÃŃ
Ġvr cho
ĠS na
ĠnÃ¡vÅ¡tÄĽ vnÃŃ
ĠnÃŃ Å¾
ne bankovnÃŃ
Ġpo l
Ġslou Å¾ÃŃ
9 9
Ġna to
ĠTy to
Ġu vÄĽdo
ter n
Ġnich Å¾
Ġpoz iti
ĠsmÄĽr em
Ġd lu
ĠdokÃ¡ Å¾e
le nou
Ġzd rav
di e
Ġpro sÃŃm
ti li
Ġh ÅĻi
Ġse ver
Ġd emo
ĠvÃ½raz nÄĽ
Äį nou
C h
Ġz ÃºÄįast
Äįe nÃŃm
met rÅ¯
Ġf ran
M A
Ġkr iti
Ġfil mu
my sle
t Å¡
Ġst ran
Ġz hruba
ko sti
Å¡ ak
ĠR i
Ġd rÃ¡
den ti
Ġs ho
t al
vi la
ĠMart in
rov nÃ¡
N o
Ġd voj
Ġk or
Ġmy slÃŃ
Ġ201 0
Ġvide a
Ġbu Äı
h el
Ġz mi
ĠvÃ½ povÄĽ
Ġu stan
ĠtÃ½ mu
Ġdob r
Ġs bÃŃ
hod nÃ©
Ġm ana
ĠS T
Ġauto bu
Ð °
p ÅĻi
ni lo
jÅ¡ÃŃ m
Ã© ra
ĠK ri
ĠdvÄĽ ma
Ġk le
Ġs pa
on Ã¡
lo n
Ġh ou
3 5
ĠvÅ¯ Äįi
Ġ ovÄĽ
Ġchu Å¥
st ri
Ġnastav enÃŃ
Ġru kou
ĠvÃ½ u
k an
Ġh rÃ¡t
a b
Ġna ro
Ã¡lnÃŃ ho
Ġz im
Ġelektro ni
at ÃŃm
ĠT he
201 8
S t
je dno
Ġne vÃŃ
Äį enÃ©
da lo
Ġhodno ty
P S
Ġcent ra
O L
ĠP la
Ġabso l
ce ti
tu ra
Ġne od
b em
hÃ¡ nÃŃ
fika ce
ĠSt ra
Ġbar vy
ĠTo mÃ¡
2 1
ĠÃº no
Ġob a
k or
va Å¾
Ġz v
Ġdo ba
z ÃŃm
Ġpo sla
ĠpÅĻÃŃpa d
w s
ĠkaÅ¾ do
liv Ã©
Ġb alÃŃ
r nÃ©
teÄį nÃ©
Ġobvy kle
Ġokam Å¾i
Ġsv Ã½mi
Ġin spi
Ġza pla
Ġs mÃŃ
Ġmin ul
pra vÄĽ
ĠH or
ĠÅ½ i
Äį t
Ġmode r
Dob rÃ½
Ġdel Å¡ÃŃ
Ġde fin
en stvÃŃ
m al
Ġden nÄĽ
kra j
Ġpo ly
Ã¡t or
zna mu
ĠU ni
ĠnÃ¡sle dnÄĽ
Ġmi kro
Ġsou pe
Ġtak to
bu d
ĠÃº s
Ġda ÅĪ
t at
ch al
Ġzem ÃŃ
ĠÅ¡e st
d ovÃ©
Ġpo ste
ĠzÃ¡ sob
ĠspotÅĻe bi
ĠF o
f u
ĠS tÃ¡
er y
Ġmoh lo
Ġho t
Ġveliko sti
Ġspou stu
Ġlisto padu
Ġ> >
ro m
k r
sko sloven
Ġsvo ji
ĠVÃ¡ cla
lÃ© pe
zv em
Ġob jem
Ġt an
s mu
Ġob leÄįenÃŃ
Ġz bra
Ġpoda ÅĻilo
ĠÅĻa da
ne se
Ġd ove
ĠÄį le
k nout
Ġob oru
Ġsport ovnÃŃ
Ġsy mbo
Ġpov ÃŃ
ÅĪ ovÃ¡nÃŃ
ĠpÃŃ sem
ĠJe dno
ter Ã©
Ġh Ã¡
ĠnÃ¡ zvem
T en
Ġvy h
stÃ¡ le
Ã¡t ky
Ġut kÃ¡nÃŃ
Ġu dr
Ġz nÄĽnÃŃ
Ġd ce
Ġk Å¯
ma il
tÃ¡ ch
gi i
pad lo
Ġre konstru
Ġk Ã³
Ġmo d
Ġu vi
ve den
c u
Ġver ze
Ġp ove
2 6
Ġvo da
ati on
Ġorg Ã¡n
da go
Ġvy vo
Ġjedno m
t h
vo sti
Ġod vo
ĠnÃ¡mÄĽ stÃŃ
ĠNe bo
ĠÅĻa dÄĽ
O S
E M
ĠdalÅ¡ÃŃ m
Ġostat nÃŃch
vo bo
Ġnov in
Ġch emi
v nitÅĻ
Ġs nÃŃm
Ġza v
Ġna po
re j
Ġhote lu
ĠÅĻa dy
J Ã¡
ĠA si
Ġh lÃ¡
Ġtre st
Ġte p
Ġde sÃŃ
Ġsk lÃ¡
ĠÅł ko
ĠÅĺ e
ĠcÃŃ lem
Ġv ra
h al
Ġprac ovat
bil nÃŃ
Ġnem Ã¡m
ali zace
Ġ19 8
ÅĪ ovat
Ġpro sin
Ð µ
ĠzemÄĽ dÄĽl
Ġsport ov
Ġd al
r ny
o ko
hro ma
de lnÃŃ
Ġni Å¾Å¡ÃŃ
ĠVy so
ĠM at
Ġener ge
ine k
Ġdi vÃ¡
Ġpo sÃŃ
ĠD Ã¡le
me ch
l nÃ©
Ġti sk
g r
i lu
v uje
Ġpoz dÄĽ
ÅĪ te
ĠstÃ¡ tu
ĠchtÄĽ la
Ġaby ste
. :
Å¡et ÅĻ
T e
Ġre gu
bÄĽ r
Ġrodi Äįe
Ġmu ze
ko logi
ĠdÅ¯ sled
Ġfun kci
ĠÄįt enÃ¡
Ġh vÄĽz
Ġpohy bu
k s
ĠS tu
rÃ¡t it
Ġpro hlÃ¡
ĠD P
ĠW in
Ġ4 5
ĠB ez
ĠÃºrov ni
ĠnÃ¡ zev
ch em
Ġpre zen
A S
z Å¯
Ġmas Ã¡
Ġ3 1
mo c
P ÅĻÃŃ
Ġj o
ĠtrÃ©n in
sky t
ra mi
ĠklÃŃ Äį
Ġmy sle
Ġfir ma
ĠkrÃ¡s nÃ©
la r
Ġdi sk
pÃ¡ nÃŃ
Ġpo hledu
ĠvÅ¾dy cky
P r
!! !
Ġbo dÅ¯
en ty
Ġkar ty
Ġtex t
Ġno ci
Ġmuse l
lu s
Ġpod rob
chÃ¡ze jÃŃ
Ġtu rna
ĠvÃ½rob ce
inÃ¡ ch
Ġob li
Ġwe bu
ĠS u
Ġvy bÃŃ
2 7
ĠD a
Ġfe stival
ĠH D
za la
Ã³ ny
ĠO lomou
D r
ĠSa mo
ĠmÄĽsÃŃ c
Ġvzta hu
U S
enÃ½ mi
v ak
Ġroz voj
Ġce stÄĽ
Ġsi g
Ġpor no
le b
y m
ĠtÃ© Å¾
Å¡t ina
vi ce
ĠsÃŃ tÄĽ
ĠchtÄĽ jÃŃ
Ġvy dÃ¡
Ġoko lo
Ġjejich Å¾
bo o
lÃ¡ rnÃŃ
ĠC ÃŃ
ĠP or
cen ÄĽ
Ġsr dce
ĠpouÅ¾ÃŃ vat
Ġk nÃŃ
Ġvla sy
na pÅĻ
ĠÅ¾ ena
ĠprodÃ¡ vajÃŃcÃŃ
ĠvÃ½ stup
Ġz ÅĻejmÄĽ
Ġtak ovÃ¡
ĠpÅĻÃ¡ tel
ÅĻÃŃ v
Ġvzta h
Ġch ci
R e
nika jÃŃcÃŃ
Ġse stav
Ġdne ch
Ġza ÅĻÃŃ
Ġb al
Ġli dem
Ġvybav enÃŃ
Ġse znÃ¡
c eme
ĠcelÃ© m
ĠpÃ¡ tek
Ġin ten
Ġlo kali
m nÄĽ
v Å¡ak
Ġosob a
ĠZ de
ĠplÃ¡ nu
re t
tÃŃ t
Ġf Ã¡
ĠB i
Ġmili onÅ¯
ĠnÃ¡ kup
ĠJa ro
je te
ĠnÄĽ mu
ĠpÅĻi bli
ĠzamÄĽ ÅĻ
Ġpo by
Ġrece p
ĠzÃ¡ klad
l Ã©ho
Ġnem ajÃŃ
Ġsk ÅĻÃŃ
Ġme di
Ġza p
ĠÄįtvr t
st rÃ¡
A le
ĠdÅĻe vÄĽ
Ġ3 00
Ġm Ã©ho
ĠF or
ter Ã½
nutÃŃ m
Ġbo d
ĠnÃ¡vr h
ĠT er
ho j
Ġsta lo
d lenÃŃ
Ġin form
Ġin teri
mi le
ĠJ ana
s or
ĠpÅĻÃŃpa dech
ĠT ÃŃm
Ġ &
bÃ¡ ch
Ġpo ÅĻÃŃ
Ġce sta
Ġvyb rat
le Å¾ÃŃ
2 8
Ġmo t
chy b
Ġsub je
n ovÄĽ
Ġo sa
ha jÃŃ
Å¾ ku
Å¾e nÃŃm
ÄįÃŃ ch
Ġstav by
na m
Ġukon ÄįenÃŃ
Ġkance lÃ¡
Ġk ov
Ġsouvis losti
ĠS i
Ġdese t
ĠKaÅ¾ dÃ½
ĠmusÃŃ te
Å¾ÃŃ m
ĠzÃ¡ ru
Ġm Ã³
la ci
m ov
j nÄĽ
Ġbo dy
tu jÃŃ
PÅĻe d
ĠumÄĽ nÃŃ
forma ce
ĠA p
Ġtechnologi e
ĠvzÃ¡ jem
l ti
ĠNi c
v Ã©ho
Å¾ nost
Ġklu b
ĠzajÃŃ ma
Ġspo jenÃŃ
ĠpenÄĽ z
Äįe b
Ġdi git
Ġpom alu
Ġpo loÅ¾
Ġskup in
Ġpro pa
ĠO stra
den nÃŃ
Ġjas nÃ©
Ġce lÃ¡
Ġfotografi e
Ġau ta
Ġtento krÃ¡t
Ġdo p
vi se
Ġe le
Ġe vi
Ġch od
Ġdlou hÃ©
ĠvlÃ¡ dy
Ġ lou
Ġst r
Ġi mp
ova tele
lov Ã½ch
Ġs mysl
Ġmax imÃ¡lnÃŃ
Ġkou pel
k vi
ĠT V
Ġk at
Ġset kÃ¡nÃŃ
ĠBy l
Ġvy hledÃ¡
ĠH ar
Ġstaveb nÃŃ
gra m
Ġra dy
ĠSlov en
Ġre pre
Ġpodob nÄĽ
l d
Ġob last
Ġhlu bo
rÃ¡ ch
H o
Ġz pÄĽ
Ġpro cent
Ġch ovÃ¡nÃŃ
Ã© ry
ÅĻe nÃŃm
ĠS la
Ġp as
ĠD av
Ġsou du
ĠÃº va
ĠpÅĻ eno
Ġgra fi
ĠSt ar
s h
ĠumÄĽ le
raz il
Å¡tÄĽ stÃŃ
Ġo to
Ġhle dÃ¡
Ġex tra
ĠsprÃ¡ vnÄĽ
ĠvzdÄĽlÃ¡ nÃŃ
n ovÃ¡
vÅ¯ r
st ar
Ġosob nÄĽ
ni ÄįnÃŃ
Ġpr emi
19 9
ÃŃ ce
ĠP an
Ġvy sÃŃ
Ġo cho
ĠTak Ã©
ĠH u
Äįem Å¾
ĠpÅĻed em
t on
ĠpoÅ¾ Ã¡
Ġroz poÄį
ĠkonkrÃ© tnÃŃ
Ġpsy cho
re l
lem ati
ĠskuteÄį nosti
x x
Ġhle diska
Ġkvali ty
Ġpo plat
le nÃ½
to ra
Ġnech ce
ĠveÅĻej nÃ©
Ġobcho d
Ġvy stav
pla tek
A M
ov in
Ġ ;
ĠVÃ¡ no
ÅĻÃŃ me
Ġos m
Ġvz hledem
ĠpÅĻi Å¡el
ĠIn g
Ġnej de
Ġneu stÃ¡le
ĠÅ¡ an
Å¡ÃŃ ch
Ġfung uje
pi e
v anÃ©
Ġzak ou
Ġspolu prac
ĠN ak
\\\\ \\\\
Ġpo ch
ĠÃº stav
ĠlÃ©ka ÅĻ
Â °
c ro
ing u
a u
k Ã©m
Ġkontak t
Ġnez byt
Ġkon fer
jez du
v ovat
Ġsr p
Ġdve ÅĻe
Ġna ho
B y
A D
ĠpÅĻedstav uje
hrÃ¡ l
Ġin f
ti ckÃ½
ĠproblÃ© mÅ¯
Ġm ar
mÄĽ st
ĠkaÅ¾ dou
Ġva Å¡ÃŃ
ĠkrÃ¡ lov
Ġvy ch
ĠF i
de jte
ĠÅĺ ÃŃ
za ÄįnÃŃ
ĠpÅĻinÃ¡ Å¡ÃŃ
ĠB er
ist er
Ġvy dÃ¡nÃŃ
ĠBy lo
ĠprostÅĻed ky
Ġn enÃ¡
Ġveliko st
Ġv nÃŃm
Ġpo ÅĻÃ¡
Ġo pu
Ġvy tÃ¡
tej nÄĽ
se li
ĠK e
Ġvzdu chu
vo lu
Ġpro mÄĽ
ĠÄįa se
Ġt ÅĻ
sti la
ĠzamÄĽst na
Ġpodstat ÄĽ
Ġs myslu
ĠS lu
Å¡ te
mÃŃ r
Ġmuse t
Ġpr inci
I D
Ġprakti cky
Ġaktu Ã¡lnÃŃ
ĠnÃ¡ bo
ĠprvnÃŃ ho
Ġcel kovÃ©
ĠlÃ¡ tky
3 3
ĠkaÅ¾d Ã©m
Ġra dÄĽji
inÃ¡ le
Ġz r
Ġpl nÄĽnÃŃ
Ġ ÅĻÃ¡
Ġba lenÃŃ
h an
Å¡ nÃ©
Ġpl nÃ©
Ġvz pomÃŃ
ĠÅ½ e
Ġsk le
ĠvÃ¡l ky
Ġs kla
Ġhro ma
Ġka len
Ġ3 6
Ġoko l
Ġje likoÅ¾
p ÅĻÃŃklad
Ġ200 9
Ġst ati
Ġkonce r
ÅĻÃŃ t
f un
ro k
s er
ĠspoleÄį nostÃŃ
ĠnemÄĽ l
Ġochra nu
ĠK rÃ¡
Ġo fi
ð Ł
l ovat
d nosti
Ġuve dl
Ġtr h
ĠdÄĽ j
Ġz tra
Ġonemoc nÄĽnÃŃ
pro du
Ġvo dou
ĠÅ¡ko lnÃŃ
da cÃŃ
ĠÅ¡tÄĽ stÃŃ
Ġ y
7 5
g le
Ġan d
ĠÄįas o
ĠzaÄį ne
kon Ã¡
av Ã¡
ze l
ÄĽ jÅ¡ÃŃ
Ġnap l
nÄĽjÅ¡ÃŃ m
Ġnech at
li la
be k
Å¾e la
Ġroz hov
hle dnÄĽ
Ġstra te
ĠpÅĻedcho zÃŃ
ĠtÄĽ le
ĠzajÃŃmav Ã©
Ġg Ã³
Ġfor mou
Ð ¸
D alÅ¡ÃŃ
ĠProto Å¾e
Ġpoko je
Ġpo n
E C
Ġkategori i
Ġo na
Ġsm lu
ĠB rnÄĽ
ti sk
Ġsed m
Ġre spe
Ġmu Å¾e
z ent
ĠzÃ¡ ch
z ena
Ġskup ina
Ġdese ti
Ġza dnÃŃ
od povÄĽ
ĠnÃ¡ stroj
ÅĪ ujÃŃcÃŃ
Ġpoko j
Ġpe dago
t nÃŃm
Ġze len
Ġsex u
Ġin stitu
ĠK rÃ¡l
Ġo strov
Ġpou Å¾i
vÄĽ jÅ¡ÃŃ
ĠdomÃ¡ c
h lo
ĠpÅĻi ÄįemÅ¾
Ġochra ny
Ġza stÃ¡
Ġkomunika ce
ĠdÅ¯vo dÅ¯
Ġvzni k
Ġ15 0
Ġdo ru
ĠD nes
ĠvÃ½ro by
Ġno c
Ġlu xus
ĠR ak
ĠsvÃ© mu
Ġmal Ã½
i a
Ġvy pa
Ġter mÃŃ
du bi
ĠÅĻe kla
ĠzÃ¡ j
Ġjed ine
Ġhude bnÃŃ
ĠvÄĽ dÄĽt
di lo
Ġnalez nete
Ã© nu
Ġodbor nÃŃ
2 9
Ġne dÄĽli
ĠD Å¯
ĠVÅ¡e chny
Ġne da
Ġleto Å¡
ĠmoÅ¾ no
ĠEvro pÄĽ
Ġne sta
Ġnej d
Ġho tel
Ġne g
Ġbr zy
Ġpos lou
Ġdo sud
Ġnej lÃ©pe
Ġzahrani ÄįÃŃ
Ġpro spÄĽ
Ġv ÃŃm
Ġob tÃŃ
ĠzaÄįÃŃ t
M a
ĠzvlÃ¡ Å¡tnÃŃ
hod nÄĽ
Ġp tÃ¡
Ġfran couz
ob er
O T
Ġdob ro
Ġle Å¾ÃŃ
ĠC Z
Ġ logi
Ġza ru
Ġdu Å¡e
ĠpÅĻe dnÃŃ
ĠdÃ¡ vÃ¡
Ġsk lo
Ġu drÅ¾
Ġdo dÃ¡vÃ¡
Ġsch Å¯
ĠvÃ½ Å¡
Ġkapa cit
ĠÅĻÃŃj na
c ar
Ġprove den
vi z
Ġte prve
Ġpravidel nÄĽ
Ġprodu kty
ĠS P
Ġkomple x
Ġpozi ci
jÃŃ mÃ¡
ĠnÄĽko ho
Ġa ku
ze ÅĪ
Ġj u
Ġbar va
ku je
ĠJ sem
Ġb log
ĠV ol
tÅĻe b
sti li
d ly
Ġso ft
ĠvaÅ¡e ho
ĠnÄĽ ho
oko lÃ¡
Ġpoz nÃ¡
Ġpra cÃŃ
Ġpro bÄĽh
b ri
kov Ã½m
ĠstÅĻe du
Ġp al
Ġzru Å¡enÃŃ
Ġautom obil
Ġod mÄĽ
ĠÅ¾ lu
Ġ #
ĠJe Å¾ÃŃ
bÃŃzÃŃ me
ar m
ĠpÅĻe vÃ¡
Ġvo jen
ĠU r
Ġna sa
ĠodpovÄĽ Äı
ĠP RO
Ġmon tÃ¡
ĠTo to
ĠvyuÅ¾ÃŃ vÃ¡
Ġsou se
Ġadre su
Å¯ h
wa re
Ġnor mÃ¡lnÃŃ
ĠP C
ĠI S
ka zu
ut or
ĠK dy
ĠnÃ¡ dob
gra f
Ã ¼
Ġmo hu
ven ce
Ġneb ezpeÄį
Ġuli ci
ĠM as
Äįi lo
Ġposky tuje
ĠÄįÃ¡ ste
Ġpro nÃ¡
ĠtÅĻÃŃ dy
tel nÃ¡
Ġjednoduch Ã©
Ġvedou cÃŃ
ark et
en u
Ġfo tky
Å¾ÃŃ me
ĠK ou
Ġni jak
m l
Ġvo d
ru Å¡
ta li
g em
Ġm nou
Ġo lej
ĠJe stli
en Ã©ho
Ġjednodu Å¡e
jÃŃ ch
ta h
Ġleh ce
Ġvzni ku
ĠA ni
ĠVÃŃ ce
Ġvo du
ĠzprÃ¡ vy
Ġz po
Ġkategori e
Ġan alÃ½
Ġformu lÃ¡ÅĻ
kli d
Ġnedo kÃ¡
Ã© rie
Ġrych lost
ĠpoÄįÃŃta Äį
Ġob o
re e
Ġne se
ĠpÃŃ Å¡e
Ġvy ÅĻe
L e
ĠÄįer st
Ġmin imÃ¡lnÄĽ
O M
Ġu dÄĽlÃ¡
Ġnaje dnou
ĠpÅĻedpis Å¯
ĠmÄĽ nÃŃ
lze ÅĪ
ĠH av
ĠveÅ¡ker Ã©
Ã¡t ka
Å¡i la
ĠO r
Ġna j
Ġslu ne
Ġce stou
ĠN ez
Ġf anou
ĠpÅĻipo jenÃŃ
pi li
Ġce rti
Äį nost
Ġslov o
ovi Å¡tÄĽ
eno m
Ġvy pad
Ġsm rti
ĠdalÅ¡ÃŃ ho
ĠpoÅ¾adav ky
Ġroz sahu
Ġspeci fi
ĠO n
Ġjednotliv Ã©
Ġod liÅ¡
Ġd ouf
ĠzÃ¡ leÅ¾ito
Ġhla vy
val y
Ġa spoÅĪ
Ġvari an
ÄįÃŃ tÃ¡
Ġo r
Ġpr v
Ġsvo je
Ġprob lemati
ĠS ch
ĠdÃ© lka
ĠpodÃŃ vat
Ġjen Å¾
Ġvytvo ÅĻit
Ġz la
ĠP rÅ¯
4 8
Ġchy bÄĽ
ĠPav el
d ak
ti ka
ĠMo Å¾nÃ¡
S po
ĠK r
av y
ĠsÃŃ Å¥
Ġakti vnÃŃ
d ni
h Ã½ch
Ġs dru
al Ã©
Ã½ Å¡
ĠB ro
Ġroz li
by tek
ĠkvÄĽt na
ĠdÄĽt mi
on ec
ov ka
ĠvÃ½ sledek
Ġmo ÅĻe
Ġza uj
Ġt j
Ġdo chÃ¡zÃŃ
ĠroÄįnÃŃ k
Ġb ru
jÃŃcÃŃ m
ra li
ob ec
ĠzatÃŃm co
c ovÃ¡nÃŃ
Ġustan ovenÃŃ
I I
ĠK la
lÃŃ m
Ġcvi ÄįenÃŃ
Ġ it
Ġk ru
ĠÄįlen Å¯
ze ch
Ġp ane
Ġz b
Ġmimo ÅĻÃ¡d
Ġst ane
ÃŃ t
ĠÅ¡pat nÄĽ
ĠvÅ¡ ude
3 8
chÃ¡ze t
Ġs ni
Ġ200 8
Ġminu losti
ra ÄįnÃŃ
va telÃ©
te x
pa nÄĽl
Ġpa mÃ¡t
ĠpÃ© Äįi
Ġm ak
lov Ã½
Ġinve st
Ġt ru
c enÃ©
Ġbi o
lo hy
Ġtradi ÄįnÃŃ
Ġsp rav
ĠsociÃ¡lnÃŃ ch
ĠdÅ¯ vÄĽ
Ġby tu
Ġh lÃŃ
dÃ¡ ch
Ġtr enÃ©
ĠotÃ¡ zky
Ġnedo sta
j it
ĠprvnÃŃ ch
ĠÃºÅĻa d
Ġa nebo
ti ckÃ¡
Ġaktivit y
Ġvy prÃ¡
Ġtak ovou
Ro z
za li
ĠdÃŃtÄĽ te
Ġprodu kt
Ġzaji Å¡tÄĽnÃŃ
Ġos vÄĽt
ĠÄĮ S
Ġvl h
b ÅĻe
ÄĮ e
le c
ĠLi ber
Ġhla vu
ĠP er
Ġprofesi onÃ¡lnÃŃ
ĠvÃ¡ Å¾nÄĽ
ĠV Å¾dy
Ġpo tÄĽ
ĠlÃ© ta
ĠJe Å¡tÄĽ
s vÄĽt
Ġpsy chi
d av
Ġz u
Ġsp u
Ġkon ec
d nÃ½
Ġ ?
Ġz nak
nu t
T y
Ġpo hÃ¡
Ġtex tu
Å¾ ad
ĠA by
Ġta jem
Ġcent ru
ÄįnÃŃ k
lÃ¡ m
tÄĽ Å¾
Ġkou pit
w e
or k
ĠG a
Ġvozi dla
Ã© st
ro zu
Ġpr vky
Ġhla d
O U
en ti
ĠNÃ¡ rodnÃŃ
logi e
Ġst art
ĠdÅ¯ vod
ĠstrÃ¡ nek
el l
E K
Ġpozor nost
Ġle ti
ĠPÅĻe sto
ĠpÅĻe hled
Ġdosta la
ĠÅĻe Å¡it
la da
ĠlÃŃ bÃŃ
Ġd y
vÃ© st
ĠS k
M S
lÃ¡ ch
ĠpÅĻed nÃ¡
ĠmÃŃst nosti
na jÃŃ
z ovanÃ©
skÃ© mu
ĠG e
ĠÄįÃ¡ stÃŃ
Ġdru hy
ci i
Ġhla din
Ġs lad
Ġby dlenÃŃ
ĠmÃŃ stech
Ġ19 6
ku pu
ĠÅ¾Ã¡ kÅ¯
Ġm ani
Ġle g
du jÃŃ
k dy
ĠPro Äį
Ġl hÅ¯
Ġmajet ku
ĠÄįerv na
Äį kÅ¯
ĠÅ¾Ã¡d nÃ¡
O B
hla s
ĠD ruh
ĠZ atÃŃm
Ġko l
zÃ¡ nÃŃ
Ġd ro
Ġk Å¯Å¾e
Ġal koho
Ġklu bu
Ġra men
ste k
ka zy
f ri
no s
Ġuveden Ã©
bo ra
Ġni m
Ġne kon
Ġst Ã¡l
po Äįet
Ġvhod nÃ½
Ġsty lu
Ġvlast nosti
ĠbÃ½ vÃ¡
Ġna s
Ġtr en
Ġzdro je
ĠspoluprÃ¡ ce
do ws
D ÄĽ
Ġkni ha
ĠÃº pl
Ġrostli n
Ġsou vise
dne s
stou pit
Ġi zo
lov ou
ĠA no
ĠzmÄĽ nÄĽ
Ġne r
3 6
Ġmin e
3 2
Ġminist er
vÃŃ te
p ory
ĠFran ti
Ġdo stÃ¡
Ġod pa
Ġex p
Ġar mÃ¡
ĠJe jÃŃ
lo ha
ĠcÃŃ le
ĠK do
Ġnem Å¯Å¾
m pi
Ġb ou
Ġod dÄĽlenÃŃ
Ġ ðŁ
ĠsprÃ¡ vnÃ©
ĠsouÄįas nÄĽ
Ġprodu ktÅ¯
Ã© f
Ġhr din
Ġdruh Ã©ho
Ġt lu
Ġma min
mÄĽ nÃŃ
Ġv ar
nÄĽ t
Ġpracov nÃŃch
pÅĻe d
ti ckÃ½ch
ĠÄįe skÃ©ho
ĠJe jich
Å¡ enÃ½
z enÃ½
ĠP lzeÅĪ
5 5
Ġdemo kra
Ġtak hle
ovan Ã½m
Äį nÃ½ch
ĠÅĻÃŃ ci
Ġsta la
x y
Ġod mÃŃt
ĠÅ¾e lez
Ġvi z
prav i
se ch
Ġper fe
M Ã¡
3 9
ĠÄįe skÃ½
ĠmusÃŃ me
ova cÃŃch
Ġdo la
Ġvr st
Äį te
ĠmlÃ¡ de
il ÃŃ
ĠB la
Ġlo ÅĪ
ĠO S
ĠpomÃ¡ hÃ¡
B o
Ġza zna
Ñ Ĥ
Ġp s
ĠM Ã¡m
ĠEvro py
ĠMÅ¯Å¾e te
Ġod kaz
Ġpod Ã¡nÃŃ
I V
di ce
Ġokam Å¾itÄĽ
Ġop roti
ĠDP H
Ġroz u
inÃ¡ ÅĻ
Ġty pi
Ġdom lu
met ry
ĠnezÃ¡ vis
de c
Ġjin Ã½m
3 4
Äį ov
p ri
Ġpodob nÃ©
ĠstÃ¡ vajÃŃcÃŃ
po men
p em
bo j
ch at
Ġcent rum
ĠJen Å¾e
lÃŃ k
ĠÃºÅĻa du
ch ou
rÃ¡t or
ĠpÄĽk nÄĽ
m ar
Å¡ enÃ¡
min ist
Ġoch ran
Ġprod lou
ho da
l Ã½m
sle ch
ĠRy ch
ĠC ena
Ġcharak teri
Ġmech ani
ĠPo Äįet
Ġkvali tu
Ġsou stÅĻe
Ã ¶
Ġno hy
Ġod poÄį
te d
Ġver zi
ĠÃº z
Ġkan di
ĠkterÃ© mu
Ġte pel
ĠJ de
ĠÅ¡ lo
ĠpÅĻÃŃ zni
ĠmateriÃ¡l Å¯
Ġch Ã¡
Ġzdroj Å¯
le na
ĠIn ter
Ġkup nÃŃ
Ġobcho du
Ġmal Ã¡
ĠzÃ¡kla dnÃŃch
Ġschop nost
ĠÃº drÅ¾
Ġtr val
Ġre Ã¡l
ĠsÃŃ ly
Ġz ni
in i
Ġz bav
ĠvÃ½bÄĽ ru
ch Ã½
Ġpo kro
r ovÃ©
Ġna pÄĽtÃŃ
Ġru ku
Ġpoz nat
ĠstrÃ¡ nce
r nÃŃch
it ÄĽ
n Ã¬
Ġorg Ã¡
ĠdÄĽ je
Ġnej Äįa
ĠÅ¡ la
g ht
Ð ½
o s
ĠÄįlÃ¡ n
ĠVÄĽ tÅ¡
Ġne re
Ġm rt
Ġa tra
ĠprostÅĻed kÅ¯
ĠnÃ¡ stup
av ou
ĠTomÃ¡ Å¡
Ġjin ou
pro stÅĻed
Ġhra je
ĠZÃ¡ kladnÃŃ
Ġk s
jÃŃcÃŃ ho
Ġk lik
lu b
Ġu loÅ¾
Ġdruh Å¯
Ġpro cen
nÃ¡ ct
Ġz lat
Ġpo mÅ¯
ĠchtÄĽ li
Ġuni kÃ¡
Ġpro te
ĠJose f
cho dem
Ġdesig n
ĠD r
ĠP ri
ĠF e
in es
ka dem
ĠzÃ¡ jmu
Ġi denti
it Ã©
Ġli t
ĠpÅĻ Ã¡nÃŃ
la x
Ġkli dnÄĽ
rÅ¯ z
pis y
Ġhospo dÃ¡ÅĻ
Å¡Å¥ ov
Å¾ ovat
in ce
K Äį
ĠW i
Ġozna Äį
ĠBy la
mu t
ĠS pe
Ġle s
ĠkterÃ½ mi
vÄĽ ÅĻi
pl ÅĪ
ĠKrÃ¡l ovÃ©
a ÄįnÃŃ
ĠpravdÄĽpodob nÄĽ
ĠpoÅĻÃ¡d ku
Ġvyso kou
ĠvyrÃ¡ bÄĽ
Po dle
ĠvÅ¡e ho
ĠT r
ra jÃŃ
ni k
Ġkli ent
je kt
m er
Ġvy Å¾a
ĠvÃ½ t
d ov
Ġvyso ce
Ġk ari
Ġdo lÅ¯
ĠÅĻÃŃ dÃŃ
Ġ ran
bo ok
Ġevi den
Ġpon dÄĽlÃŃ
Ġ 00
ĠÃºÄį tu
Äį kem
Ġorigin Ã¡lnÃŃ
7 8
Ġle ta
en ky
ĠP l
ĠvÃ½rob ky
Ġp Ã¡t
Ġd anÃ©
ĠPra c
Ġzastup itel
ĠzvÃ½ Å¡enÃŃ
Ġroz ho
ou r
Ġjin Ã¡
ĠS te
Ġsp is
an g
Ġnic mÃ©nÄĽ
Ġprav da
v Ã½m
ĠkrÃ¡s nÄĽ
Ġpra xe
Ġdub na
ĠPo l
Ġslo Å¾it
Ġdo drÅ¾
Ġh nÄĽ
ĠkÅĻe sÅ¥
Ġpo tÃŃ
ke j
ĠpÅĻi rozen
Å¡ u
v ÄįÃŃ
d ovÄĽ
Ġ3 8
cha la
Ġstani ce
Ġkou sek
M i
Å¾ ovÃ¡nÃŃ
ĠÃº zem
Ġpovin en
ĠM on
si la
Ġmu lti
Ġpreziden t
z eno
Ġ ..
s mus
Ġbud ovy
le h
ĠtÄĽÅ¾ kÃ©
Ġdob rou
ĠsoutÄĽ Å¾
ĠzmÄĽ nit
Å¡ÃŃ me
Ġak cÃŃ
ĠsvÄĽt ovÃ©
ĠBÄĽ hem
ĠA d
Ġregi stra
ĠM no
d anÃ©
ĠmÃŃ ru
prav u
Ġho rnÃŃ
st ran
Ġtomu to
Ġa m
r nÃŃho
Ġ200 0
Ġdo plnÄĽ
Ġpra xi
van Ã½
ĠvÃ½ji m
Ġin fo
ĠÅ¾ivo tnÃŃho
ĠUS B
Ġu vol
Ġze pt
Ġvo dnÃŃ
ĠuÄįi tel
ĠT ra
ĠG oo
ĠzmÄĽ nu
in t
Ġvo dÄĽ
Ġsty l
Ġexist uje
Ġzob raz
st Ã©m
Ġvy nikajÃŃcÃŃ
ĠdÄĽ tem
ĠzÃŃsk al
ro ni
Ġmo du
Ġvelk Ã½ch
ko mu
Ġstra na
r ze
Ġsv al
Ġbole sti
ĠpÅĻiz pÅ¯sob
I L
ĠzÃ¡ m
Ġpo sou
ĠzÃ¡pa s
a da
Ġpo bo
Ġu vnitÅĻ
ĠzÃŃ ska
ĠzaÄį Ã¡
Ten to
ĠotÃ¡ zku
Ġ lov
ĠpÅĻÃŃspÄĽ vek
Ġ emo
Ġtechni ckÃ©
to ÅĻi
ĠroÄįnÃŃ ku
Ġroz um
D S
ĠEvrop skÃ©
ĠtÃ½ ka
lan d
Ġhistori i
ĠC on
Ġna hrÃ¡
Ġd em
Ġji sto
ĠpÅĻibli Å¾nÄĽ
ĠsvÄĽt lo
Ġdve ÅĻÃŃ
ĠÅ¡an ci
Ġn ovo
st ky
ĠzÃ¡ Å¾it
Ġdoprav nÃŃ
ĠMin ister
Ġfot bal
Ġok na
Ġled na
ĠjÃŃ dlo
? "
Ġkomple tnÃŃ
Å¾ ka
Ġex tr
Ġmas o
teri Ã¡l
Ġ200 7
Ġz ane
Ġre ag
Ġdoprav y
Ġna dÃ¡le
Ġpo nÄĽ
k ry
ĠvÃ½ hra
4 4
Ġs dÃŃ
Ġodbor nÃ©
Ġst ou
ĠmÄĽ ÅĻenÃŃ
Ġare Ã¡lu
Ġt rou
ĠvÃ½ Å¾i
tÃ© Å¾
ĠÃ ¨
P a
Ġtak ovÃ©ho
Ġstar Ã©
Ġpravi dla
Ġz odpovÄĽ
Ġdo jde
Ġt roj
ĠnabÃŃd ku
ĠnabÃŃ ze
Å¾ u
ĠÅ¾Ã¡ dost
ĠprobÃŃ hÃ¡
Ġrestau race
U T
Ġdruh Ã©m
va ce
Ġp ne
ĠstÃ¡ vÃ¡
M ÄĽ
ĠÅ¡e sti
Ġkuchy ÅĪ
Ġtechnologi ÃŃ
ĠP at
Ġne Ãº
Ñ Ģ
Ġre cen
ĠB ÃŃ
ĠÃº ro
Ġvy pla
Ġmon it
ĠÅ¡ a
lÃ¡ t
Ġne sou
Ġkonstru kce
sa huje
al ou
Ġo kra
ti ce
Ġobec nÄĽ
do l
Ġkomi se
j o
Ġod stav
w er
ĠrÅ¯ st
Ġmo dr
vÃ¡ ch
sti ckÃ½
ĠBo hu
lu jÃŃ
Ġasi st
dÅ¯ leÅ¾it
Ġve den
ra zenÃŃ
Ġpo sta
Ġg u
Ġdob rÃ¡
rÃ¡ z
n t
Ġm Ã½
ve s
hlÃ© dnout
ÅĪ Å¯
Ġko sme
k tnÃŃ
ĠpoÄį Ã¡tku
Ġfak ul
Ġcen ÄĽ
ĠBo Å¾ÃŃ
Ġp it
ĠO stat
stou pil
ĠBo huÅ¾el
a pa
Ġvy zna
Ġjednot ky
ex ist
vo t
ch ovÃ¡
ĠsystÃ©m y
1 00
ĠpotÅĻeb nÃ©
Ġsig nÃ¡
ĠN ovÃ¡
Ġpo za
Ġb l
ĠmÃ¡ Å¡
Ġ 01
ĠpÅĻÃŃ Äį
Ġpo rt
Ġsta bili
ÅĻ enÃ½
Ġh asi
Ġ3 2
ĠpÅĻi Å¡la
Ġkni h
ĠS tejnÄĽ
ĠnÃ¡ pa
ĠWin dows
ĠJin ak
ti cky
vak rÃ¡t
Ġnej vÃ½
Ġkomb in
ĠB ra
ĠBu de
mi la
ĠlÃ¡ tek
ĠjejÃŃ ho
ĠdÃ¡ r
ĠĠ ĠĠ
ĠvÃŃtÄĽz stvÃŃ
ĠprÅ¯ mysl
Äį ovÃ¡nÃŃ
Ġmu Å¾i
ĠPar dubi
Ġorg anis
Ġarchi tek
ĠskvÄĽ le
Ġspou sta
ĠÅ¾Ã¡ dosti
Ġhodin u
st in
ji Å¡tÄĽnÃŃ
Ġprodu ktu
b at
Ġkat ast
Ġbateri e
Ġnebu dou
Ġob slu
S ou
Ġtelefon u
I M
ĠsouÄįas nosti
Ġte da
Ġv loÅ¾
c ena
Ġautomati cky
Ġpodzi m
a cÃŃ
Äį kovÃ©
Ġdo t
it ou
ko l
zi vnÃŃ
stri bu
ĠL ED
h n
ni cÃŃ
ĠS vÄĽt
Ġhla vnÃŃm
Ġdo mÄĽ
Ġvy lou
M y
il l
Ġpo dÄĽ
Ġob ci
Ġstro je
ĠnemÄĽ la
Ġhy po
ĠÃº roveÅĪ
ĠTe Äı
ĠKra j
Ġem a
ĠbÅĻe zna
i ci
Ġch vil
Ġvy chÃ¡zÃŃ
ÅĻ ena
Ġrozhod l
Ġle te
ĠP Ã¡
Ġz ÅĻÃŃ
sl ova
ĠpouÅ¾ÃŃ vÃ¡nÃŃ
ĠÅ¾Ã¡d nou
ĠpÅĻe dÃ¡
Ġmin imÃ¡lnÃŃ
0 5
Ġb la
Ġmy sli
ĠnepÅĻÃŃ jem
ĠpotÅĻeb uje
Ġf Ã³
ĠPro stÄĽ
Ġre g
Å¾ by
ĠÃºÄįe lem
Ġsp Ã¡
Ġ4 00
ĠnÃ¡vr hu
Ġtechni ky
Ġrekla ma
ps at
pÅĻe du
Ġo st
ro ÄįnÄĽ
krÃ¡t ka
Ġjas nÄĽ
ps al
ĠzkuÅ¡eno st
den t
ta la
Ġb on
Ġu znÃ¡
Ġabsol v
d nutÃŃ
Ġprav du
Äį tÄĽ
Ġspo ÄįÃŃ
Å¾ÃŃ vÃ¡
Ġa vÅ¡ak
na d
Ġprac uje
ĠÅ¡Å¥ ast
Ġm arket
zen Ã½ch
ra zu
Ġstudi a
p ti
ĠnÃ¡bo Å¾en
Ġnej mÃ©nÄĽ
li li
Ġvelk Ã½m
ĠP rav
Ġmoh ly
ne c
ĠsvÄĽt la
Ġrych lÃ©
ĠnÄĽm Å¾
ĠP re
ez nam
ĠÄįlÃ¡ nky
ĠH y
nes s
poru Äį
Ñ ģ
ku jeme
ĠVa Å¡i
ĠF a
Ġjedin Ã½
Ġmuse li
Ġkombina ci
ĠcÃŃ l
ĠrÅ¯ Å¾
ĠC ar
Ġzaji stit
Äį kovÃ¡
3 7
Ġzab Ã½
Ġva z
Ġkli mati
ĠpÅĻedstav it
Ġfirem nÃŃ
Ġroz vÃŃ
K Y
ĠP ÃŃ
ĠNe w
Ġf anta
ĠreÅ¾i mu
be nÃŃ
ĠnÄĽk teÅĻÃŃ
Å¡ ovÃ¡nÃŃ
sa la
Ġs Ã©rie
z da
k Ã¡lnÃŃ
kÃ¡ ÅĻ
P ra
lo b
ĠpÅĻe su
4 6
Ġmax imÃ¡lnÄĽ
no mi
t in
art mÃ¡
ĠHla vnÃŃ
Ġle tnÃŃ
ĠÄįe ho
Ġzna men
ĠzÃ¡ vodnÃŃ
ĠvÃ½zku m
ĠzÃ¡ ko
ĠvÃ½rob kÅ¯
Ġmana Å¾e
Ġsla v
w ar
ĠpÅĻÃŃjem nÃ©
r ke
Ġf in
3 1
Ġovo ce
Ġpoji Å¡Å¥ov
i le
Ġpo Å¡t
ĠveÅĻej nosti
Ġkra ji
ĠM an
4 9
- )
ĠB ru
ĠPrÃ¡ vÄĽ
ĠnabÃŃd ce
Ġli tera
ĠÃº ÅĻe
c ku
ĠpÅĻÃŃleÅ¾ito st
ĠvÄĽ de
Ġvhod nÃ¡
Ġal tern
Ġpro kÃ¡
ĠVÃ¡ Å¡
Ġ12 0
k do
Ġdi stribu
Ġkr Ã©m
ĠzaÄį ali
Ġani Å¾
Ġfor mÄĽ
ĠdalÅ¡ÃŃ mi
Ġslo Å¾enÃŃ
vÃŃ me
r ovat
s ch
ĠR Ã¡
rov ol
Ġlid mi
Ġv ita
Ġo hledu
ce te
ĠÄįe t
fi kov
Ġvy v
ĠzamÄĽstnan cÅ¯
ĠvÃ½ro bu
ĠÅĻe k
Ġfunk cÃŃ
eno st
Ġmo ment
Ġpodni kÃ¡nÃŃ
ĠovlÃ¡ dÃ¡nÃŃ
Ġzem ÃŃch
ni Äįky
ut nÃ¡
je l
ĠPo tÃ©
A C
ĠbÄĽ Å¾nÃ©
ĠtÃ½ dne
Å¾ enÃ¡
ĠbÃŃ lÃ©
u jte
ĠvÃ½sled kÅ¯
p ky
ĠpoÅ¡ko zenÃŃ
Ġvy bud
Ġza h
Ġe kologi
an Ã½m
Ġpod pory
ĠzÃ¡ vod
Ġpov r
Ġd la
Ġnej spÃŃ
Ġse da
n ova
Ġb et
ĠÃºÄįin ky
ĠG u
lÃ¡ tor
ĠodpovÃŃ dÃ¡
Ġdo pad
ÅĻ enÃ¡
Ġvyso ko
Ġsm r
Ġho dÃŃ
Ġdr Å¾ÃŃ
j n
h ovÃ©
Ġk rou
7 7
Ġod poledne
Ġjak Ã½m
Ġmobil nÃŃ
ĠO bec
ĠhÅĻi Å¡tÄĽ
Ġk lou
Ġza chy
ĠzÃ¡stup ce
Ġslov en
Ġno te
Ġb rat
te bnÃŃ
Ġo no
Ġele gan
Ka Å¾
I P
ĠpÅĻ ine
z t
rov i
Ġpoby tu
pÅ¯j Äįky
Ġkon cent
ĠhrÃ¡ Äįi
Ġnej prve
Ġspo dnÃŃ
Ġpoli cie
s nÃ½
Ġsled ovat
Ġch tÃŃt
ĠmateriÃ¡l y
mou t
Ġpar ku
tÃ¡ nÃŃ
Ġchy bÃŃ
Ġza va
Ġit al
Ġmuse la
Ġve z
Ġroz sÃ¡
ĠNa Å¡e
ha j
Â ´
Ġdruh Ã¡
ĠjmÃ© nem
h av
ĠN or
) ;
Ġhistori e
Ġstej nÃ½
Äį nÃ©ho
ĠÄįÃŃ sla
Ġkapit o
ĠdÃ¡ rky
ĠpÃ¡ n
ĠKar lov
ĠK li
Ġmu zi
ÄįÃŃ st
sla va
ĠnÃ¡ jem
201 6
Ġru ka
ĠprÃ¡zd n
ĠÄĮ a
kÃ¡ t
Ġna tÃ¡
ĠH er
Ġkontak tu
? âĢľ
ĠjÃŃ del
Ġdne Å¡
Ġsa m
Ġvy sa
Ġabso lu
ĠsmÄĽ ru
dÃŃ Å¾
S a
201 4
z eny
sti ckÃ½ch
ĠskvÄĽ lÃ©
ĠnÃ¡ kladÅ¯
jÃŃ m
ĠpÅĻi chÃ¡zÃŃ
ĠPo z
Ġv rÃ¡tit
Ġvy hra
te ru
ĠobjednÃ¡ vky
Ġtou to
ĠkaÅ¾ dÃ¡
en Ã½m
ĠpoÅĻÃ¡d nÄĽ
Ġkli d
ĠblÃŃz kosti
201 5
Ã¡l Å¯
c ov
Ġpozi ce
ĠpokraÄį ovat
ĠP h
Ġko t
ĠS to
Ġs cho
Ġroz to
Äįit ÄĽ
Ġkon ÄįÃŃ
Ġdis ple
Ġzas lou
gi ckÃ©
Ġu cha
bor y
s m
Ġh um
Ġ2 50
Ġd ala
Ġdosta li
Ġre lati
ĠpamÄĽ ti
201 7
ch Ã©
Ġmani pu
ĠC ho
ĠmÄĽ k
Å¾ nÃ½
Ġve Äįe
b Ã½vÃ¡
ĠC D
f le
Ġpolov inÄĽ
Ġin teg
um ati
k lÃŃ
b ar
n ci
Ġb ak
Ġnej sem
ĠpÅĻi dÃ¡
ĠÄįer nÃ©
Ġo cenÄĽ
g ne
V el
Ġpr y
Ġdom ov
Ġd vakrÃ¡t
Ġproce su
ĠA Å¾
ĠÄįi nÃŃ
Ġda nÄĽ
Å¡ ly
ĠÄį tenÃŃ
ÄįÃ¡ stÃŃ
Ġome zenÃŃ
Ġvlast nÃŃm
S K
w n
Ġpoh Ã¡d
Ġli kvi
ĠzprÃ¡ va
ĠNak onec
Ġho lky
Ġpro sa
na li
ĠpÅĻÃŃro dy
N A
Ġply nu
Ġjak Ã¡
Ġod stÃŃ
ĠhrÃ¡ Äį
ĠMa x
Ġpo hla
hodno cenÃŃ
ĠnÄĽjak Ã¡
V ÄĽ
Ġdosta teÄįnÄĽ
ĠotÃ¡ zka
le jÅ¡ÃŃ
Ġhodno ta
Ġkra bi
ĠK y
Ġdi ag
Ġse znamu
ĠprÅ¯ vod
Ġ200 6
Ġpot enci
Ġpovin nosti
H O
Ġobje vÃŃ
Ġs Ã©ri
Ġvo jÃ¡
Ġu ka
A hoj
Ġj ÃŃm
h ly
Ġn ovÃ½m
Ġh ÅĻÃŃ
Ġpl nÃ½
ĠÂ ·
Äį ena
ĠzajiÅ¡Å¥ uje
Ð¾ Ð
ĠÅ¾i je
ĠÄįem u
ĠÅł tÄĽ
Ġs rovnÃ¡nÃŃ
Äįka mi
ta ÄįnÃŃ
Ġ4 8
ĠN ynÃŃ
Ġpom Å¯Å¾e
Ġtva ru
Ġtro Å¡ku
r tu
ĠÄįas em
ka ce
Ġze le
Ġkli du
ĠII I
ĠuvÃ¡ dÃŃ
Å¯ v
Ġpo Å¡
e ku
v z
va Äį
ĠL Ã¡
Ġtelevi ze
Ġo ni
ĠC ent
ĠV last
Ġup ly
ĠprovÃ¡ dÄĽ
Ġ7 5
lin g
Ġnej men
vo da
t vr
Ġa Äį
ĠvÅ¡ emi
ĠtÄĽÅ¾ ko
znÃ¡ m
Ġ loÅ¾
Ġ Å¾ÃŃt
ĠS er
J i
te v
ĠzÅ¯ stÃ¡vÃ¡
ĠVel kÃ©
ĠtÅĻe ch
Ġne h
pozi ce
Ġpo byt
vu jÃŃ
ste v
pu st
ÅĻÃŃ Å¾
ĠP R
p Ã¡d
m ina
ĠP u
Ġusku teÄį
ĠAu to
vo dem
ĠZ D
ĠvÃ¡no ÄįnÃŃ
ti p
Ġmal Ã½ch
ĠtÃ½ kÃ¡
Ġproje ktÅ¯
Ġole je
Po d
k rat
ĠÄįtvr tek
Ġpo je
Ġ5 5
Ġdu ch
E Z
ĠÅĻÃ¡ du
ĠM gr
Ġhla vou
Ġza ve
Ġefe kti
nÄĽ nÃ½ch
ĠvÃ½ji me
Ġvozi del
or t
Ġbez pe
Ġpovin nost
ĠOstra va
ĠGoo gle
Ġvel ko
Ġplo chy
ĠpÅĻi spÄĽ
ĠD V
Ġku s
201 2
ni ckÃ½ch
ĠsoutÄĽ Å¾ÃŃ
Ġpotrav in
Ġse ku
Ġdo kud
Ġobje ktu
nese nÃŃ
Ġn ene
ĠsnÃŃ Å¾enÃŃ
ĠpodÃŃ l
Ġne ÅĻe
ĠI N
Ġprosin ce
ĠprÅ¯ zku
Ġvi dÄĽl
ĠG o
b ky
ĠvÃ½ da
Ġkur z
ĠmÃ© di
Ġne d
ĠvÃ½ let
Ġgene race
ĠudÃ¡ losti
chÃ¡ze jÃŃcÃŃ
Ġdeta il
Ġset kÃ¡
Pr vnÃŃ
ĠmuÅ¾ Å¯
ri i
la l
Å¾i tek
Ġdo slova
Ġpoziti vnÃŃ
ÄįÃŃ me
rov Ã½
tel nÃ½ch
ma z
Ġrepubli ka
or g
nÃ¡ sob
Ġhle dat
ĠnÃ¡ stroje
Ġre lax
Ġsez Ã³
ĠtÄĽ les
stou pÃŃ
le ty
Ġaplika ci
Ġkom for
ĠT am
ĠpÅ¯ vodnÄĽ
Ġhra nice
rÃ¡ nit
ĠbezpeÄįnost nÃŃ
Ġteplo ty
Ġbo ty
Ġhodno tu
ĠI P
ĠvÃŃken d
. [
Ġneu vÄĽÅĻi
Ġdata bÃ¡
let Ã½
Ġkultu rnÃŃ
ĠSt an
ĠvÄĽtÅ¡ inu
Å¾ nosti
ĠpÅĻi roz
Ġvy Å¡etÅĻenÃŃ
da ce
Ġzab ezpe
Ġkuchy nÄĽ
ĠÅ¡ tÃŃ
len t
Ġrov nou
Ġoby Äįej
la ÄįnÃŃ
nÃ¡ cti
i c
to s
ĠSt av
Ġzaji stÃŃ
Ġvzta hy
ĠskuteÄį nost
ĠdÄĽt skÃ©
ĠvÄĽdo mÃŃ
! "
Ġzim nÃŃ
ĠuÅ¾i vatele
Ġuveden Ã½ch
ĠpÅĻÃŃsluÅ¡ enstvÃŃ
Å ®
Ã¡t kem
Ġkandi dÃ¡
fer en
ĠbezpeÄį nosti
ĠB Å¯h
ĠlÃ© Äįi
Ġch ceme
Ġpozem ku
Ġsrp na
d ovat
Ġ rÃ½
Ġle gen
ĠÄį okolÃ¡
Ġb it
p in
ĠumÃŃstÄĽ nÃŃ
ĠÅĻe di
ĠG ra
Ġzp Ã¡tky
Ġprav Ã©
Ġneb ezpe
Ġdlou hou
ĠvÄĽn ovat
Ġo pa
ko st
Ġkro k
ĠH on
Ġleto Å¡nÃŃ
Ġklasi ckÃ©
Ġz ub
4 7
Ġp sÃ¡t
ĠdÅĻe va
Ġcy kli
Ġh ovo
s si
Ġbr it
sti ka
for mu
ve l
ĠdÃŃ la
ĠL ÃŃ
Ġtvr dÃŃ
let Ã©
6 5
Ġob cÃŃ
Ġd ar
Ġvy mÄĽ
Ġnem u
ĠW e
d nat
ĠÅ¡e l
ĠmÅ¯Å¾ u
Ġstra ch
Ġty py
Ġne zna
de o
ĠmÃŃ rnÄĽ
Ġt vÅ¯r
c ovÃ©
201 3
nÄĽ k
Ġz byt
ĠVÃ¡cla v
c in
ĠSamo zÅĻejmÄĽ
ĠÃºÄįe ly
Ġspo l
ĠpÃŃs m
Ġvz hled
ĠzÃ¡vÄĽ r
Ġjin de
ce l
ĠPo li
pÃŃ na
ĠpÄĽ st
ĠnÃŃ Å¾e
ĠsluÅ¾ ba
ĠH ol
ÅĻ eno
Ġpu j
EN Ãį
Ġfoto apa
Äį tÃŃ
klÃ¡ dat
ĠNic mÃ©nÄĽ
Ġpri mÃ¡
Ġlid skÃ©
U Å¾
ĠzmÄĽ na
Ġden nÃŃ
rg u
ĠznÃ¡ mÃ©
A V
Å¡i li
ĠkÅĻesÅ¥ an
ĠurÄįit Ã©
Ġode hrÃ¡
ĠzvÃŃÅĻ at
ÅĻe la
ĠnÄĽkolik rÃ¡t
ĠMÃŃ sto
Ġre j
Ġnaps al
4 2
lo Å¾ÃŃ
S e
Ġf rek
Ġstuden t
ĠÄįa j
Ġso li
sho p
ĠK up
Ġsdru Å¾enÃŃ
so ci
s nÃ¡
ĠpÅĻevÃ¡ Å¾nÄĽ
sti ky
Ġna lÃ©
lo r
ol f
men ty
ĠnabÃŃd ka
ĠÅ¡ Ã©f
h ovÃ¡nÃŃ
Ġschop nosti
Ġdo hod
Ġroz dÃŃ
ĠCel Ã½
Ġo hlednÄĽ
. ).
Ġener gii
ĠSpo j
jedno du
d nu
ujÃŃcÃŃ ch
ĠO v
k tem
Ġt var
Ġad minist
ĠAn d
Ġdokon ale
ĠRak ou
ĠpÅĻÃŃspÄĽ v
F i
Ġu kazuje
ĠnÃ¡ po
nÄĽ na
Ġnaps at
sk e
Ġnep ou
z ce
Ġmlu vÃŃ
ÅĻ eny
Ġst re
Ġtak ovÃ½ch
Ġobje kti
Ġweb ovÃ½ch
ĠzamÄĽst nÃ¡nÃŃ
klÃ¡ dÃ¡nÃŃ
Ġnejd ÅĻÃŃve
kon ce
Ġnej rÅ¯z
pe k
Å¾ enÃ½ch
tÃ¡ m
Ġextr Ã©m
Ġro kem
Ġne exist
vo dy
Ġm ob
I A
Ġkur zu
Ġfon du
ĠdÃ¡ vno
le g
be l
Ġpora den
_ _
V Å¡e
Ġzd Å¯
ĠsÃŃ tÃŃ
rch e
nÄĽ n
ĠtÃ½ Äįe
Ġdi e
Ġvo li
ĠuÅ¾ÃŃ vÃ¡nÃŃ
ĠÄįer nÃ¡
ĠÃº pravy
Ġtr vÃ¡
j nÃŃho
ĠNa pÅĻÃŃklad
li i
Å¡e la
Ġneby ly
Ġna va
ĠPet ra
Ġnap Ã¡
tÃŃ te
ĠD ra
de x
Ġkilo metrÅ¯
Ġven ku
L i
Ġpo se
Ġban ky
ĠR ad
ĠJe din
sti ckÃ¡
ĠlÃ© tÄĽ
Ġochra nÄĽ
ĠsystÃ©m Å¯
Ġh mo
Ġde ko
Ġspole hli
ĠA utor
Ġnedo stat
Ġza vÃ¡
Ġte l
on d
Ġre sp
v kou
mat u
ĠBu dÄĽj
s ovÃ©
Ġd Ã½ch
ĠC ha
Ġra di
Ġv nÄĽjÅ¡ÃŃ
Ġsla vnost
ĠhlavnÃŃ ho
ba li
din g
Ġvy lep
ĠpÅĻÃŃ stroj
T a
ci p
ov nÃ©
L E
ĠNe ch
ĠpÅĻed tÃŃm
Ġne va
, ,
Ġbole st
tel nou
Ġjedno zna
ĠVla di
ĠÄįerven ce
ni ly
ĠchvÃŃ le
ar nÃŃ
ĠpÅĻem Ã½Å¡
ĠnemÄĽ li
Ġzprac ovÃ¡
D e
Spo leÄį
ĠdÄĽ kuji
Ġt ane
Ġpar la
ĠsÃŃ lu
ĠKdy by
hra nÃŃ
Ġdovo lenou
sto j
Ġv nit
Ġvyu Å¾i
t ovÃ©
ly mpi
Ġs ka
Ġod vÃ¡
ĠMa teriÃ¡l
bi la
k vali
Ġdovo lenÃ©
Ġorgani z
Ġf as
Ġpodnika tel
0 9
Ġli cen
Ġj mÃ©na
ĠtlaÄįÃŃ tko
as y
Ġmode lu
Ġzahrani ÄįnÃŃ
Ġpar k
Ġpodpor uje
Ġpo kle
or d
ĠÄĮe skosloven
Ġvz ÃŃt
ĠhrÃ¡ ÄįÅ¯
A P
Ġvyzkou Å¡et
Ġkon tra
Ġfor mÃ¡
p ci
Ġ3 7
liv Ã½
Ġo hledem
ovÃ© st
enÄĽ jÅ¡ÃŃ
Ġzji stÃŃ
hroma dy
Ġto p
ĠdÅ¯sled ku
ĠÄĮe skÃ½
Ġroz voje
ĠvÃ½ hod
Ġvy hov
Ġpo platek
Ġote vÃŃ
Ġte ori
Ġdru hu
ĠumoÅ¾ nÃŃ
ĠpÅĻÃŃleÅ¾ito sti
ĠpoÄįÃŃta Äįe
Ġvzni kl
ĠvÃ½ voje
ov ce
ÃŃ me
Ġvy konÃ¡
chÃ¡ ch
ĠB an
Ġob nov
ĠÅ¡ aty
Ġkni hu
Ġprogra my
Ġmode ly
Ġpo mÄĽr
us ÃŃm
ĠN E
ĠÄįÃŃm Å¾
ĠkrÃ¡s nÃ½
Ġm r
Ġmlad Å¡ÃŃ
ĠpÅĻe kÃ¡
Ġdoz vÄĽ
ho du
k i
teli gen
ĠDÄĽ kuji
ĠHo tel
ka Å¾
ĠI tÃ¡
ĠzkuÅ¡eno stÃŃ
te s
ĠÃº terÃ½
Ġzr c
Ġde sky
Ġdob rovol
Ġnej vÃŃc
ĠMi cha
Ġsu rov
Ġzak on
t va
Ġdosta tek
ĠB en
Ġtu dÃŃÅ¾
ĠS am
ĠBa bi
z nak
Ġsla b
ĠjejÃŃ Å¾
Ġho l
ĠÃºspÄĽ ch
Ġ '
nÃŃ ky
ĠpÅĻedstav enÃŃ
Ġh li
Ġpro chÃ¡
Äįe l
Ġnej dÅ¯leÅ¾it
Ġnebu du
Ġluxus nÃŃ
ÅĻi ce
ĠlÃ¡ sky
al l
Ġprode je
Ġe pi
Äį kÃ¡ch
Ġvy stup
Ġ6 5
4 1
an Ã©m
ĠDav id
pravi dla
Ġcho dÃŃ
ha la
ĠudÄĽla l
Ġdota z
Ġuni e
z ovÃ©
ĠdosÃ¡ hnout
ĠKa rel
Äį ina
re dit
ti ckÃ©ho
Ġkal ho
Ġaktu ali
d lu
Ġdlouhodob ÄĽ
s ce
to p
ĠurÄį en
Ġge o
0 7
ĠrozpoÄį tu
ÄįÃŃ n
ĠT ru
ĠÃº se
ÅĻ uje
ĠE uro
ĠM ez
ĠjÃŃ dla
Ġpe s
ĠÄįin nostÃŃ
ko la
Ġstup nÄĽ
ĠMy slÃŃm
Ġinf ra
Ġkonku ren
r b
ĠâĢ Ķ
Ġply n
po jenÃŃ
ĠÃºno ra
ĠN ovÃ©
ĠÄįe sko
Ġpovr chu
ĠF ace
v itu
Ġjazy k
tem ati
i lem
r ovÃ¡
ĠpÅĻe hrÃ¡
ĠbÃŃ lÃ¡
Ġnej bli
ĠJi ho
Ġher e
Ġkon f
Ġhor Å¡ÃŃ
du jeme
Ġpla ne
Ġs al
Ġb ÅĻi
Ġp Ã³
Ġhodno t
ĠnabÃŃzÃŃ me
ĠoblÃŃb enÃ©
Ġter mÃŃn
ĠzÃ¡ vodu
ĠnÃ¡ dra
sho pu
Äį nosti
j men
ĠdÃŃ lo
ĠD ÃŃ
Ġkontro lu
ĠvytvÃ¡ ÅĻe
ĠP S
Ġindividu Ã¡lnÃŃ
ĠvaÅ¡i ch
rati vnÃŃ
ĠzÃ¡ leÅ¾ÃŃ
Ġs eni
ĠZem ÄĽ
Ġfunk ÄįnÃŃ
re vnÃ©
T A
Â ®
Ġvi dÃŃ
Ġs mÄĽÅĻ
Ġ1 000
Ġvy hrÃ¡
ĠpodmÃŃ nkÃ¡ch
ĠN ovÃ½
li vost
ĠQ u
Ġpoli ci
Ġna rozen
Ġza dÃ¡
Ġdne ska
) )
ĠK ni
pÄĽ nÃŃ
gi ÃŃ
ti ky
vÃ© d
ĠcÃŃ rk
tÄĽ l
Ġobje v
du jÃŃcÃŃch
ĠsprÃ¡ vy
Ġv Äįera
Å¡e li
Ġos lov
ĠÅĻe Äįeno
sta lace
Ġj Ã¡d
z enÃ¡
zu jÃŃcÃŃ
ran t
Ġro man
Ġf ilo
Ġno ÄįnÃŃ
Ġi lu
ĠponÄĽ kud
boo ku
Ġv rch
dr Å¾e
Ġdlou hÃ¡
va teli
Ġre dak
Ġkultu ry
Ġru ky
ĠMari e
U R
Ġtla k
pa dla
ĠtÃ½d nÅ¯
Ġkam pa
ta cÃŃ
ĠvÃŃ na
Ġtitu l
Ġmi strov
ĠzaÄį alo
ta jÃŃ
h nu
ĠB ene
ĠD Ã¡
ĠÃºÄį a
Ġ3 9
ĠVel mi
Ġvy stoupenÃŃ
Ġ19 5
Ġz je
Ġrodin a
ÅĻ te
ĠS an
Ġpl no
lu e
en ka
ber e
ĠÂ °
ĠR E
Ġrizi ko
ĠÄįÃ¡ste ÄįnÄĽ
grafi e
ĠpÅĻÃŃ jmu
Ġzp ro
ĠM S
ovÃ¡ ni
Ġex eku
Ġdo ty
ĠMÄĽ st
p ak
ĠVz hledem
Ġpo ky
Ġdi vo
ru je
Ġzaji Å¡tÄĽ
ĠIn formace
ÅĪ ky
Ġsp lÃ¡
ĠD lou
Ġslov y
poz dÄĽji
Ġnemoc nice
Ġspoj enÃ©
Ġposkyt ovÃ¡nÃŃ
Ġpod i
ĠZ Åł
Ġp ana
ĠSta ÄįÃŃ
ÅĻ ovÃ¡nÃŃ
-- --
ĠvÅ¡ech na
ĠprÅ¯ mÄĽru
Ġstra Å¡nÄĽ
ĠRoz mÄĽry
ĠdÃ¡ rek
! âĢľ
Ġnemovito sti
Ġ, ,
r il
n kou
ro s
ĠÃºko l
ĠÄĮe sku
Ġne roz
Ġchy b
arm oni
Ġf inÃ¡le
ĠdÃŃ ly
Ġmaji tel
Ġba bi
Ġdo tace
ĠÅ¡ at
Ġ/ /
ni i
ologi e
Ġmili ar
Ġdola rÅ¯
Ġelektro nickÃ©
Ġb le
ĠD en
Ġmeto dy
vÃ½ car
Ġstudi e
Ġzkou Å¡ky
v nÃ½
Ġmal ou
e nÃŃm
lÃŃ ch
Ġza bÃŃ
ĠzÃ¡sa dnÃŃ
vo tnÃŃ
ĠvÃ¡ mi
ĠÅ¾ alu
Ġdo hromady
Ġprost ory
0 8
ĠAn gli
ĠzmÄĽ n
ĠpotÅĻeb ujete
ĠLa bem
Å £
Ġplat it
Ġd voji
ĠpÅĻÃŃ tel
Ġdi a
ĠpouÅ¾ÃŃ vajÃŃ
te c
ĠL Ã©
Ġhle dÃ¡nÃŃ
ĠvÃ½ Å¡ka
Ġangli Äįt
Ġos mi
6 6
ĠzÃ¡kaznÃŃ kÅ¯
jÃŃ me
ÅĻÃŃ te
Äį nÃ½m
ĠvlÃ¡ da
Ġi m
ĠNÄĽ m
ra tu
ak a
ĠodpovÃŃ dajÃŃcÃŃ
Å¡ nÃ½
ĠM er
Ġu prostÅĻed
ova Äį
razi li
ĠtÃ½d ny
ĠsystÃ©m em
Ġsmlou vu
ĠspoleÄį nÃ©
ĠvÃ½povÄĽ Äı
Ġzji stit
kon tro
Ġi mu
Ġ200 5
Ġrodi ÄįÅ¯
A no
se da
Ġadre sa
Ġvy po
ĠV Å¡ichni
Ġ6 00
ĠnejÄįa stÄĽji
Ġho st
Ġd ov
Ġre produ
ĠodpovÄĽ di
Äį enÃ½
it Ã©ri
ovÄĽ t
ĠMi chal
di Å¡tÄĽ
Ġli b
Ġfoto graf
ni cÃŃch
Ġky seli
v ov
ĠO sob
Ġvlast nÃŃch
so l
mp le
ĠzÃ¡vÄĽ re
ĠBar va
ĠT ur
Ġfanou Å¡
Ġpre ven
or it
ĠÅ¡ko lu
Ġnap ÃŃ
Ġro stou
Ġcho dit
Ġhud by
Ġnaho ru
Ġve j
da m
Ġt v
Ġfestival u
Ġpodpo ra
Ġe li
Jak o
ĠvÃŃ te
Ġa kadem
Ġko st
ĠprovÃ¡ dÃŃ
ĠT ro
me tr
Ġs Ã½
Ġzob razenÃŃ
Ġple Å¥
ĠPo slednÃŃ
v ez
Ġv Å¡im
Ġpne umati
Ġzby tek
lÃŃ na
Ġan aly
D ne
Ġrozhod la
Ġucha ze
ĠokamÅ¾i ku
ĠÄįle ny
Ġkonku r
Ġnut no
Ġvy vÃ¡
Ġre volu
ĠsluÅ¾ bu
0 6
Ġinforma ÄįnÃŃ
ĠÄĮe ch
ĠstÃ¡t Å¯
Ġsta Å¾enÃŃ
ĠVÃ½ sled
ĠÃºs mÄĽ
7 9
U Dr
4 3
ĠS vat
Ġ <
ĠhrÃ¡ Äįe
ĠnÃ¡ kupu
Ġnemo hl
Ġro mÃ¡
ze tÃŃ
le no
ĠvyuÅ¾ÃŃ vat
Ġvlast nÃŃho
Ġproje kty
ov nÄĽ
Å¡ko l
ti vnÃŃ
Ġkon cem
tu r
nÄĽ nÃ½
me s
k g
ÅĻ skÃ½ch
T u
mu m
Ġnez nÃ¡
ĠÅ¾Ã¡ ci
ĠzÃ¡kon em
ĠdÅĻe vo
z it
Ġz di
Ġka b
Ġos vÄĽd
ni ckÃ¡
Ġ- -
ĠnedÃ¡ vno
ĠpoÅĻa dÃŃ
t ovÃ¡nÃŃ
Ġt mav
dÄĽ je
Ġsnad nÃ©
Ġru kÃ¡
Äı ar
Ġm Ã½ch
di Äį
Ġvla sÅ¯
Ġkom er
ĠÄįe skÃ¡
ĠzÃ¡vÄĽ ru
ĠvÃ½ hodou
Ġprogra mÅ¯
Ġna jde
g Ã¡
n nÃ©
Ġpa li
lo ze
Ġv Äįas
Ġsmlou va
ĠpÅĻÃŃro dÄĽ
Ġvol by
van Ã½ch
do stÃŃ
b ez
T E
Ġhy gi
Ġva Å¡em
Ġmlu vit
Å¾ eme
f y
ĠtÅĻe t
ĠpozdÄĽ jÅ¡ÃŃch
l Å¯Å¾
v enÃ©
Ġci zÃŃ
ĠosvÄĽt lenÃŃ
Ġst at
Ġhude b
Ġleti Å¡tÄĽ
Ġne tu
Ġu ÄįenÃŃ
Ġzept at
Ġkance lÃ¡ÅĻ
Ġve le
Ġvy me
ĠMi lo
Ġfotografi ÃŃ
ĠS E
Ġf le
ĠÅ¡iro kÃ©
ovacÃŃ ho
Ġofi ciÃ¡lnÃŃ
H z
Ġzlep Å¡enÃŃ
Ġci z
Ġo su
m Ã¡lnÄĽ
je nÃŃm
Ġin stala
ĠS port
Ġper son
b lo
ĠÄĮ T
fika ci
ĠZÃ¡ roveÅĪ
z n
ĠdÅ¯ chod
Ġnemovito stÃŃ
ĠO nd
ĠÅ¾Ã¡ ky
ĠtÃ©m atu
Ġlo ni
ova nÄĽ
li a
Ġuspo ÅĻÃ¡
Ġpo no
Ġbo du
Ġs or
201 1
ĠnÃ¡hra dnÃŃ
ĠpÅĻedse da
Ġz vÄĽ
Ġkr ve
Ġrej stÅĻÃŃ
ĠE n
Ġnech al
nÄĽ nÃŃm
7 6
Ġma je
ĠNÄĽk terÃ©
Ġb or
tÃ¡ ÅĻ
ĠdÃ¡m skÃ©
ĠÄįlÃ¡n kÅ¯
Ġzahr nuje
Ġdo le
Å¡ ov
ĠveÅĻej nÃ½ch
Ġhla vÄĽ
Ġ3 3
ĠbÃŃ l
ĠvytvÃ¡ ÅĻÃŃ
Ġdigit Ã¡lnÃŃ
ĠI ÄĮ
Ġaplika cÃŃ
K on
Ġd ÅĻÃŃv
Ġroz mÄĽry
te b
Ġi s
Ġkon zer
ĠuÅ¾ivatel Å¯
Ġrych losti
Ġjedin Ã©
ĠvlÃ¡ k
Ġk ore
lov ÄĽ
Å¾ eno
Ġbra m
ĠOstat nÃŃ
Ġg ale
Ġpr ovÃ©st
j at
liko st
C e
ove k
Ġsou stav
Ġvytvo ÅĻenÃŃ
Å¥ Ã¡
Ġ !
Ġob u
in ovÃ©
O Z
Ġjak Ã©ho
Ġh ÅĻ
Ġsoukro m
ĠstÃ¡ ty
ĠVa Å¡ÃŃ
Ġpoliti ky
rÃ¡ k
Ġreak ce
ĠMi ro
z ou
Ġsamot nÃ©
ĠNa bÃŃzÃŃme
ĠmÃŃ r
Ġko ho
ÅĪ Ã¡
Ġby to
ĠMi cro
ti ckou
Ġkomu nit
Ġuli ce
Ġpoli tickÃ©
la cÃŃ
ĠÅ¾e b
ĠÄįe kat
sk up
Ġpop tÃ¡
ĠdÅ¯ raz
ĠkÃ³ d
Å¾ dÄĽ
Ġst ÅĻi
men e
8 5
Ġregi onu
nÃŃ kem
Ġh ub
Ġo ÄįÃŃ
ĠÄįe le
rou b
Ġne be
Ġu Å¡et
rÃ¡ m
l na
ĠpÅĻi jÃŃt
c s
Ġch lad
Ġk ata
ho ten
ĠnejspÃŃ Å¡
Ġf ar
Ġv Ã©st
ĠreÅ¾i s
ina mi
ĠmÄĽ ÅĻÃŃ
Ġz krÃ¡tka
Ġkdy si
ĠtÄĽ snÄĽ
ĠpÅĻe vod
or din
Ġvzdu ch
stav enÃŃ
ĠpÅ¯sob enÃŃ
Å¾ ena
Ġpo chÃ¡zÃŃ
ko dob
Ġregi stru
Ġvzni kla
Ġvo zu
Ġpostav enÃŃ
Ġpra vo
Ġdo jÃŃt
Ġroz hranÃŃ
stru ktu
Ġdo min
Ġpro bÄĽ
ve j
ĠzvlÃ¡ Å¡tÄĽ
Ġme ta
do lÃŃ
ĠL on
ĠnemusÃŃ te
G B
Ġobcho dnÃŃch
Ġsil nÃ©
Ġhospo da
Ġroz Å¡i
pÅĻÃŃ pa
Ġsa z
Ġkomunika ci
ovan Ã©m
Ġvol ba
Ġstan ovi
h de
ze t
va z
ĠpÅĻi jÃŃma
li c
Ġschop en
ra b
li ckÃ©
Ġote c
da mi
nu tÃ©
Ġzp ÃŃ
Ġv racÃŃ
ĠvrÃ¡ tÃŃ
ĠÅĻidi Äį
Ġte be
Äį nÃ©m
ĠÄįÃŃ st
ĠvÃ½zku mu
ĠzÃ¡ Å¾itek
Ġman u
rÃ¡ tu
Ġdo dnes
ĠnejlepÅ¡ÃŃ ch
Ġvyso kÃ¡
Ġfir mu
Ġu l
Ġweb ovÃ©
Ġo ku
Ġu vaÅ¾
ĠBr itÃ¡
Ġe t
ÅĻe z
Ġzby teÄį
ĠA Å¥
ĠkrÃ¡t kÃ©
ĠposlednÃŃ m
ĠpÅĻipo j
lÃŃ me
ĠpÃ¡ s
Ġly Å¾a
ĠnÃ¡dra Å¾ÃŃ
ovi cÃŃch
Ġkni ze
Ġok res
ĠtÄĽ Å¡it
ĠH an
Ġda jÃŃ
Ġin teligen
Ġv le
V A
Ġma m
Ġni koliv
bÅĻe Å¾ÃŃ
Ġten hle
Ġdostup nÃ©
Ġschop ni
en tu
ĠunikÃ¡ tnÃŃ
ĠreÅ¾i m
ĠpamÄĽ Å¥
Ġzna losti
z av
ĠPra Å¾
ĠS il
Ġna vÃ¡
Ġpode z
pe vnÄĽ
ĠvÃ½ro ÄįÃŃ
Ġu Äįeb
ĠprÅ¯ myslu
ĠM la
Ġal bu
Ġskup inÄĽ
z du
d or
ĠV er
to Å¾e
Ġdosta teÄį
P R
plat it
OV Ãģ
rÃ¡ n
Ġelekt ÅĻ
Ġpo sil
Ġdo jem
ĠprÅ¯ kaz
ĠVy u
Ġvo leb
Ġno si
Ġdokumen tace
vÃ¡ te
] .
Ġda lo
Ġpovo lenÃŃ
ĠA t
ĠT ri
dÄĽ te
ĠN A
Ġtis ÃŃce
va ci
sti ckÃ©ho
Ġexp eri
ho ne
m ana
Ġozna ÄįenÃŃ
Ġs bor
Ã¡d ou
Ġhmot nost
Ġhodin Ã¡ch
Ġprode ji
ĠMÃ¡ me
Ġbudou cÃŃ
Ã© lka
Ġb en
ĠpÅĻÃŃ m
ĠdÄĽla jÃŃ
ĠpÅĻÃŃstup u
Ġza hrÃ¡
Ġmot oru
ĠÃºspÄĽÅ¡ nÄĽ
Ġuzav ÃŃ
Ġp Ã¡d
po me
ĠkaÅ¾d Ã©mu
va Äįe
ĠNa bÃŃ
Ġdat um
ĠÄįi Å¡tÄĽnÃŃ
Ġslu nce
Ġkombina ce
ÅĻ stvÃŃ
Ġ% .
Ġrodin u
ĠW il
ĠSou ÄįÃ¡stÃŃ
Ġdlou h
ĠtÅĻÃŃ dÄĽ
Ġ200 4
ĠnÃ¡ byt
ĠTe chni
Ġseri Ã¡lu
Ġbaz Ã©n
ĠtÃ½ka jÃŃcÃŃ
Ġje zd
ĠÄįlen ovÃ©
Ã¸ e
Äį kÃ¡
lov i
ÅĻa d
h ovat
Ġoprav y
Ġneda le
Ġtak ovÃ©m
Ġma gi
Äį ujÃŃ
Ġap artmÃ¡
Ġminu tÄĽ
ĠI V
za lo
D nes
Ġz nÃŃ
Ġb ro
Ġme d
ĠnÃ¡ pad
Ġzp ra
Ġz o
ĠzÃ¡va z
lo ri
mp ati
Ġvyu Å¾it
cti on
ĠHar ry
ĠF ak
ĠstÅĻe di
ĠvÅ¡e obec
da vatel
ĠOv Å¡em
T ato
h ar
Ġpro h
Ġa da
am pi
k m
ov ku
ĠpÅĻed nost
ĠnÃ¡ hodou
ĠdomÃ¡c nosti
ĠmÃŃst nost
Ġâ Ĩ
ĠzÃ¡vis losti
Ġteplo ta
ÅĻi z
ob o
ĠvyÅ¾a duje
Ġnebezpe ÄįÃŃ
ĠvÃ½ro ba
Ġa gre
mÄĽ t
ĠvÄĽ ÅĻÃŃ
Ġzd ob
Ġfor ma
ĠnavÅ¡tÃŃ vit
Ġpod Ã©
Ġbar vu
Ġvede nÃŃm
Ġdo prava
ĠTy p
Ġvy rov
p lej
vo stÃŃ
ĠzÃ¡kaznÃŃ ky
Ġbar vÄĽ
ĠvÃ½ boru
ĠÄĮ Ã¡
Ġzazna men
Ġhra d
ĠpÅĻiprav it
ĠC om
S L
ĠzÃŃska la
cho dnÃŃ
ĠjÃŃz dy
Ġcerti fi
Ġplo cha
ĠnÃ¡z oru
Ġnej pozdÄĽji
ĠmÃŃ ry
Ġmonit or
ĠpÅĻed ve
ĠP Åĺ
Ġjazy ka
Ġst Å¯l
kla dnÄĽ
Ġz pravidla
Ġpostav y
Ġorgani zacÃŃ
ĠzvÃŃ ÅĻe
ĠÅĻe Å¡ÃŃ
ĠnÃ¡sle dujÃŃcÃŃch
H la
ĠÃº lo
Ġkr itÃ©ri
ã ģ
ĠstÅĻÃŃ br
Ġzna lost
as h
ĠvÃ½ro bÄĽ
se t
Ã© ÅĻe
ĠjakÃ© koliv
e la
ĠNÄĽmec ku
Ġs lÃ¡
ĠlÃ©ka ÅĻe
Ġku li
ĠvÃ½t var
Ġby tÅ¯
ĠpÅĻÃŃpa dÅ¯
ĠnaÅ¡e l
ĠSpoleÄį nost
âĢ Ļ
pis em
Ġod pad
Ġin fe
Ġvi dÃŃm
ĠskvÄĽ lÃ½
Ġbav ÃŃ
in k
ĠhlavnÃŃ ch
ĠstrÃ¡ nka
Ġ4 2
Ġpaci entÅ¯
pa li
ak u
mo rav
ko rÃ¡t
ra m
V Ã¡
Ġro ÄįnÄĽ
Ġod sou
Ġameri ckÃ©
Ġdoporu ÄįenÃŃ
st en
chÃ¡ me
znÃ¡ nÃŃ
te kt
Ġven kovnÃŃ
Ġko nÃŃ
Ġdouf Ã¡m
ĠÅ½ Ã¡
Ġsvo jÃŃ
ĠÅ¡ ir
Ġfa jn
, ...
ho dÄĽ
ĠnabÃŃd nout
ĠS prÃ¡
Ġdob ou
ĠO ba
Ġvlast nictvÃŃ
ĠpÅĻekva pi
z vlÃ¡
ĠkÅ¯ Å¾i
Ġmi min
t vo
Ġdo ktor
Ġme da
Ġmas a
ÅĻ skÃ¡
E x
Ġob di
ĠzvlÃ¡ Å¡Å¥
Ġv lo
ĠS Ã¡
Ġ5 6
Ġstej nou
Ġoz dob
is lati
ĠmÄĽsÃŃ cÃŃch
d rav
ĠM usÃŃ
Ġodstra nÄĽnÃŃ
ĠS uper
Ġvy d
Ġnej novÄĽ
Ġvyj ad
Å¾ ou
Ġg en
de sÃ¡
Ġpreziden ta
Ġjed nat
vÃ¡ t
Ġprofesi on
Ġpoz nÃ¡m
ĠP Å¯
o st
Ġod bÄĽ
ĠpÅĻÃŃprav u
Ġfinan ÄįnÃŃch
i vnÃŃ
Ġcel kovÄĽ
ĠD ne
Ġformu lÃ¡
Ġe ta
Ġpara metry
t ru
Ġzvy Å¡uje
âĢ ¢
Ġna ÅĻÃŃzenÃŃ
p h
Ġdo dat
ro ba
Ġpro poj
Ġdy nami
z dy
Ġvyso kÃ½
ĠvÃ¡l ce
ro ÄįnÃŃ
er s
Å¡tÄĽ nÃ©
sta li
ĠvÄĽtÅ¡ inÄĽ
Ġte ku
jÅ¡ÃŃ ho
ĠÃºÅĻe dnÃŃ
ĠJeÅ¾ÃŃ Å¡
ĠzpÅ¯sob u
ĠE l
ĠsoutÄĽ Å¾i
ĠMi mo
Ġpohod l
Ġod kud
ĠL ou
Ġsa mÃ©
Ġnep at
P rÃ¡
ĠBr na
Ġb lÃ¡
Ġta j
Ġop ra
Ġkalen dÃ¡ÅĻ
ĠTe dy
ĠU Å¾i
Ġnejbli Å¾Å¡ÃŃ
pÃ¡d nÄĽ
ĠtermÃŃ nu
ĠrÅ¯ stu
Ġse l
Ġzahra dÄĽ
0 2
nÃŃ ci
ĠF il
Ġnech ci
ĠÃº hra
ĠpÅĻ ines
Ġvy Å¡etÅĻ
D ÃŃky
Ġmlu vÄįÃŃ
Ġprv kÅ¯
st ina
ĠpÅĻÃŃ bÄĽ
ĠE lekt
Ġvy sky
Ġ8 00
Ġh nutÃŃ
2 000
K O
Ġbu n
ĠnÃ¡z ory
Ġmarket ing
i p
pis Å¯
Ġs an
v enÃ½
po li
ali ty
Ġrozhod li
Ġmen u
Ġsli b
Ġz do
Ġne spo
Ġode s
Ã³ za
ĠB el
ĠJi Å¾
Ġreali zaci
ĠvzÃ¡ c
Ġmi k
ĠpÅĻÃŃprav y
p lÃ¡
nÃŃ mi
Ġin stru
Ġvo do
Ġte pla
Ġkli enty
Å¾ enou
ĠveÅĻej nost
Ġsouhla s
ĠpÅ¯ jde
k res
Ġd ni
ÄįÃŃ te
Ġrepre zen
Ġho ÅĻ
ĠostatnÃŃ mi
SS D
desÃ¡t Ã½ch
ÅĻi tel
ĠmÃŃst nÃŃch
ĠdoporuÄį ujeme
j as
ĠzamÄĽstnan ce
Ġzabezpe ÄįenÃŃ
sk Å¯
m ÃŃm
k Ã½mi
ĠpÅĻe prav
Ġmla dÃŃ
ĠZ den
Äį anÃ©
c itu
bi lo
Ġnemo ci
st Ã¡l
Ġrodin ÄĽ
ĠFo to
ĠV al
ĠOb je
ĠpapÃŃ r
ĠurÄį enÃ©
Ġre kor
Äįas nÄĽ
Ġvy vÃŃ
lÃŃ ky
Ġa rgu
Ġman Å¾e
ĠH le
Ġk lo
0 4
ĠmÄĽ nit
\\\\\\\\ \\\\\\\\
Ġc a
Ġdobro dru
ĠvÅ¯ nÄĽ
Ġdis pon
ĠZ ku
stvÃŃ m
le y
k et
Ġjako Å¾
Ġd vanÃ¡
ĠzpÅ¯sob y
Ġsp r
ĠÃļ stav
d rÃ¡t
0 3
Ġnev z
Ġsp on
Ġvy Å¡
Ġzase dÃ¡nÃŃ
ĠpÅĻije tÃŃ
Ġkonce rt
mÃ¡ nÃŃ
b en
d ovÃ¡
ĠO s
Ġsed mi
Ġcharak ter
ÃŃ te
Ġro le
ĠobrÃ¡ zek
Ã ¤
res s
ĠJa pon
ĠzÃ¡m ku
vÃ¡ nÃŃm
ĠpÅĻÃŃ stroje
ĠgÃ³ l
M ÃŃ
z ÅĻej
na la
Ġaltern ati
Ġz kla
ĠpÅĻedmÄĽ ty
ĠdÄĽ di
le nÃŃm
Ġna le
Ġzp ÅĻÃŃ
a du
Ġp lu
Ġvo j
ti ku
ĠdesÃŃ tky
ĠrozÅ¡ÃŃ ÅĻenÃŃ
Ġpro fil
Äįe ho
Ġf ron
ovi c
ne ra
ĠpÅĻi spÃŃ
Ġsil nice
Ġfil my
mr z
Ġrozli Å¡enÃŃ
Ġven ti
Ġpi lo
lnÃŃ k
Ġ8 5
Ġkvali ta
di ÄįnÃŃ
sle m
Å¡ ovat
ĠM Åł
si li
Ġ3 4
Ġci bu
z z
ni Äįka
Ġnep ÅĻÃ¡
Ġno s
Ġpotvr zenÃŃ
Ġmla dÃ©
8 8
Ġob or
ĠzprÃ¡ vu
200 6
ĠtÄĽ hoten
ĠMo ra
ĠbÄĽ Å¾nÄĽ
Ġobla stech
Ġfak tor
eno sti
Ġfor my
Ġli sty
rÅ¯ st
ĠÅ¡pat nÃ©
m ovÃ©
Å¡ enou
l l
n skÃ½
Ġdi plo
pe c
ĠÃºÄįe l
Ġok en
Äį ily
Ġzpro stÅĻed
Ġfyzi ckÃ©
ĠpÅĻipomÃŃ nÃ¡
ĠRoz hod
re gi
Ġvy tr
Ġsta rÃ¡
Ġpoli ce
Ġhra nici
ĠcÃŃ sa
Ġu tr
ra la
rov Ã½ch
s mÄĽ
Ġobla stÃŃ
ĠcÃŃ tit
Ġdostane te
9 5
Ġneg ativnÃŃ
Ġn Ã½
Ġsou boru
Ġpry Äį
atu tÃ¡
ĠpracovnÃŃ kÅ¯
Ġzi mÄĽ
rov anÃ©
Ġmal ÃŃ
Ġkar ta
Ġserver u
ĠSe ver
ĠCh ar
Ġmno hÃ©
Ġsk ry
ĠzÃ¡stup ci
" :
tÄĽ la
Ġhtt ps
Ġvypad at
Äįer st
J o
ĠprÅ¯ bÄĽ
pr ovÃ¡
Ġjin Ã½mi
vo z
ĠvÃ½sled ku
ova nÃŃ
Ġne je
ru s
Ġsil nÄĽ
ovatel Å¯
Ġosob u
Ġregi onÃ¡lnÃŃ
ĠÄįe skÃ©m
S P
ĠmontÃ¡ Å¾
ti lo
ko p
ĠvÃŃken du
Ã¡ lem
Ġs me
di i
Ġse dÃŃ
te chni
Ġsy na
sle dnÄĽ
. -
Ġban kov
Ġstuden tÅ¯
Ġjedno tek
Ġe roti
Ġpro f
Ġna vi
is i
Ġl Å¯Å¾
Ġd nem
Å¡ enÃ½ch
pe ÅĪ
ĠC la
by lo
v nÃ¡
rÃ½ vÃ¡
Ġobsa hem
Ġza sÃŃ
Ġpr sa
ĠJe den
la datel
ĠvÃ½ cvi
Ġbez plat
ru Å¡enÃŃ
kov anÃ©
ĠdÃ© le
Ġte hde
ĠZ lÃŃn
Ġob Ã½
ĠvÃŃ no
Ġd ali
Ġle sk
Ġvy prac
Ġmo to
ĠmÄĽ ste
mÃŃ sto
vÄĽt Å¡ÃŃm
ĠtÄĽm ito
Ġjak Ã½ch
ĠZ na
Ġpok ry
ĠcÃŃ rke
ĠurÄį ena
me ra
Ġpo lÃ©
ĠpÅĻi dat
ĠMÄĽ sto
ĠvzdÃ¡le nosti
Ġdruh Ã½m
Ġre kre
vi e
no r
Ġduch ovnÃŃ
h lu
ĠF un
Ġnaro zenÃŃ
Ġvelk Ã©ho
Ġli mit
V z
Ġnej ob
Ġpok r
U P
ÅĻi ly
Ġefe kt
ĠNa opak
nÃ¡ zi
Ġsem inÃ¡
do Äįe
ĠpÅĻi blÃŃ
Ġatmosf Ã©ru
Å¡ ke
Ġvol nÄĽ
Ġza d
Äį iny
ci on
Ġu pÅĻe
pr ch
ĠvÃ½ hody
Ġg ym
Ġpi vo
ĠC i
ĠpÅĻe kon
ĠtÃ½d nu
kov al
ĠVaÅ¡e ho
st ry
Ġod por
st vu
ri s
Ġale r
le jte
kla datel
Ġchy by
Ġvy dat
ĠzdÅ¯ raz
Ġhez ky
Ġtelefon i
Ġu hlÃŃ
Ġpoko ji
Ġmedi cÃŃ
Ġcy klu
Ã¡d at
ĠÃļ stÃŃ
ĠocenÄĽ nÃŃ
Ġma li
le nÃ½ch
te ÅĻskÃ©
Å¾ dÄĽnÃŃ
ĠkamarÃ¡ d
r nÃŃm
201 0
ĠÅ¡ko da
Ġe l
ovo l
C D
Ġ4 6
ã ĥ
ĠstÅĻe l
ĠdoporuÄį uji
vi ze
Ġma teÅĻ
Ġtr pÃŃ
met ri
Ġpo chyb
Ġvol nÃ©
Ġpocho pi
S tÃ¡
v ent
Ġma temati
ĠzÃŃskÃ¡ nÃŃ
ĠprohlÃŃ Å¾e
Ġci vili
bu s
Ġkar tu
Ġprakti ckÃ©
mÄĽ na
Ġa ro
ĠJ sme
b ka
B a
k lÃ©
Ġreali z
ĠâĨ Ĵ
ĠC H
Ġdo my
do mÃŃ
Ġmlad Ã½ch
Ġlo di
Ġvo zÃŃ
Ġkvali tÄĽ
Ġtr pÄĽ
Ġbe ze
ĠpÅĻedpis y
vr h
ĠVo j
SpoleÄį nost
Ġprove de
mo cÃŃ
Ġema il
ĠletoÅ¡ nÃŃho
Ġadre se
Ġpr ovÄĽ
ĠprohlÃ¡ Å¡enÃŃ
ĠTe le
Ġnastav it
ovacÃŃ m
ĠÄį ast
s r
Äį inÄĽ
.... ....
ky nÄĽ
p ka
e dl
ĠvÃ½rob ku
nÄĽ ny
Ġv tip
ve t
tr Ã©
ga ce
J en
de s
Ġdosa va
Ġo my
ĠzamÄĽstnan ci
Ġzvu k
ĠnemÃ¡ te
ĠmÄĽst skÃ©
Å¡ nÃ¡
ĠdoplÅĪ ky
so ft
nÄĽ nÃ¡
pad ne
ÅĻ enou
Ġhroz nÄĽ
Ġkomp let
ĠvrÃ¡ til
Ġnez nÃ¡m
Ġko mo
Ġkon Ã¡
e u
ĠrÅ¯z nÃ½mi
ĠnÃ¡ bytek
hle dy
Ġvzni kÃ¡
mÄĽ rÅ¯
Äį enÃ¡
Ġzahr nu
ĠpÅĻe ci
ur t
Ġdo pÅĻedu
Ġjez dÃŃ
Ġkonzu l
Ġti skÃ¡
le tu
ĠzÅ¯ stat
: )
Ġbo ji
i i
e ro
ĠnovÃ© m
ÅĪ ka
ĠÄįerv enÃ©
ĠmÃŃst em
Ġjed nak
ĠoznÃ¡ menÃŃ
ĠjejÃŃ ch
ĠnÄĽjak Ã©ho
Ġu hra
Ġstroj Å¯
kt oru
ĠNÃ¡ zev
ĠklÃ¡ ves
ĠnÄĽko mu
ĠpÅĻedpo klÃ¡
ĠA B
ĠpodÃŃ le
ĠA fri
ĠJaro slav
Ġne chy
ĠdomÃ¡ cÃŃch
Ġkalen dÃ¡
ĠpÅĻi Å¡lo
Ġmat ka
ĠS vobo
. ),
ĠnemÅ¯Å¾ u
Ġstandar dnÃŃ
pe ch
ĠT ou
Ġdoku ment
ĠÃº prava
ĠobÄįan Å¯
ĠÃº prav
hro mÃ¡
Ġin ici
ĠS K
ran Å¾
ĠJe dna
ch la
c ovÃ¡
7 2
c enÃ½
Ġ9 5
Ġli Å¡ÃŃ
ĠblÃŃ Å¾ÃŃ
Ġi P
Ġra kov
ĠobrÃ¡ zky
Ġo po
ĠmyÅ¡len ky
c al
ĠznÃ¡ t
ĠZatÃŃm co
Ġochra na
ĠvyprÃ¡ vÄĽ
in ku
Ð »
Ġinforma ci
ĠÅĻe ky
b ro
Ġvi rtu
ÅĻa dÃŃ
Ġminu ty
p x
Ġpoza dÃŃ
N I
ĠmasÃ¡ Å¾
ĠVÄĽtÅ¡ ina
Ġsor ti
ĠBo le
ĠÅ¾ alo
ĠÄįe skosloven
ĠG re
Äį ujÃŃcÃŃ
ĠprÃ¡ dlo
ĠtÄĽ mi
pro ti
ĠdokÃ¡ zal
lÃ¡ nÃŃm
Ġle sa
Ġpro sto
ĠA b
bi o
Ġex ter
Å¡ ce
Ġko nÄĽ
Ġta ble
ĠvÃ½stav y
ĠpÅ¯ vodu
Ġleg islati
ka r
Å¡ kou
200 9
ĠvÃ¡ leÄį
Ġreali zace
Ġzat ÃŃ
Ġinteri Ã©ru
Ġna zna
ĠvzdÄĽlÃ¡ vacÃŃ
razi la
Å¡ ena
ĠzaÄįÃ¡ tek
ĠM al
Ġpo to
ĠdÃ¡ v
Ġbude Å¡
ĠO P
rovo z
Ġdom ova
Ġhot ovo
Ġs ma
Ġza vo
ĠRa dy
Ġch rÃ¡nÃŃ
B u
ĠnÄĽ kam
Ġrelati vnÄĽ
Ġja pon
ĠD ani
Ġe u
ĠÃºÄįastnÃŃ kÅ¯
Ġdem on
lÃ¡ k
u ju
Ġsho w
ĠJestli Å¾e
ĠstrÃ¡ nku
de rnÃŃ
Ġst vo
U M
ĠkancelÃ¡ ÅĻe
Ġch at
ĠC hy
Ġzbra nÄĽ
Ġmo no
Ġzahra dy
Ġmno hdy
ĠkonkrÃ© tnÄĽ
ĠzahÃ¡ jenÃŃ
ĠI T
Å¡ a
O K
ĠLu kÃ¡
ÅĻ enÃ½ch
da nÄĽ
Ġkonfer ence
ĠvÃ½jim kou
Ġdis cip
A K
Ġpsa nÃŃ
rov od
ĠDo poruÄį
Ġslune ÄįnÃŃ
ĠÄį l
ĠpÅĻÃŃ znak
âĢ¦ ]
ĠvÄĽ nuje
ĠÅł e
Ġrostli ny
ĠsvÄĽ d
Ġde ska
Ã¡n skÃ©
ni ckÃ©ho
Ġzpra voda
ĠA ktu
Ġne t
ÅĻ skÃ½
Ġa mat
Ġ out
Ġja der
Ġuzav ÅĻenÃŃ
ĠkomentÃ¡ ÅĻ
Ġpodni ku
Ġsp rch
ĠS le
ĠvÃŃ tÄĽ
Ġod ÄĽ
Ġkontro ly
ĠspoleÄį nÃ©ho
ĠvÃŃ me
Ġve se
Ġrepre zent
zi e
ĠK ry
ĠÅł u
Ġkole g
Ġz re
ĠpÅĻedmÄĽ t
7 4
ĠD is
ĠFranti Å¡ek
Ġrece pt
Ġobje vil
J sem
ĠpÅĻÃŃ bu
Ġpar kovi
Ġt ÃŃ
Ġna kou
Ġsk rze
w i
Å¡ ujÃŃ
Ġmat ur
va le
ĠUni verz
Ġne vÃ¡
Ġsled ovÃ¡nÃŃ
Ġsamostat nÄĽ
ĠE N
Ġevrop skÃ½ch
on s
Ġkomp on
ĠzÃ¡pa su
ĠÄįi stÄĽ
V i
Ļ Ĥ
Ġori enta
N ÄĽk
Ġnebude te
ĠznÃ¡m Ã½
ĠP P
Ġla h
ĠzakÃ¡ zky
Ġdiag nosti
ĠRe gi
Ġbudouc nosti
Ġmaje tek
Ġb ato
Ġb ri
Ġpo rovnÃ¡nÃŃ
Ġnemo hou
ĠPo stup
ÅĻe ch
ene k
ĠuÅ¾ÃŃ vat
Ġprodu kce
Ġod dÃŃ
Ġproje dnÃ¡
ĠPo dÃŃ
ĠÅ¡ li
Ġdva cet
k va
ĠproblÃ© mu
ĠO ri
Ġpolov iny
ĠF ili
je li
let ou
w it
is s
Ġsto lu
Tak Å¾e
Ġte ore
Ġkr ku
ĠÃºÄįa sti
ĠTÅĻe ba
ĠÅ¡ko lenÃŃ
Ġsr de
Ġskon Äįil
pad l
Ġb rÃ½
qu e
Ġho ry
Ġhypo tÃ©
vi lo
Ġotev ÅĻe
Ġban ka
ĠÄįer no
ĠnÃ¡ro k
ĠpÅĻi Å¡li
Ġpohod lÃŃ
Ġostat nÃŃm
ĠvÃ½hra dnÄĽ
Ġpro fi
ĠzvÃŃÅĻ ata
ĠMo c
Ġja b
ĠDÄĽ ti
p sÃ¡
ĠÅ¡ ance
Ġmi lan
ĠMas ary
Ġry b
mi li
Ġpro mÃŃ
Ġv teÅĻ
ĠpÅĻÃŃ klad
Ġne lÃŃ
ĠÅ¡ko d
A G
Ġblo gu
Ġzab Ã½vÃ¡
Ġni koli
lov ÄĽk
ĠzajÃŃmav Ã½
ĠÅĻ eme
Ġdiva dla
Ġpracov nÃŃho
Ġje ze
ĠÄĮe chÃ¡ch
Ġ200 3
Ġvy drÅ¾ÃŃ
s c
D F
in ak
Ġdlou hÃ½
Ã »
ko lik
Ġposkyt nutÃŃ
Ġzvo lit
Ġz hor
8 6
ĠÃºrov nÄĽ
Ġo lympi
Ġna krÃ¡
Ġfung ovat
Ġpro bu
Ġelektri ckÃ©
Ġfil mÅ¯
Ġjed inÃ¡
Ġzne u
ĠpeÄį livÄĽ
ĠÅ¾ a
jÃŃ mav
rg ani
ĠdÄĽ l
Ġte ro
Ġtra m
Ġpoho dÄĽ
ra d
ĠHra dec
ĠÅ¡kol stvÃŃ
Ġpedago gi
Ġsp at
!! !!
B ÄĽ
ĠpÅĻÃŃ slu
da ÅĻilo
ĠO st
Ġpa mat
ĠÄį te
Ġco koliv
ĠÅĻa d
ĠUr ÄįitÄĽ
Ġsm rt
vov ar
hra d
r ce
ĠÄįÃ¡st ku
Ġru ÄįenÃŃ
ĠpoÅ¾adav kÅ¯
Ġro bo
ĠU kraj
Ġprezen tace
tu d
Ġjin Ã©m
mÃŃ ru
Ġmal Ã©ho
ĠpotÅĻebu jÃŃ
fika ÄįnÃŃ
Ġne vÃ½
Ġod po
Ġnej star
Ġple ti
Ġevrop skÃ©
Ġnato lik
ĠsouÄįÃ¡ st
Â §
ri z
Ġinfra struktu
Ġrekla mnÃŃ
Ġo Äį
ĠI zra
ĠpÅĻÃŃj mÅ¯
ĠsÃŃ dlem
Ġz vÄĽt
ĠvyjÃ¡d ÅĻenÃŃ
Ġne ce
dnÄĽ nÃŃ
Ġneb an
Ġ4 9
Ġv Å¡ÃŃm
Ġven kov
ĠpÅĻÃŃpa dnÃ©
Ġnau Äįit
ĠÃºda jnÄĽ
Ġdesig nu
Ġvyvo lÃ¡
ĠtÃ¡ bor
my slov
nÃŃ kÅ¯
Ġro ste
Ġten is
ĠoÄįi ma
ĠÃºÄįe tnÃŃ
Ġplat by
ni ku
N em
ĠplÃ¡ Å¾
Ġde tek
Ġb ere
ĠÄįÃ¡st ky
ĠS mlou
no n
ĠkÅĻÃŃ Å¾
Ġpar ti
br Å¾
la la
dÃ¡ vajÃŃcÃŃ
Ġru ÄįnÃŃ
ka lo
T V
Ġ201 9
Ġcent rÃ¡lnÃŃ
Ġdis plej
pÅĻÃŃpa dÄĽ
Ġu sa
ĠpÃŃs men
Ġobje kt
Ġh ov
ĠtÅĻÃŃ da
Ġobli Äįe
Ġpa rÃ¡
D ruh
Ã½ Å¡le
Ġk ober
ĠG i
Ġspor tu
Ġok ru
ĠtÅĻe tÃŃm
ĠjÃŃ delnÃŃ
ĠpovaÅ¾ uje
Ġdo po
desÃ¡ ti
ĠvÅ¯ z
ĠB or
Ġa j
d ÅĻi
ĠdÃ¡ vat
Ġrozu mÃŃ
Ġfinan cÃŃ
ĠLi dÃ©
pe nÃŃm
rÃ¡ Å¾ÃŃ
Ġse h
mi e
ĠÅ¡ko dy
Ġstudi um
Ġminul Ã©ho
7 3
ĠblÃŃz ko
Ġzna ÄįnÄĽ
ĠscÃ© nÃ¡
Ġrespe kt
ĠzaÄį aly
Ġd vo
ni ckÃ½
Ġra da
ĠmÄĽsÃŃ ci
ĠkrÃ¡s nÃ¡
ĠF ir
C O
li na
A u
kovÃ© m
ĠpÅĻÃŃjem nÃ½
Ġnik de
Ġfil tr
z ar
ä ¸
Ġh armoni
Ġrekonstru kce
ĠvyrÃ¡ bÃŃ
ĠkrÃ¡t ce
h nou
Ġtla ku
in stal
ĠA NO
Ġu Äįin
ĠRo man
ĠfÃ¡ zi
stÅĻe dnÃŃ
Å¾ ujÃŃ
ÅĻ ky
ĠsmÄĽ s
ĠMÃ¡ te
ĠpodÃ© l
in ky
Ġsil nici
ĠO B
ĠÃº dolÃŃ
Ġjisto tu
ÄįnÄĽ jÅ¡ÃŃ
Ġperfe ktnÃŃ
dÄĽ jÃŃ
Ġna kup
sta lo
ĠpÅ¯ vo
f fi
ĠdÃŃ lÅ¯
Ġsil nÃ½
ï¿½ ï¿½
Ġope ra
Ġm Ã©m
Ġdoprav u
ĠzÃ¡kaznÃŃ ka
Ġdo dal
Ð º
Ġprac oviÅ¡tÄĽ
ĠÅ½ Ã¡d
ĠzÃ¡pa dnÃŃ
s ly
ma vÄĽ
pi i
Ġroz sah
Ġneg ati
ĠK at
ĠÅ¾ivo Äįi
Ġinvesti ce
in em
ĠdÅ¯ kaz
Ã³ zy
Å¾ te
g on
ĠÄįlen em
ĠSna d
Ġby Å¥
Ġimu nit
ĠtvÃ¡ ÅĻ
Ġada p
ĠF er
Ġsp al
Ġ0 9
ÅĻÃŃ ch
Ġzra nÄĽnÃŃ
ĠKon tak
Ġbak teri
kovi ce
ckÃ© mu
ĠW C
ĠsprÃ¡v ce
pÃŃ Å¡e
ĠdÃ© lce
Ġchy stÃ¡
ĠzÃ¡ znam
Ġna Å¡tÄĽstÃŃ
Ġhro zÃŃ
Ġp ub
ĠvÃ½ Å¡ky
ĠÅ¾eb ÅĻÃŃ
ĠnÃ¡stroj Å¯
Ġk ruh
ĠzÃ¡ mek
kt ory
Ġskup inu
Ġn ove
ĠformÃ¡ tu
Ġdokumen ty
ĠÅ¡Å¥ Ã¡
ĠÅłko da
t nÃ½
Ġinternet ovÃ©
Ġpe j
Äį ast
ĠPo dob
Ġefe ktivnÃŃ
Ġdu chu
ĠpÅĻedmÄĽ tu
H D
ĠLon dÃ½
ĠPo tom
Ġji stÃ©
Ġkou sky
Ġpo mÄĽru
ĠsprÃ¡ vnÃŃ
Ġpl nÃ¡
ĠBo ha
ĠOlomou c
Ġni koho
rov ÄĽ
Ġch Å¯
Ġ4 4
ĠTa dy
ran it
Ġzahrani ÄįnÃŃch
ĠpÅĻekva penÃŃ
Ġinter pre
ĠAle x
Ġzd r
ĠudÃ¡ lostÃŃ
ĠVÃ¡no ce
ĠdospÄĽ lÃ©
Ã³ znÃŃ
Ġpo ti
ĠZem an
Å¥ te
ĠzÃ¡ zemÃŃ
Ġpan el
200 4
gy pt
Ġau di
f r
ĠcÃŃ tÃŃ
Ġpou zd
ĠmÅ¯Å¾e Å¡
gra ce
Äį Å¯m
Ġvita mÃŃ
Ġs mut
mo ÅĻ
vÄĽ zd
ĠmlÃ¡de Å¾e
Ġtechni ka
Ġb rÃ¡t
cen i
st ka
ĠG B
hÃ¡ ch
Ġrestau raci
Ġpe vnÃ©
ĠT Ã©
Ġma teÅĻskÃ©
Ġmiliar dy
ĠpÅĻedmÄĽ tÅ¯
ĠN ovo
hod nÄĽjÅ¡ÃŃ
st nÃ©
Ġo Å¡etÅĻ
ĠnenÃ¡ vi
stÅĻÃŃ c
nÄĽ no
ĠH P
kt nÄĽ
Ġvi zu
v enÃ¡
Ġvlast nost
ĠoÄįekÃ¡ vÃ¡nÃŃ
Ġobra zu
Ġvy dÃ¡vÃ¡
Ġspole h
Ġnezbyt nÃ©
Ġvol nÃ½
ĠbÃŃl kov
Ġno hou
ĠNÄĽk dy
ĠnÃ¡ro ÄįnÃ©
Ġsoft ware
ĠA ir
ÃŃ n
ĠZ boÅ¾ÃŃ
a mi
Ġko me
ĠC zech
ĠnÃ½ brÅ¾
Ġne fun
Ġg lob
ĠmÃŃ Äį
ĠHo spo
.. ...
ĠzÃŃ tra
ran d
he jte
pi Å¡te
hod nÃ½
Ġnebo li
lÃŃ nÄĽ
ĠpokraÄį uje
Ġst ovky
dÃ¡ te
ĠJ ÃŃ
Ġudr Å¾et
Ġu Äįit
Ġcuk ru
Ġna pa
Ġstar tu
Ġvzta hÅ¯
Ġopti mÃ¡lnÃŃ
ĠPrac ovnÃŃ
ĠpÅĻe stÃ¡
Ġstuden ty
ĠpÅĻÃŃ stav
Ġroz dÄĽ
Ġkur zy
Ġkuchy ni
Ġpostav it
Ġre du
I G
ĠstÄĽ ny
Ġobsahu jÃŃ
r z
zen ou
Ġu Å¾it
Ġtis ÃŃ
ĠprospÄĽ ch
Ġvstup u
Ġo str
Ġd ez
d oval
Ġdrob nÃ©
Ġzapo men
ĠO K
Ġnemo hla
Ġko ordin
Ġcest ovnÃŃ
ĠZ vlÃ¡
Ġpre zent
Ġu pÅĻÃŃ
hu jÃŃ
ĠÅ¾i vnost
st or
Ġkole gy
Ġu va
Pro dÃ¡m
Ġkou z
Ġob dr
Ġko leÄį
c uje
Ġo mÃ¡
Ġpov z
Ġfon d
Ġvy dal
ĠumÄĽ l
Ġvz nika
Äįe la
Ġzby teÄįnÄĽ
fi e
Ġl Å¾i
Ġkry t
ĠM ist
ĠM P
vit y
Å¾i tel
Ġvz al
E G
Ġpocit y
Ġkdy koliv
ĠAn dro
ĠnÃŃz kÃ©
Ġnekon e
ĠzÃ¡ch ra
ĠpÄĽk nÃ©
ĠðŁ ĻĤ
Ġsta di
Ġnejmen Å¡ÃŃ
Ã¨ nÃŃ
Ġjak oby
Ġmili ard
Ġs hr
Ġdo provÃ¡
Ġnep la
ĠMi ku
van ou
Ġs kÃ¡
L O
Ġv an
Ġg ril
Ġmil ovnÃŃ
ĠK ur
ĠpÅĻÃŃspÄĽ vku
ĠpÅĻev zetÃŃ
ĠmyÅ¡ lenÃŃ
Ġjednozna ÄįnÄĽ
Ġob Äįerst
Ġkomplex nÃŃ
Ġ ï
Ġautom ob
Ġusku teÄįnÃŃ
Å¾ nÃ½ch
i ru
Ġelekt rÃ¡
ĠZa Äį
ĠpÅĻedstav en
ĠsprÃ¡v nÃ½
Ġposte le
Ġli nky
ore ch
S D
Ġvrcho l
no w
Ġko p
Ġkon stat
7 1
Ġnem y
ĠVe likost
Ġdo sti
lika ce
ovÃ© mu
Ġpohyb uje
dli Å¡tÄĽ
Ġf an
Ġku sÅ¯
Ġtelevi zi
pÃŃ nÃ¡nÃŃ
ĠÄįi stÃ©
Ġs on
Ġod mÃŃ
ĠÅĻÃŃ kÃ¡m
ba va
Ġv race
Ġdosa Å¾enÃŃ
ĠzÃ¡ mÄĽr
Ġstan ovÃŃ
j skÃ©
Ġpo bÅĻeÅ¾ÃŃ
Ġp un
Ġmodr Ã©
Ġzji Å¡Å¥
Ġexist ujÃŃ
Ġpoj men
sti ckou
Ġin Å¾enÃ½
ĠÅł panÄĽl
Ġfinan covÃ¡nÃŃ
ĠL an
sle dy
ĠZ ob
Å¡ eni
me zÃŃ
Ġkre dit
Ġry bnÃŃ
Ġv al
ĠPÅĻe klady
ĠurÄįit ou
ĠplÃ¡ t
Ġrizi ka
le tÃ¡
ro tickÃ©
Ġhla va
stou p
D D
Ġz krÃ¡
in ka
ĠpÅ¯j Äįek
ĠJo hn
I F
Ġ[ âĢ¦]
Ġsoci ali
Ġke rami
Ġpovin nostÃŃ
Ġtvor bu
Ġporu Å¡enÃŃ
g et
Ġstrav ovÃ¡nÃŃ
å ¤
po ra
Ġsp Ã¡n
Ã½ t
ĠnejdÅ¯leÅ¾it ÄĽjÅ¡ÃŃ
ĠlÃ© to
Ġbra tr
Ġdra mati
nka mi
Ġvo zÅ¯
ĠÄįa stÄĽji
ĠpokraÄį ovÃ¡nÃŃ
Ġroz mÄĽr
Ġstar Ã½
ĠÅĻe tÄĽz
p rÅ¯
Ġa korÃ¡t
Ġori ent
Ġvybra nÃ½ch
Ġhistori ckÃ©
Ġje de
Äį enÃ½ch
Ġ er
ĠlÃ© ky
n anÃ©
rÃ¡ Å¾e
ĠzÃ¡ stav
ber te
Ġod vÄĽt
v ra
sÃŃ me
s nÄĽjÅ¡ÃŃ
ĠpÅĻe chod
sti ce
hor Å¡ÃŃ
ĠlÃ¡ ska
ĠnÃ¡ le
ĠD Ã¡m
Ġmi lu
it Ã½
bu de
Ġpra men
Ġne Äįe
Ġzem ÅĻel
ĠS D
lep Å¡ÃŃm
Ġlo Äı
Ġh ard
Ġter Ã©nu
po m
mÃ¡ cÃŃ
ĠMart ina
Ġry bÃ¡
li vÃ¡
Ã© nÄĽ
Ġ18 0
ĠL y
ĠmoÅ¾ nÃ½
ene s
Ġz Ã³
Ġneza mÄĽst
Ġvi dÄĽnÃŃ
Ġspe kt
Ġty pÅ¯
ologi ckÃ©
j me
Ġsch rÃ¡
Ġzrc ad
Ġpo kou
chÃ¡ nÃŃ
ĠJi hla
ĠpÅĻeno s
ĠpoÅĻÃŃ dit
Ġnav Å¡tÄĽ
Ġpl nou
Ġl Å¾ÃŃ
m on
ĠÄĮe skÃ©ho
Äį ata
Ġus nesenÃŃ
ko je
Ġs bÄĽ
Ġneva dÃŃ
ĠS ÃŃ
pl nÃŃ
Ġna Å¡la
ĠudÃ¡ lost
Ġze lenÃ©
Ġvi dÄĽla
Ġk rat
ĠveÅĻej nÃ©ho
Ġvy pu
n skÃ©ho
Ġin stal
ĠpÅĻipo jiÅ¡tÄĽnÃŃ
Na Å¡e
pe ten
m Ã¬
ĠsloÅ¾ ky
Ġu na
Ġsti sk
z oval
Ġv stÅĻÃŃc
ĠT Ã¡
Ġsouvise jÃŃcÃŃ
di m
Ġmodel Å¯
ĠzÃ¡kon Å¯
ĠprovÃ¡ dÄĽt
en s
Ġobjem u
Ġji ho
Ġch ut
Ġkli entÅ¯
bu r
ĠzÅ¯ stane
ch er
ĠD vo
H L
Ġpoz nÃ¡nÃŃ
ĠpÅĻÃŃ bÄĽhu
Ġtabu lky
Ġau tem
lÃ¡ nek
lÃŃ te
Ġoh ni
zÃ¡ jem
Ġs Ã³
Ġa na
lu m
ĠpÅĻe Äį
Ġobje ktÅ¯
ÅĻit om
ĠpÅĻÃŃ pravÄĽ
ĠPro dej
ĠlÃ© kÃ¡
Ġbud ov
Ġ200 2
Ġtra ti
Ġzak lÃ¡
b roj
ĠÄĮ as
Ġuplat nÄĽnÃŃ
ĠtÄĽhoten stvÃŃ
ĠpÅĻe ÄįÃŃst
ĠA Äį
Ġstar Ã½ch
Ġchvil ku
rov ou
8 9
ĠpÅĻi jÃŃmÃ¡
Ġ1 10
ĠzahÃ¡ j
ko t
Ġk va
Ġa ne
d an
ci Ã¡lnÄĽ
Ġaku mu
Ġpa u
Ġner v
ĠvÃ½u ky
si vnÃŃ
C el
Ġhmot nosti
ĠzajÃŃ mÃ¡
ke ty
ĠÄįe Å¡t
ĠÃºda j
6 4
ĠnaÅ¡i m
Ġka ret
Ġza vÃŃ
po kud
Ġle vnÄĽ
pÃŃ te
it nÃŃ
Ġp eri
Ġf ree
Ġpo pÅĻ
Ġpoku s
av or
ĠÅ¡ panÄĽl
Ġorgani zaci
st aly
H A
Ġb rou
Ġpo st
ĠZÃ¡ kon
Å¾ eny
ĠÅĻe kne
Ġbaz Ã©nu
ĠsÃŃ la
ĠAp ple
Ġko Å¡ÃŃ
Ġstup ÅĪÅ¯
Ġdop rovod
ĠzÃ¡ su
Ġob lÃ©
Ġjednoduch Ã½
Ġsoubor y
Ġos vobo
ĠklÃ¡ Å¡
ĠrejstÅĻÃŃ ku
Ġvy Äįer
k dyÅ¾
ĠorgÃ¡ ny
Ġnedale ko
Ġakti vnÄĽ
Ġpotrav iny
di ci
Ġprocen ta
mo stÃŃ
pa mat
Ġf it
on al
Ġtechni ckÃ½ch
Ġdo stÃ¡vÃ¡
Ġs my
Ġja ÅĻe
Ġstudi u
Ġdo j
h ÅĻe
Ġnej vÄĽtÅ¡ÃŃm
ĠvzdÄĽlÃ¡ va
lÃ¡ Å¡
by l
ĠV Åł
Ġho ro
Ġpaci ent
po l
Ġza loÅ¾enÃŃ
Ġne Äįi
Ġtak ovÃ½m
200 8
Ġstav ba
ĠvÃ½ voji
Ġba revnÃ©
Ġvi dÄĽli
Ġfo tek
eme k
ĠM il
Ġka u
Ġvi ditel
Ġzna Äįka
Ġsly Å¡et
ĠÄĮe sko
ĠvÃ½ hled
ĠsvÄĽt le
ber g
Ġs jezd
ĠÅ¡ÃŃ ÅĻka
Ġpora dit
Ġalbu m
D i
Ġta lent
ĠsprÃ¡v nou
ĠP en
ĠÄįe s
Ġdoda vatel
r nÃ½
se ÅĪ
Ġt ovÃ¡
Ġm g
ve ch
ĠÅł i
Ġob Ã¡
le bnÃŃ
Ġod bo
Ġstuden ti
ĠtÅĻ emi
ĠnÃ¡vÅ¡tÄĽ vu
ĠJak ub
Ġkal ku
ĠpÅĻÃŃ prava
ĠnÃ¡v rat
ĠvÄĽ d
ĠpÅĻed vÃ¡
la s
ĠD Ã©lka
Ġhud ba
Ġpa mÃ¡
Ġma xi
Ġjed inou
ĠC S
Ã Ĺ
ĠKup ujÃŃcÃŃ
Ġobra ny
Ġmod rÃ¡
Ġplo ch
Ġkole kce
Ġp ul
Ġj dou
R E
Ġzdravot nictvÃŃ
Ġposkyt nout
ĠK vali
Ġpo ta
Ġjestli Å¾e
ova telÃ©
Ġo cenÃŃ
dÃŃ cÃŃ
Ġin stalace
ĠprobÄĽh ne
ĠMez inÃ¡rodnÃŃ
Ġklu ci
le vnÄĽjÅ¡ÃŃ
Ġfir mÄĽ
tÅĻe bu
Ġho stÃ©
Ġra j
Ġzapo j
M I
Ġautobu s
Ġje sky
Ġma gne
Ġvy hodno
Ġa spe
Ġrov no
Ġvyz ve
Ġo cit
Ġope race
ĠmlÃ© ko
ĠjiÅ¾ nÃŃ
Ġb rnÄĽ
mÃ¡ hÃ¡
ĠtÄĽ Å¡ÃŃ
Ġkape ly
Ġdokumen tÅ¯
Ġna vÃ½
ĠstÅĻe dovÄĽ
zen Ã©ho
ĠKon e
Ġn ou
ku jÃŃ
ĠÅĻÃŃ kal
Ġve lik
ĠO t
ĠS eznam
ĠF inan
ĠvÃ¡ p
ĠvÄĽtÅ¡ iny
Ġ9 9
Ġdr Å¾et
ĠpÅĻ enÃ¡
ĠnÄĽ Äįem
Ġhra du
ti k
6 8
ĠÅ¾ Ã¡n
u Å¾
nu to
ĠdÅ¯leÅ¾it Ã¡
ĠvzdÃ¡le nost
pe ra
Ġv ina
ĠC y
g ar
ĠpÅĻÃŃrodnÃŃ ch
Ġmili onu
logi ckÃ©
ĠmÄĽst em
ĠR ober
Je Å¡tÄĽ
di Äįe
Ġtu hle
ĠsÃŃ ti
ĠpÅĻij at
stÄĽ h
Ġzna menÃŃ
ni Äįku
Ġpo hledÃ¡
Ġsp Ã¡t
a cÃŃch
Ġpo pÅĻÃŃpadÄĽ
M Ã¡m
ĠV en
Ġvy ho
Ġpopis uje
ĠÅ¾en u
U L
Ġu vo
n nÃ½
ĠPro gram
Ġmistrov stvÃŃ
Ġnedosta tek
ĠV ar
ovan Ã½mi
Ġsouvis ÃŃ
c enÃ¡
ĠMÄĽ l
Ġstav bu
L u
ĠtÄĽm to
Ġfle xi
Ġarchi tekt
Ġstu peÅĪ
ĠvÃ½sled kem
z nÃŃch
Å¾ nou
ul l
ĠtÃ©m ata
Ġp lus
Ġkli enta
stou pila
ĠFran cie
Ġz hot
nu la
Ġkoste la
ĠÄįer nÃ½
Ġprou du
ĠÃºko ly
Ġk W
ĠobrÃ¡ z
ĠpotÃŃ Å¾e
Ġv it
Ġzu by
Ġhospo dÃ¡
Ġin te
ĠP L
ĠmÅ¯Å¾ ou
Ġuveden o
Ġzdrav Ã©
ĠlÃ¡ sku
Ġv stÅĻe
pomen u
Ġra kou
Ġza sa
ÅĪ a
ĠÄĮ SSD
ĠBla ck
Å¾ÃŃ ch
ĠpraÅ¾ skÃ©
Ġk rev
ĠvÄĽ dÄĽl
Ġbo je
Ġb li
Ġlid skÃ½ch
ĠorgÃ¡n Å¯
Ġosob nosti
Ġinternet ovÃ½ch
ĠpÅĻÃŃjem nÄĽ
Ġhy dra
ĠtÄĽ Å¡ÃŃm
Ġh Å¯
ĠJak mile
ĠplÃ¡n ovÃ¡nÃŃ
nost nÃŃ
ĠÅĻÃ¡d nÄĽ
ĠG ro
Ġbet on
Ġza platit
Ġho kej
ĠE d
Ġpo lÃŃ
Ġrekonstru kci
a ch
Ġ6 4
pome ÅĪte
n ovÃ½
ik i
ĠOst rav
ĠZ u
ĠztrÃ¡ ty
ĠOb sah
Ġpostup y
ĠzajÃŃmav Ã½ch
ĠC or
Ġzi sk
Ġv dÄĽ
Ġvyb ere
ĠPÅĻe s
Ġhud bu
as u
Ġkro ky
v Ã©m
ĠCh cete
ĠsnÄĽ hu
Pra ha
Ġne sku
ĠpÅĻesto Å¾e
Ġji mi
ĠÃº kon
bÃŃ rÃ¡
z ny
k ÅĻi
zem nÃŃ
ĠÅĻidi Äįe
Ġhodno tÄĽ
n skÃ¡
tu ru
Ġuve dla
Ġzmi ÅĪ
ĠPo Å¾ad
Ġk men
Ġkabe l
it ÃŃm
Ġsp lat
Ġprosto rÃ¡ch
ĠudÄĽla la
p Ã¡n
KaÅ¾ dÃ½
Ġminist r
d nÃ©ho
O C
ĠzÃ¡ sil
Ġob al
Ġo Å¾i
Ġva ÅĻenÃŃ
ĠTo hle
ĠI de
Ġma z
t kem
ĠHo dno
Ġ200 1
da ci
chÃ¡ze l
Ġsna Å¾il
Ġv in
rÃ¡l nÃŃho
D A
Ġjen Å¾e
ve ro
pa s
Ġs hromÃ¡
sk i
ĠnÄĽjak Ã½m
Ġpostup u
ĠzÃ¡ loÅ¾
Ġchy bu
Ġko sti
ck e
ĠzvlÃ¡ Å¡
Ġporaden stvÃŃ
Ġmuze a
ta mi
Ġmeto di
Ġk vÄĽ
Ġ Î
Ġobje vila
ĠDo konce
Ġch le
ĠB ri
ĠhrÃ¡ l
Ġv ze
Ġspl nÄĽnÃŃ
Ġpe vnÄĽ
ĠzÃ¡kaz nÃŃk
pe v
ĠnÃ¡pa dy
ĠdÄĽt stvÃŃ
ĠnabÃŃze jÃŃ
Ġa g
pa la
ĠDV D
Ġprou d
vÄĽdo mÃŃ
ĠvysvÄĽt luje
c tu
ĠZden ÄĽk
Ġdo dÃ¡nÃŃ
Ġknihov ny
ĠpÅĻi mÄĽÅĻ
ĠC hu
ĠlÃ¡ tka
Ġz ÅĻe
ĠvÄĽ nu
ĠHor nÃŃ
ĠzÅ¯ stÃ¡
Je stli
ĠukÃ¡ zat
Ġse tka
ĠprÃ¡ vnÃŃch
ĠnemÃ¡ me
ĠzaÄįÃŃ najÃŃ
ĠNa d
6 9
ova telem
ĠÄįt ver
ĠtrenÃ© r
ro d
Ġve Å¡ke
Ġli m
ã Ĥ
Ġvy hlÃŃ
Z e
ĠlÃ©ka ÅĻi
rov al
Ġs leÄį
ĠpÄĽk nÃ½
Ġd ÅĻÃŃ
Ġtradi ÄįnÄĽ
ĠW eb
Ġk art
ĠletoÅ¡ nÃŃm
Ġroz dÄĽle
Ġrodin nÃ©
lov al
ĠvÃ½ pla
Ġpovin nÃ©
Ġvele tr
Äı Ã¡
ast ro
le ka
ĠNe vÃŃm
Ġov lada
ĠnejvÄĽtÅ¡ÃŃ ch
ĠÃº sil
ĠzemÄĽdÄĽl stvÃŃ
ĠCÃŃ lem
lÃŃ Äį
Å¾ ba
va telem
Ġze p
pra vo
Ġko lÃ¡
ĠposlednÃŃ ho
Ġ4 3
s at
Ġvypl Ã½vÃ¡
Ġch lu
Ġnejob lÃŃb
ĠB al
rÃ¡ ty
ĠF in
ĠpÅĻÃŃsluÅ¡ nÃ©
Ġhy dro
ĠstÅĻe do
Ġrych lostÃŃ
ĠMo Å¾nost
nÃŃ ka
zu jeme
ĠA s
hra dnÃŃ
Ġz ÅĻej
li s
ĠnÄĽme ckÃ©
ĠtlaÄįÃŃ tka
Å¾ Äı
ĠÅĻedi tele
Ġkomp ak
Ġkon Ã¡nÃŃ
ĠS em
Ġrozhod ÄįÃŃ
Ġm lÃ½
Ġrozhov oru
ĠzmÄĽ nÃŃ
Ġpoz na
I K
ĠskvÄĽ lou
ĠSpo lu
Ġp lÃŃ
Ġturna je
ati ckÃ©
Ġvys lov
Ġnaz Ã½vÃ¡
Ġku n
ĠdruÅ¾ stva
Ġkole kti
h ovÃ½ch
ĠvyhledÃ¡ vÃ¡nÃŃ
Ġpenzi jnÃŃho
b rat
Ġodst ranit
ku l
Ġkoste l
ĠpapÃŃ ru
ĠCel kem
Ġotev ÅĻenÃŃ
Ġstro m
f it
v Å¡tÄĽ
my Å¡
s lou
ĠV ÃĿ
Ġpojist nÃ©
Ġvyso kÃ½m
Ġkontro l
Ġpoda ÅĻÃŃ
prav du
Ġdo hody
ĠvÃ½kon em
ĠJak Ã©
K rÃ¡
c on
Ġch ar
Ġrekla m
ro t
ĠspoÄįÃŃ vÃ¡
en Ã©m
Ġvyso kÃ½ch
ĠdÃŃ vky
ĠInter net
N ÄĽ
ĠlÃ© Äįeb
gu e
Ġjednot ka
c Ã¡t
ĠL it
Ġorgani za
lo w
stou pili
A n
Ġz kontro
li d
ĠmÃ© dia
ĠzÃ¡ zna
Ġdom nÃŃ
klo p
ĠvÃ½znam nÃ©
Ġprovo znÃŃ
ĠS MS
Ġrozhod nout
o od
Ġmaji tele
Ġrozhod ne
Ġtvor bÄĽ
Ġo sud
h Ã¡m
Ġmine rÃ¡lnÃŃ
Ġje t
Ġse kci
povÃŃ dÃ¡
ĠAnd re
Ġin spe
ĠpÅĻe stup
Ġzbra nÃŃ
Ġseku n
Ġsni Å¾uje
z nu
Å¡i lo
kov Ã½mi
Ġobje dnat
Ġpolov inu
Ġvo zy
Ġtvor by
ĠpÅĻe hlÃŃ
Ġsna Å¾it
ti ly
Ġzahra dnÃŃ
ĠA M
Ġmana gem
ĠpotÅĻeb ovat
vajÃŃcÃŃ ch
ĠL et
ĠzÃ¡ bÄĽ
r nu
Ĥ ¬
Ġdo bÃŃ
ĠzÃ¡ch ran
ĠÄįi stÃŃ
s chop
Ġpro s
Ġpenzi jnÃŃ
Ġna Å¡li
v inÄĽ
Ġz le
Ġma p
znÃ¡m ka
vo kÃ¡
ĠlÃ©Äį by
Ã© rÅ¯
Ġhra nÃŃ
ĠÅ¡ko lÃ¡ch
Ġzna Äįek
ĠL in
Ġtelevi znÃŃ
ga zÃŃ
ĠB lue
Ġk ato
ĠÃºto ku
Ġs rovnÃ¡
ĠO bÄĽ
ĠÃºva zek
Ġkri ze
Ġmech anis
V o
ĠÃº na
ĠpÅĻiprav ili
ĠnÃ¡ vod
Ġstaveb nÃŃho
is mu
ĠpÅĻedstav i
ĠvÃ½ro bek
ĠpÅĻÃŃ mÃ©
Ġti sku
ĠzÃ¡vo dy
si on
Ġpokro Äįil
J a
Ġsoupe ÅĻe
Ġpr ov
stup nÃ©
Ġzku sit
ĠÅ¡ per
ĠpÅĻi ve
ĠzÃŃskÃ¡ te
Ġkonkur ence
Ġcest ovÃ¡nÃŃ
Ġzji Å¡tÄĽ
Ġu prch
prÃ¡ vnÄĽ
kaÅ¾ dÃ©
ĠNej vyÅ¡Å¡ÃŃ
ĠvÃ½rob nÃŃ
ĠtÃ½ dnÄĽ
Ġrozhod ovÃ¡nÃŃ
zd rav
jak o
er te
g al
Ġseri Ã¡l
ĠÃºs por
ĠÅĻÃŃ m
tÃŃ n
Ġslu ch
Ġpod loÅ¾
Ġdokumen tu
din a
ĠumoÅ¾ ÅĪujÃŃ
ĠNi kdy
ĠMiro slav
ĠÄįÃŃ sel
Ġli terÃ¡
znÃ¡ mÄĽ
Ġi kon
su ng
an Å¯
tÅĻe ba
A B
ĠzÃ¡ lo
ĠÃºvÄĽ r
ĠÄį o
ĠPro b
Na bÃŃzÃŃme
ĠMi lan
Ġchy ba
Ġot ce
ĠnechtÄĽ l
ĠK S
iti vnÃŃ
Ġkon tex
t le
Ġod rÅ¯
Ġokol nostÃŃ
ĠdesÃŃ tek
Ġmod lit
Ġnezna menÃ¡
ĠEU R
ĠpÅĻ ita
ĠnabÃŃ dne
ĠpÅĻi dÃ¡me
ce k
ĠmlÃ© ka
ĠNe u
pou Å¡tÄĽ
Ġobcho dnÃŃho
Ġza bra
Ġnem lu
ĠVel kÃ¡
Ġu ÄįÃŃ
ali z
Ġzji Å¡tÄĽnÃŃ
** *
ĠpoÅĻÃ¡ dÃ¡
Ġzab ezpeÄį
ĠzÃ¡ pis
Ġleh kÃ©
ĠstÃ¡ tnÃŃho
st anou
ĠÄįerv enÃ¡
Å¾it Ã©
Ġneby li
Ġne ut
b Å¯
ĠpoÄįÃŃ tÃ¡
ĠpÅĻÃŃspÄĽ vky
Ġz jednodu
g h
Ġturna j
ĠsÃ©ri i
Ġ ÃŃ
Ġhospoda ÅĻenÃŃ
Ġovo c
ĠN AT
Ġm ra
Ġti p
Ã¡ me
Å¡en Ã©ho
ĠpÅ¯j Äįku
ĠpÅĻÃŃbÄĽ hy
ĠdÃŃ lu
ĠmÃŃ ÅĻe
x nÃŃ
Ġtajem stvÃŃ
Ġtane ÄįnÃŃ
Ġku ÅĻe
Ġcest ov
Ġjak Ã©m
Ġs je
ĠP ark
Å¾a dujeme
d cem
ra na
Ġskon ÄįenÃŃ
ĠpÅĻÃŃ kaz
Ġk ÅĻ
ak e
dÃ¡vÃ¡ me
prÃ¡ vnÃŃ
il la
Ġopti mali
ĠorgÃ¡ nu
5 8
EN T
Ġvliv em
Ġpopu lÃ¡rnÃŃ
Ġs l
ĠKa teÅĻ
ĠjÃŃ st
ĠV l
na jÃŃcÃŃ
Ġtex ty
Ġma py
Ġpodob nÃ½
Ġnes mysl
Ġtero ri
mÃ¡ la
ĠEx ist
ÅĻen Ã©ho
povÄĽ Äı
Ġm Ã½m
Ġdu Å¡i
ĠneÅ¾ Ã¡dou
Ġnepo tÅĻeb
ĠpÅĻÃŃslu Å¡nÃŃ
zat ÃŃm
Ġpoko Å¾ku
ri a
ĠzvÃ½ Å¡it
ĠL ze
Ġpodla hy
ĠsklÃ¡ dÃ¡
ĠÅ¾i jÃŃ
d ani
Ġ4 1
Ġp sÅ¯
Ġuka za
ov ny
lou Å¡Å¥
ĠnÃ¡byt ku
ĠR ov
Ġbudouc nost
on line
ĠTak y
Ġt at
ĠodpovÄĽ dnost
ĠJe dnou
ĠM B
ĠRi ch
ĠfÃ¡ ze
mÄĽ sÃŃ
Ġkontro la
ĠÃºÄįin nosti
sa li
Ġdove dnosti
Å¡ÃŃ te
Ġod dÄĽle
ĠpÅĻedstav ÃŃ
Ġslou Å¾it
ĠnÃ¡v ratu
sk ovÃ©
ĠmasÃ¡ Å¾e
k ni
Ġve ter
Ġod va
ka cÃŃ
ĠÄįlovÄĽ ku
Ġin tera
ĠvysÃŃ lÃ¡nÃŃ
Ġku cha
v te
ĠO DS
ĠSe x
Ġlo dÃŃ
ĠPav la
Ġcuk r
ĠkaÅ¾do dennÃŃ
ĠpÅĻed loÅ¾
ĠVÅ¾dy Å¥
Ġdva ceti
ĠI van
Ġpozem kÅ¯
Ġbon us
Ġob e
Ġk nÄĽ
Ġj du
K ar
y s
ĠÅĻe Äį
p li
ĠO l
m Ã¡m
Ġsamostat nÃ©
Ġskon Äįila
ĠÅ¾ivot nost
Ġsouhla su
ĠStÅĻe dnÃŃ
ĠprÅ¯ bÄĽh
Ġpovo lÃ¡nÃŃ
ova ce
Ġnepo d
b let
Ġneu mÃŃ
ĠvytÃ¡ pÄĽnÃŃ
Ġzdro jem
Ġzku Å¡e
ĠbÄĽ Å¾ÃŃ
Ġs Å¯l
?? ?
Ġzji stil
z dÃŃ
Ġvy na
ĠE le
I E
Ġbez pro
ĠÅ¾ il
ĠDÅ¯ leÅ¾it
ĠVÃ¡cla va
Ġ5 9
Ġko ÄįÃ¡
Ġtep lÃ©
Ġalkoho lu
ĠZ ÃŃ
ova Äįe
Ġstrate gie
Ġpro na
Ġchu ti
Ġsil nÄĽjÅ¡ÃŃ
Ġe uro
Ġelegan tnÃŃ
ĠmÄĽsÃŃ ÄįnÃŃ
Ġparla mentu
ĠT Ã½
ĠstarÅ¡ÃŃ ch
ĠzÅ¯ stal
ĠspotÅĻebi tel
ĠÃºspÄĽ chu
ĠNe po
Å¯Å¾ eme
ĠY ou
Ġbez drÃ¡t
ĠpouÅ¾it ÃŃm
ĠprÅ¯ myslov
Ġkonce p
dnÄĽ jÅ¡ÃŃ
A by
U B
Ġjak mile
Ġmysle t
e ster
Ġna Å¡ÃŃm
ĠKar la
Ġre feren
ĠvÄĽ k
Ġnej rych
ce nÃŃm
fi gu
Ġsexu Ã¡lnÃŃ
Ġbudouc nu
Ġplo Å¡e
ĠS r
Ġteori e
Ġorganis mu
nÃŃ n
ĠobÄĽ d
ko mp
Ġzne Äįi
ĠpoÄįÃŃta Äįi
Ġz vÄĽd
Ġ ).
Ġsoukro mÃŃ
Ġaktu Ã¡lnÄĽ
is mus
ĠD at
Ġzi p
ĠchybÄĽ t
or em
Ġstrav y
Ġple men
ĠÅ¡ ampi
ĠJin dÅĻi
ĠpÅ¯ dy
Ġsta bilnÃŃ
Ġd er
y er
Ġa stro
sti cky
Å¾ÃŃ vÃ¡nÃŃ
5 1
Ġinten zi
ĠvÃ½cho dnÃŃ
mysle t
Ġkon ver
ĠZ dra
ĠS V
li ny
Ġpol Å¡
Ġva dy
ĠpÅĻedcho zÃŃch
ĠÅ¡ k
Ġpor tÃ¡
ĠM c
ĠdodÃ¡ vky
Ġpi va
tu jeme
Ġu ch
vit a
ĠTo m
Ġekonomi ckÃ©
ĠS en
5 9
Ġmi lÃ¡
Ġza sÃ¡
ĠnÃ¡dob ÃŃ
Ġra du
ĠV r
ĠtrÃ©nin ku
Ġj arnÃŃ
ĠzÃ¡ ÅĻenÃŃ
is ÃŃ
Ġla bora
Ġoce li
ĠÃºvÄĽ ru
ĠNÄĽmec ka
Ġvy jde
as a
ĠpoÄįÃŃ tat
ĠP Å¯j
Ġn it
dÃ¡ rnÃŃ
ĠprodÃ¡vajÃŃcÃŃ ho
Ġkou pi
p p
5 6
Ġpohod lnÃ©
Ġdro g
Ġpot kÃ¡
ĠhÅĻi Å¡ti
Ġcy klo
Ġo ka
ĠK or
y e
t nÃ©
Ġrad Å¡i
K romÄĽ
kti ve
av e
ĠzÃ¡kon y
v rat
ÅĻ ovat
Ġps al
N enÃŃ
ĠzÃ¡leÅ¾ito st
Ġrov novÃ¡
ĠkrÃ¡lov stvÃŃ
pu stÃŃ
ĠvyuÅ¾ÃŃ vÃ¡nÃŃ
ĠK de
ruh Ã©
Ġrychle ji
kov y
ĠÅ¾i dov
Ġstro my
tÃ¡ Å¾
ĠSpe ci
me Äįek
Ġrych lÃ½
ÅĻe k
ĠP ÅĻitom
ĠTento krÃ¡t
ĠmanÅ¾el stvÃŃ
Ġproje v
ĠudÄĽla li
Å¡tÄĽ m
Ġneexist uje
ĠpÅĻi vÃŃ
ĠDÄĽ t
ĠVaÅ¡i ch
Ġsouhla sÃŃ
Ġle vÃ©
s pon
Ġfil t
Ġby s
IC K
E P
N ES
h en
ĠNÄĽk teÅĻÃŃ
ĠzÃŃsk ali
M P
cen Ã½ch
ĠznÃ¡ mÃ¡
Ġty hle
Ġstro mÅ¯
Ġpart nera
Ġkr mi
ĠdoporuÄį uje
Ġexist ence
Ġsta rost
Ġsoupe ÅĻ
Ġobrov skÃ©
chÃ¡ze lo
Ġsch val
ĠÄĮa sto
h na
ĠkrÃ¡t kodob
Ġnej lepÅ¡ÃŃm
Ġhodin ky
Ġza mi
Ġko pÃŃ
ĠB ÅĻe
lov ar
Ġru ÄįnÄĽ
Å¾ ce
Ġsvobo dy
ĠzaÄį nou
Ġkalho ty
cÃŃ mi
ĠvybÃŃ rat
ĠspoleÄįen stvÃŃ
ĠF u
Ġjez dit
ĠD y
N Äļ
Ġry t
ĠrÃ¡ na
den ce
Ġsa u
Ġboj ovat
ĠS m
t an
Ġne tra
ĠobrÃ¡ zku
nÃ¡ l
Ġbav it
k tech
Ġus nad
Ġspo ÅĻitel
Ġob drÅ¾ÃŃ
log y
ĠI r
Ġdiva dlo
ĠÄįe skou
do pÃ¡dnÄĽ
Ġos vÄĽ
ma ce
Ġpo cti
Ġsmlou vÄĽ
dÄĽli l
Å¾ ily
Ġvy hla
ĠplÃ¡ ny
Ġnor mÃ¡lnÄĽ
de vÅ¡ÃŃm
Ã¡t ko
ste ro
M L
Å¾ nÄĽjÅ¡ÃŃ
ĠÅĻÃŃ dit
ho n
soci ace
v ova
Ġrecen ze
ov iny
Ã¸ ÃŃ
Ġp alÃ¡
ÅĻÃŃ k
ni Å¾Å¡ÃŃ
ĠarmÃ¡ dy
Ġsoubor Å¯
v iny
Ġuve de
ĠKarlov y
ĠT OP
van ge
ĠloÅ¾ nice
pu stit
av ÃŃ
ĠdÅ¯leÅ¾it Ã½
Ġ Ã¡
pu l
Ġmat ky
P ou
Ġv ÅĻe
ĠB lan
tel nÃ½m
Ġni Äįem
d nostÃŃ
ĠÅł vÃ½car
ĠnÃ¡dher nÃ©
ĠkaÅ¾d Ã½m
ĠL es
tnÃŃ k
ĠK Ã¡
Ġho stÅ¯
ĠÅ¡pi Äį
Ġinstala ci
Ġbud ovÄĽ
Ġpos Ã¡d
ĠV lt
qu a
ĠvyuÅ¾ÃŃ vajÃŃ
ĠD ou
ÄĮ R
Ġna f
ĠðŁ ĺ
pi ce
ĠmanaÅ¾e r
Ġdu chov
Ġagen tury
j ov
Ġta hle
c an
t nÄĽjÅ¡ÃŃ
Ġvstup nÃŃ
ĠÅł ÃŃ
ĠpÅĻe kro
Ġdoru ÄįenÃŃ
al up
ĠzÃ¡kaznÃŃ kÅ¯m
Ġ5 8
Ġd ou
je la
sÃ¡ no
Ġmuze um
Ġmoment Ã¡lnÄĽ
Ã¡l ovÃ©
ÅĻ skÃ©ho
M ezi
dÄĽ lat
Ġhla vi
Ġfung ovÃ¡nÃŃ
ujÃŃcÃŃ m
Ġo Å¡etÅĻenÃŃ
Ġvelk Ã©m
Ġstaro sti
Ġdobrodru Å¾stvÃŃ
bo li
N Ãģ
tel nost
ĠnechÃ¡ me
ĠÄįi st
k rÃ½
av Ã©
ot h
Å¾e bnÃŃ
Ġd Ã½
ĠÄįi sto
K dy
Ġnemoc nici
Ġpoplat ky
ĠkrÃ¡s nou
ĠvÃ½Å¡ ce
Ġinteg rov
Ġsy mpati
di um
nÄĽ ji
D R
Ġotev ÅĻenÃ©
ĠTer ez
Ġn en
Ġs hod
Ġdoda vatele
Ġpoko jÅ¯
ĠMinister stvo
Ġvy hrÃ¡l
Ġde stina
Ġener giÃŃ
I ST
Ġteplo tu
Ġod stoupenÃŃ
ĠvÄĽtÅ¡ÃŃ ch
Ġosob ÄĽ
Ġob n
Ġnaz Ã½
Ġsamot nÃ½
ĠzpÄĽ vÃ¡
ĠsnÃŃ ma
Ġ% ,
Ġrychle jÅ¡ÃŃ
Ġ16 0
Ġz ouf
Ġbaz Ã©
æ ľ
ĠOstra vÄĽ
Ġspo ko
mp er
Ġu m
ĠE ner
Ġtu zem
ĠÅĻe Å¡enÃŃm
Ġz ato
Ġmi x
Ġ6 9
stÃ¡ nÃŃ
ĠzaÄį Ã¡tkem
d lou
ĠÅ¡iro kou
Ġvybav en
Ġcuk rov
Ġmet ro
ĠÃºsil ÃŃ
et ro
Ġko Äįi
Ġje st
Ġk em
ĠnejnovÄĽ jÅ¡ÃŃ
Ġauto ra
byt ovÃ¡nÃŃ
ĠzakÃ¡ z
ÄįÃŃ k
dÄĽla l
Ġf la
Ġe dit
ĠLiber ec
Ġde ch
Ġkom peten
Ġstudi ÃŃ
j dou
Ġo c
t ar
fer ence
Ġda ÅĻÃŃ
Ġpochopi telnÄĽ
Ġce lek
Ġc on
ĠÄĮ ÃŃm
le ny
ĠAn to
ĠvÃ½rob cÅ¯
Å¡ Ã¡
ji la
t ovÃ¡
ĠuÄįi tele
Ġza dÃ¡nÃŃ
Na bÃŃ
Ġkdyby ch
ĠJe likoÅ¾
ĠznÃ¡m Ã½ch
Ġnavr h
Ġpar f
Ġh vÄĽzd
Ġhra jÃŃ
Ġne zi
Ġ lat
ch ari
ĠpamÃ¡t ky
g uje
Ġh ej
Ġpodstat nÄĽ
ĠukÃ¡ zal
Ġlet ou
Ġkrat Å¡ÃŃ
Ġk res
Ġodbor nÃ½ch
Ġ, -
ation al
Ġuply nu
Ġne ho
ro mi
Ġher nÃŃ
Ġky se
dÃ¡ no
ĠÅ¾ivo tem
Ġsoukro mÃ©
Ġuniverz ity
ĠpÅĻij dou
Ġzda leka
ÄįtÄĽ te
ĠÅ¡ir Å¡ÃŃ
ĠoprÃ¡vnÄĽ nÃŃ
ĠpomÃ¡ hajÃŃ
Ġtu ne
enÃ¡ ct
Ġkategori ÃŃ
Ġ7 00
X X
m ani
Ġ9 00
Ġsever nÃŃ
stÄĽ jÅ¡ÃŃ
c ovat
Ġkap sy
ĠdÅĻevÄĽ nÃ©
Å¾i lo
ĠÄįe kal
V ÃŃce
ĠMicro soft
Å¾en Ã©ho
ĠK lu
Ġfrek ven
Ġdoporu Äįit
ĠskvÄĽ lÃ¡
d va
Ġenerge tickÃ©
ĠsnÃŃ Å¾it
Ġpo stava
ĠzÃ¡ ÅĻi
ĠpÅĻirozen ÄĽ
ĠplÃ¡ Å¾e
Ġsez Ã³ny
ha m
ĠdÄĽla l
ĠJ ir
5 4
ĠW al
ĠPo t
ĠsmÄĽ si
Ġdopo sud
bi ce
Ġpre sti
r nou
ĠzÃ¡ko nÃŃku
: -)
Ġnes chop
Ġb ron
S ta
l ovÃ¡nÃŃ
ĠdÄĽlÃ¡ m
ĠSy stÃ©m
Ġ14 0
Ġodol nost
ĠtÃ½m y
Ġjedno rÃ¡z
Ġw ork
ĠH ned
Ġin ze
ĠpÅĻedstav ujÃŃ
kou z
ĠJiÅĻÃŃ ho
pi lo
Ġo pÄĽ
% .
to k
Ġre por
Ġfor mÃ¡t
ĠprovÃ¡ dÄĽnÃŃ
ĠzajÃŃmav Ã¡
blÃŃ Å¾
Ġstan ovenÃŃ
ĠV Å¯
Ġsk Ã³
6 7
ce ch
Ġuniverz Ã¡lnÃŃ
ĠA V
Ġkvali tnÃŃch
Ġdo pa
Ġosob ou
Ġp ani
li ÃŃ
Ġsitu acÃŃ
ĠItÃ¡ lie
Ġuveden y
ĠLukÃ¡ Å¡
ĠspoleÄįen skÃ©
zÃ¡ no
Ġvlast nostÃŃ
men tÅ¯
Ġza mÃŃ
ĠÅ¡i kov
F o
se nÃŃ
Ġinvesti ÄįnÃŃ
Ġnaj deme
Ġdve ÅĻ
Ġp lnÃŃ
ĠkÃ¡ men
Je dno
Ġzakou pit
ka ly
Ġobsah ovat
Ġna ÅĻÃŃ
ĠvÄĽ zenÃŃ
Ġchla p
Ġho lka
Ġpe Äįi
Ã³ nÅ¯
ĠscÃ© ny
Ġdo pis
je cÃŃ
ĠVel kÃ½
Ġokra ji
t ri
ĠpoÅ¾ad ovanÃ©
ĠnÄĽ ÄįÃŃm
ĠveÅĻej nÄĽ
Ġatra ktivnÃŃ
ĠdÄĽ nÃŃ
ĠurÄį enÃ½
Ġpro zra
Ġmo st
ĠNa Å¡tÄĽstÃŃ
Ġspeci Ã¡lnÄĽ
ĠA m
ĠP Ã¡n
ĠpÅĻÃŃ ru
Ã³ nu
Sa mo
Ġamat Ã©r
ĠBr it
Ġstaveb nÃŃch
mÃŃ nky
ĠCo Å¾
stra ce
mÃŃ stÄĽ
Äį o
Ġti py
Ġobcho dÄĽ
ĠvytvÃ¡ÅĻe t
mÄĽr nÃ©
Ġgym nÃ¡zi
ĠvyÅĻe Å¡it
h ovÃ¡
ĠvÃ½da je
5 2
Ġvybra nÃ©
Ġok re
Ġnej krÃ¡
Ġ5 4
Ġob avy
Ġsex y
ĠÃºse ku
Ġ5 2
Ġko ÅĻen
Ġdobr Ã©ho
Ġmo zku
Ġbo x
Ġk Äį
ste l
ĠznÃ¡ mo
Ġinform ovat
R a
Ġex per
Ġpocho penÃŃ
Ġsti mu
org ani
Ġz rych
ĠÄĮ lovÄĽk
ĠBabi Å¡
Ġpoz oru
Ġjmen uje
Ñ ĥ
ĠzÃ¡ kro
Ġo ÅĻe
ko s
ĠG ar
ĠvÃ½kon y
p an
Ø §
ĠspÃ¡n ku
Ġin zer
Ġ $
Ġby tÄĽ
ĠVÃ¡ mi
d on
Po slednÃŃ
Ġtelefoni cky
ĠÅ¡ u
Ġpou hÃ½ch
Ġvy Äįi
Ġvej ce
ĠZ ak
ĠzprÃ¡ v
gin Ã¡lnÃŃ
n iny
hlÃ© dnutÃŃ
Ġli gy
Ġze Äı
Ġz ani
Ġstra nou
Ġpravidel nÃ©
ĠÅ¡kol nÃŃho
Ġprac ujÃŃ
ĠL en
Ġkri min
ĠV Ã½ch
ĠcÃŃrk ve
ĠKaÅ¾ dÃ¡
Ġbal kon
Ġjednodu chÃ¡
Ġpo rovnÃ¡
Ġspo ÅĻenÃŃ
Ġsmlu vnÃŃ
Ġb rÃ¡nÃŃ
ji li
ĠW a
Ġcharak teru
pu Å¡tÄĽ
Ġch iru
5 00
d ovÃ½
Ġsprav edl
Ġnovin ky
Ġpod at
Ġminister stva
d ily
ne sl
Ġmno zÃŃ
ĠdomÃ¡ cÃŃm
re am
ha li
Ġpodni k
ĠPro jekt
ĠprohlÃ¡ sil
en tnÃŃ
Ġho rÃ¡ch
Å¡ ovÃ¡
Ġdeta ily
ĠoÄįekÃ¡ vat
ĠvysÃŃ la
Ġg o
sti ku
ĠpÅĻem ÄĽ
Ġneo me
ell ness
ĠpronÃ¡ jem
Ġpoji Å¡tÄĽ
ĠzÃ¡pa se
ĠdÅ¯vo dy
Ġtechnologi i
ĠpÅĻÃŃprav ek
tÃ¡ n
Ġpen is
or ld
Ġvol bÃ¡ch
Ġti sko
Å¾ nÃŃch
Ġprofe sor
rÅ¯ m
Ġmlad Ã½
Ġpre vence
ĠPro dÃ¡vajÃŃcÃŃ
Ġok ruh
ri pt
ĠzÃ¡Å¾it ky
ĠpÅĻÃŃ vÄĽ
Ġpo slu
r it
ĠnÃ¡ klad
v last
5 3
Ġvol no
ĠA C
ĠprÅ¯vod ce
Ġzbav it
Ġd rÃ¡Å¾
ĠnepÅĻe d
Ġbud ova
stup itel
ĠPrÃ¡ ce
Ġtradi ce
ĠdÄĽj in
stan dar
ĠdÃ¡ me
ĠveÄįe ÅĻi
ĠÃºÅ¾as nÃ©
Ġpocho pit
Ġnov inÃ¡
Ġporo zu
ov kou
ĠvÄĽt Å¡ÃŃm
Ġnav zÃ¡jem
Ġpropa ga
z ovanÃ½
ku s
ĠpÅĻÃŃbu z
Ġrozhov or
ĠOd bor
Ġby dlÃŃ
ĠjakÃ© koli
ĠnÃ¡z vu
ĠuÅ¾ÃŃ t
in ovÃ½
ĠÃºÄį inek
Ġko ali
g n
Ġvol bou
k er
ĠbrÃ½ le
av Ã½
Å¡ nÃ½ch
ĠvytvÃ¡ ÅĻenÃŃ
Ġopak ovanÄĽ
Ġku lat
Ġminul Ã½
Ġs dÄĽlenÃŃ
ĠTu to
Ġe ste
Ġpo ÄįÃ¡
ĠSpoj enÃ½ch
ĠIn di
ĠpÅĻÃŃ Å¡tÄĽ
Ġtra sy
lo m
Ġpr sty
ĠnÃ¡vr hy
Ġves nice
Ġte sty
Ġs boru
ĠlÃ¡ t
ĠnejrÅ¯z nÄĽjÅ¡ÃŃ
ĠkÃ¡ vy
Ġstej nÃ©m
Ġbo ku
ĠDvo ÅĻÃ¡
ĠstÅĻe dnÃŃch
ĠZ prÃ¡
ĠbÄĽ Å¾e
ti on
Å¡ to
Ġhol Äįi
log ovÃ©
a no
N Ãī
Ġobje kty
Ġ4 7
ok i
ne jte
Ġtr vÃ¡nÃŃ
ĠO ch
ĠkrÃ¡ l
ĠhledÃ¡ te
b rÃ¡
Ġna instal
ĠS Ã½
ver s
ĠG ala
it h
ĠMa Äıar
ĠÃº vodnÃŃ
ĠkomentÃ¡ ÅĻÅ¯
Ġch vÃ¡
Ġu vÃ©st
Ġvozi dlo
poÄį Ã¡tku
Ġ; )
Ġobli Äįej
Ġposla l
ĠFran cii
ĠA P
ĠÄĮe skou
ĠÃº tu
ĠZ emi
ma s
Ġneban kovnÃŃ
v ÄįetnÄĽ
K do
Ġhmo ty
ĠDi va
ĠvÄĽ ÅĻÃŃm
zd ory
ĠprobÄĽ hla
Ġob zvlÃ¡
ĠhÅĻ bit
Ġpo sto
Ġtu r
Ġstani ci
ĠsvÃŃ ti
Ġmili ony
Ġsportov nÃŃch
ĠotÃ¡ zek
es lo
bi e
ĠR us
ĠpÅĻÃŃpa dy
Ġvy ÅĻa
e le
200 7
Ġsamo zÅĻej
ĠkupujÃŃcÃŃ ho
Ġtra Å¥
D E
ĠvysvÄĽt lit
Ġza veden
zen Ã½m
ĠnÃ¡ ÅĻadÃŃ
ĠskuteÄį nÃ©
nÄĽ me
ĠbÃ½ vajÃŃ
Å¡ tej
Ġtak z
an tnÃŃ
Ġ198 9
sy p
Å¡ enÄĽ
v ory
ĠJi Å¾nÃŃ
ĠnÄĽho Å¾
âĢ¦ .
Ġbla ho
Ġ Å¾ÃŃ
Ġinstitu ce
ĠSloven sku
Ġzob razÃŃ
Ġzach ovÃ¡nÃŃ
ĠC O
Ġhistori ckÃ½ch
Ġdo stav
vÃ½ mi
ĠuÅ¾i teÄį
h tt
Ġosob nost
ĠbÃŃ lÃ½
ĠV Y
Ġsr dci
Ġsamot nÃ©ho
Ġdo poledne
Ġjedin Ã½m
Ġla vi
Ġhlu b
Ġd anÃ½
ĠoprÃ¡vnÄĽ n
ĠzaloÅ¾ ena
ĠS al
Ġpot ru
Ġu my
s prÃ¡
Ġtri Äįko
ĠÄįe st
Ġdota zy
ĠuÅ¾i vatelÃ©
Ġod padu
Ġstra nÃ¡ch
Ġhru b
z aly
Ġstanov enÃ©
Ġvy dr
Ġsa da
U N
6 3
Ġvy ÅĻÃŃ
Ġve dl
ĠÄįe kajÃŃ
Ġpr ince
Ġmu sli
ĠformulÃ¡ ÅĻe
gra mu
jez dy
val u
Ġkatast ro
Ġbo t
ĠÅĻe Äįi
Ġne ve
Ġd anÃ©ho
Ġnapo sledy
mot nost
S y
le nÃ©ho
Ġporo du
for mati
Ġne Äįek
Ġhor m
rÃ¡l nÃŃch
Ġban kovnÃŃ
ce st
ment Ã¡lnÃŃ
ĠvÃ½ poÄį
Ġpr im
Ġzapo jenÃŃ
ĠH rÃ¡
hu b
Ġry by
Ġmo z
Ġob vinÄĽ
ĠnÃ¡ vy
ĠlÃ©Äį bÄĽ
eri e
Ġdo klad
plat ou
ĠO rgani
I O
Ġdop rovo
Ġmeto da
S A
ok ni
ĠIS O
ĠukÃ¡ Å¾e
n ing
Ġjem nÄĽ
ps anÃ©
is a
Å¡Å¥ ast
Ġnej enom
Ġa li
ĠnÃ¡vÅ¡tÄĽ vÄĽ
Ġo mlu
Ġzat Ã¡
lo nu
Ġkomp ati
Ġs bÄĽr
Ġno Å¡enÃŃ
Ġza te
Ġak ÄįnÃŃ
Ġzpravoda j
ĠÅĻe cko
tÃŃ me
Ġmoto cy
ĠvÃ½ ta
men tace
s eni
ĠA dam
ĠM or
Ġplo chu
ĠpÃ¸ ed
Z atÃŃm
Ġle snÃŃ
Ġpove dlo
Ġst res
w ard
Ġho mo
ĠdÃ© lky
d ba
Ġk lad
Ġlokali tÄĽ
Ġfilo zo
Ġz bÃ½
Pro Äį
8 3
ran ce
Ġvy stÅĻÃŃ
ĠRu sko
Äį ovat
ĠÅĻÃŃ kajÃŃ
Ġkraj iny
let Ã©ho
ĠpÅĻiprav en
Ġle vnÃ©
ĠÃºto k
ĠJedno du
Po pis
Ġkape la
Ġinten z
Ġdo zor
Ġle se
Ġprac oval
Å¾ nÃ©ho
ĠsnÄĽ mov
Ġbran ky
Ġb ene
ĠstÅĻe dnÄĽ
lu jeme
d ge
ĠpracovnÃŃ ci
ĠNej vÄĽtÅ¡ÃŃ
sle nÃŃ
rob ce
Ãģ L
van Ã©ho
Ġprodlou Å¾enÃŃ
ĠodvÄĽt vÃŃ
Ġe gypt
Ġstaro sta
ĠD ouf
Ġvari anta
ĠmlÃ¡de Å¾
t ovat
rÃ¡ ku
Ġpoliti ka
Ġrecep ty
t ÅĻÃŃ
ĠM UDr
Ġoko lnÃŃ
Ġju ni
ĠzÃ¡kla dnÃŃm
rov nat
ĠmÃ©di ÃŃ
ĠS p
ĠJ as
cho zÃŃ
ĠOr li
ĠT re
Äı me
Å¾i jte
Ġde jte
Ġli stÅ¯
ĠU K
f Ã¡
ĠÅ¾e le
ĠNez a
dÄĽ nÃ©
ĠproblÃ©m em
ĠtrÃ©nin k
di cÃŃ
ĠvÃ½bor nÄĽ
ĠPa ÅĻÃŃ
Ġminul Ã½ch
ĠNej lepÅ¡ÃŃ
Ġ13 0
vo dÅ¯
ĠpÅĻedstav u
6 1
ĠsociÃ¡lnÃŃ ho
M e
ĠNÄĽmec ko
Ġjem nÃ©
Ġpod nÄĽ
jÃŃÅ¾ dÃŃ
ĠMa rek
ĠpÅĻiprav uje
Ġpo tÃ¡
ĠKo mi
Ġzahra da
Ġze lenÃ¡
Ġobu v
ĠneÃº spÄĽ
ĠlÃŃ to
ĠzpÅ¯sob i
Ġno sit
je de
Ġvy Å¾ad
mu je
ĠPl zni
Ġuvi dÃŃte
a Å¾
ĠokamÅ¾i k
Ġdce ra
Ġnej horÅ¡ÃŃ
Ġmoder ni
Ġled nu
âĢľ )
Ġdiva delnÃŃ
Ġpro pojenÃŃ
Ġbav lna
ĠbÃ½val Ã½
ĠnÃ¡ ladu
Ġo kraj
ĠzÃ¡ me
ĠH ou
Ġpali va
Ġur ÄįenÃŃ
Ġtom hle
ĠnÃ¡s ilÃŃ
y a
Ġva jÃŃ
ĠCh ri
Ġpoz drav
pe u
Ġpro hlÃ©dnout
Ġdost anou
Ġno sÃŃ
Ġhodin ÄĽ
Ġdispon uje
ĠmimoÅĻÃ¡d nÄĽ
ĠBudÄĽj ovice
ĠP lat
Ġkvali tnÃŃho
ĠT ÅĻÃŃ
ĠpÅĻedmÄĽ tem
ĠW ar
Ġli stu
A si
Ġroz man
ĠpÅĻekva p
ĠotÃ¡ zkou
MÃ¡ te
ĠM en
Ġp asi
ol d
ĠmÄĽ stech
ĠpoÄį tem
T P
Ġschop nostÃŃ
Ġplat for
âĢ ĺ
sa u
Ġnech te
ĠbezpeÄį nÃ©
Ġhla sÅ¯
Ġby dle
Ġpla tebnÃŃ
Ġvz bu
Ġne chala
nÄĽ nÃ©ho
ĠhospodÃ¡ÅĻ stvÃŃ
T i
Ġstej nÃ¡
ĠvÃ½ stava
ĠI C
Å¾ Ã¡k
mÄĽ l
ĠÃº st
ĠÄĮ i
Ġare Ã¡l
ĠpÅĻi pra
Ġtest ovÃ¡nÃŃ
ck er
Ġter mo
Ġne Å¡lo
stÃ¡ ch
ĠNi kdo
Ġ Å¡et
g no
ĠSam sung
ito st
ĠmÄĽsÃŃ ÄįnÄĽ
ak ce
ĠpÅĻi padÃ¡
sle z
ĠsnaÅ¾ÃŃ m
Ġdlouhodob Ã©
ĠzamÄĽstna vatele
Ġc Ã©
Ġne ji
ĠS ice
Ġameri ckÃ½ch
Ġroz voji
Ġhovo ÅĻÃŃ
in ovÃ¡
Ġod pole
Ġnes ly
Ġobje dna
Ġrekla my
ĠKo mu
Ġnaho ÅĻe
ĠpÅĻÃŃtom nost
ĠR es
hl Ã½
8 2
Ġcel kovÃ½
Ġzazna menÃ¡
6 2
Ġbu ÅĪky
8 4
k de
Ġu vÃŃ
ut nat
Ġch alup
ĠH Ã¡
Ġvedle jÅ¡ÃŃ
k ly
liv ou
Ġho riz
et r
Ġob vodu
k k
ĠSe d
ĠbÃ¡ zi
mÃ½ Å¡
Ġkonfer enci
Ġlo Å¾i
Ġho sty
ĠU her
rob lÃ©m
Ġpit ÃŃ
Ġza m
ĠvÅ¯ le
Ġo m
ĠÃºspÄĽÅ¡ nÃ©
Ġsal Ã¡t
ĠkomentÃ¡ ÅĻe
Ġse g
Ġsymbo li
st vem
re d
P O
ĠM A
ĠÃº pravu
ĠpÅĻÃŃ lo
va ri
ĠnÃ¡po je
ĠvzÃ¡jem nÄĽ
ĠnÃ¡vÅ¡tÄĽ vy
c eno
Ġpopu lace
ĠMo je
Ġz bo
sÃŃ ch
d aly
ĠzÃ¡ pisu
Ġreg ene
ĠobÄįan y
ĠnÃ¡boÅ¾en stvÃŃ
je k
pro dej
ĠA S
f ÃŃ
Ġprac ovi
Ġaudi okni
ĠÄįa je
. âĢĿ
Ġnej v
zÃ¡ pa
ĠMa jÃŃ
ĠdÃ¡ vajÃŃ
ĠzÃ¡ zra
Ġs kladem
ĠvÄĽ ÅĻit
ĠmÃ³ dnÃŃ
ĠIn ve
Ġzdravot nÃŃm
Ġmo ÅĻi
ĠpÃŃ sk
Ġs met
ĠE va
ĠzÃ¡j my
Ġpro jÃŃt
Ġseh nat
Ġpolov ina
BÄĽ hem
ĠvÃ½ no
ova teli
it ÃŃ
ĠDo min
ĠOnd ÅĻej
ĠUS D
Ġre fle
Ġkon at
ĠstÃ¡ hnout
rÃ¡t Å¯
ĠpÅĻipo men
Ġu loÅ¾enÃŃ
Ġnevy u
Ġu klid
ul ti
Ġimp le
ĠÄĮe skÃ½ch
ĠA L
Ġu rych
ĠA g
ĠnÃ¡ro ky
T ÄĽ
Ġinten zivnÃŃ
ĠK ana
kÃ¡ tor
Ġpotenci Ã¡l
Ġnej znÃ¡mÄĽ
hlÃ¡ Å¡enÃŃ
Ġta blet
nÃ¡ Å¡ÃŃ
Ġch ro
Ġzastav it
ĠCe lÃ¡
Ġz men
hod nÃ¡
ĠpÅ¯sob it
Ġf ra
ĠÅ¾Ã¡d nÃ©m
Ġhli nÃŃ
Ġji nÃŃ
Ġto t
de b
mo ci
Ġter Ã©n
ĠtvÃ¡ ÅĻÃŃ
le ji
ktor Å¯
Ġbu nÄĽk
ĠelektÅĻ iny
Ġdemokra cie
ĠH am
Ġosob nÃŃm
Ġobrov skÃ½
ĠzÃ¡ da
Ġs f
Ġex o
ĠPrav i
p to
hy b
ĠÄĮS N
ĠÅ¡ o
Ġhygi eni
Ġsle vy
ĠPa ra
ĠkvÄĽt nu
vÃ¡ n
Ġvy dali
Ġocho t
J inak
ĠÅ¾i dle
ĠNe do
Ġko pce
Ġma gazÃŃ
ĠÃºstav u
ĠnÃ¡vÅ¡tÄĽvnÃŃ ky
t Å¡ÃŃ
ĠpÅ¯ vod
ÅĻ Å¯m
Ġdov nitÅĻ
ĠdÄĽt skÃ½
Ġvy ro
Ġzi ma
ĠPo pis
Ġj Ã³
ĠÃº raz
Ġroz poru
Ġo xi
m Å¯Å¾e
ĠdokÃ¡ zali
Ġnedo Å¡lo
Ġna by
Ġna ci
ĠodbornÃŃ kÅ¯
Ġuprav it
Ġvypl Ã½
ĠBo h
Ġpot la
ĠkrÃ¡ le
Ġro u
Ġvytvo ÅĻÃŃ
ĠdatabÃ¡ ze
Ġz krat
C ÃŃ
ĠbÄĽÅ¾ nÃ½ch
ĠvÃ½ hledem
Ġno ha
I R
Ġjednodu Å¡Å¡ÃŃ
Ġ199 9
Ġnap ÅĻÃŃ
ĠÄįerv nu
K ni
5 7
ĠkrÃ¡t kÃ½
ĠznÃ¡ me
Ġkonstru kcÃŃ
dÃŃ k
j an
ĠmenÅ¡ÃŃ ch
ĠT em
Ġneob vy
Ġse kce
ĠPo wer
tÅĻe bÃŃ
ĠpÅĻÃŃprav ky
dle ch
Äį at
H le
me l
ĠpÅĻÃŃj my
Ġvarian ty
D U
ĠpÅĻes nÃ©
ĠÄĮ len
ĠPardubi ce
Ġmysle l
Ġpo slech
Ġex klu
Ġzku ste
Ġposou zenÃŃ
Ġte stu
ĠdrÃ¡ hy
ĠJose fa
Ġkar tÃ¡
Ġpara metrÅ¯
Ġma lo
Ġparkovi Å¡tÄĽ
Ġ gi
ĠodpovÄĽ dnosti
Ġple ch
ĠvÃŃ tr
ĠÅ¡ roub
ĠinÅ¾enÃ½ r
ĠnejvÃ½ znam
Ġope raÄįnÃŃ
Ġd ut
ĠobÄįerst venÃŃ
ĠS c
zi li
ĠzÃ¡jem ce
el d
ĠLi p
Ġvz dÃ¡
Ġk Ã½
V a
Ġ1 01
Ġsoci Ã¡lnÄĽ
Ġabsolu tnÄĽ
Ġpoko Å¾ky
Ġmo rav
ĠblÃŃz kÃ©
200 5
ist y
je din
Ġpuj cka
Ġpa pr
Ġzava za
Ġjazy ce
h nÄĽ
Ġpo blÃŃÅ¾
Ġsto p
Ġakadem i
Ġok no
Ġcho dnÃŃ
ĠdÃŃ vka
ĠhvÄĽz dy
Ġchy tr
ĠTu re
sol ven
ĠzvlÃ¡ dne
Ġ ....
Ġvo z
ĠÅ¡ kÃ¡
Ġs kal
ĠanalÃ½ zy
Ġle vnÄĽjÅ¡ÃŃ
ĠVe li
Ġt louÅ¡Å¥
Ġpla v
ĠPÅĻesto Å¾e
kov o
ĠurÄį eny
ĠcÃŃ lÅ¯
Ġinternet ovÃ©ho
Ġv pravo
Ġr en
ĠAndro id
stÃ¡ tnÃŃ
ĠP lus
ĠneÄįi sto
ĠP ala
ĠE li
cha jÃŃ
Ġpolo hy
Ġotev ÅĻÃŃt
bu rg
Ġtelefon y
Ġde va
ĠÄįÃ¡st ka
Ġroz dÄĽlenÃŃ
Ġde pre
ĠA R
Ġv Äį
Ġmal Ã½m
ĠMÄĽ sÃŃ
av ky
ĠS ku
ĠpÃŃs nÄĽ
ĠvÃ½ bav
pr sen
Ġpr ovi
ĠdÃ¡ vky
ĠschvÃ¡ lenÃŃ
ĠlÃ¡ zeÅĪ
ĠEvrop skÃ©ho
ĠB re
Ġh an
ĠpÅĻiroz enÃ©
li vosti
Ġob alu
Ġodstav ce
ni kÃ¡
Ġuvi dÃŃme
Ġpo bav
Ġlid skÃ©ho
ĠnÃŃz ko
logi i
r ovÃ¡nÃŃ
Ġko s
ĠP ÄĽ
Ġosob nÃŃho
it Ã½ch
Ġpo ma
Ġvle vo
Ġce stÃ¡ch
P ak
ĠbÅĻe hu
ore k
v ati
h ry
Äįas nÃ©
Ġobje vujÃŃ
nÃ¡ jem
ĠvÃ½bor nÃ©
ĠnepÅĻÃ¡ tel
Ġnepo slednÃŃ
% ,
Ġobsahu jÃŃcÃŃ
Ġveter inÃ¡
Ġod hod
c ca
ĠZ Ãģ
Ġpodob u
Ġn Å¯Å¾
Ġbohat Ã©
ĠÅĺ ec
ob u
k ÅĻÃŃ
Ġchce Å¡
ĠB ou
ĠnemÄĽ lo
Ġde vÄĽt
dÃ¡vÃ¡ m
Ġin formu
ĠpÅĻÃ¡ telÃ©
ĠMno ho
ĠdÅ¯ kladnÄĽ
ĠsprÃ¡ vu
wa ru
chÃ¡ze la
ÄĮ er
Ġve Äįera
ĠJ ar
Ġpos lat
ĠH ru
ĠMÄĽ la
ĠzaÅĻÃŃ zenÃŃm
d ri
ĠnepÅĻÃŃ zni
ane ch
pa ce
Ġroz po
Ġ5 3
Ġ8 9
Ġtvr zenÃŃ
ĠLe tos
Ġpat ÅĻe
ĠdruÅ¾ stvo
Ġves mÃŃru
lo ny
ĠU V
f inÃ¡le
klÃ¡ dajÃŃ
Ġrodin nÃ½ch
ĠmÃŃ sty
ĠzaÄįÃ¡ teÄįnÃŃ
ĠpÅĻÃŃtom nosti
d nÃ½ch
ĠVladi mÃŃr
ĠK un
Ġhra nic
ĠÃºko lÅ¯
ĠpÅ¯vodnÃŃ ho
Ġdisple je
VÅ¡e chny
ĠnÃ¡vÅ¡tÄĽvnÃŃ kÅ¯
ĠzÃ¡vis ÃŃ
Ġto penÃŃ
Ġpoly ester
Ġidenti fi
ĠÄį tr
Ġrodin ou
ĠovlÃ¡ dÃ¡
Ġsk vr
Ġvypla tÃŃ
Ġsta vÄĽ
Ġpoz emek
ĠzÅĻej mÃ©
Ġpovz bu
Ġbu l
Ġna chÃ¡zejÃŃ
Ġnahra dit
ĠÄįa ro
ĠdivÃ¡ kÅ¯
or nÃŃ
ĠprÃ¡ vnÃŃho
Ġmas i
ĠzatÃŃ Å¾enÃŃ
ĠMora vÄĽ
ĠPro ti
Ġne dÄĽle
Ġobje vuje
ĠnÄĽk terÃ¡
ĠÅ¡e tr
ĠzÃ¡ dech
AR MA
Ġzastupitel stva
Ġeviden ce
ĠNÃ¡ Å¡
R u
ĠobÄĽ ma
ni ckou
ĠveÄįe ÅĻe
ĠzÅ¯ stala
re o
ĠvyhlÃ¡ Å¡ky
Ġvojen skÃ©
Ġcel ku
Ġdosa h
ĠpÅĻ ene
Ġprinci pu
ĠD an
Ġtr vale
sko slez
nÃ© st
C Z
ĠH lu
Ġzapo tÅĻebÃŃ
z ovanÃ½ch
Ġposte l
ĠMinister stva
Ġko Äįky
ma x
dÃ¡ k
ĠmyslÃŃ te
Ġvrst vy
Ġdvoji ce
Ġ0 2
ĠS nÃŃ
ĠÄįaso pisu
Ġposky tujÃŃ
ĠnevÃŃ te
va j
Ġzna lostÃŃ
ĠVo da
Ġna kladatel
Ġstav ÃŃ
ove d
Ġcelo svÄĽt
kÃ¡ n
Äį eny
Ġvi dÃŃte
Ġher ec
Ġb Ã¡t
Ġslo Å¾itÄĽ
ĠO pÄĽt
k lou
Ġzdravo tnÃŃch
8 7
Ġnap lÃ¡n
Äį enou
Äį u
ĠPo Å¾adujeme
Ġuspo ko
sig n
tu ÅĻe
ĠnemÅ¯Å¾ eme
bo x
Ġhez kÃ©
Ġpo klad
Ġmi luje
Ġpodpo ÅĻit
Ġma st
Ġsoustav y
ĠMa g
Ġpo kaÅ¾dÃ©
Ġpodob nÃ½ch
Ġposlu cha
Äįi ce
ĠpoloÅ¾ ky
Ġd anÃ©m
Ġbudouc na
ĠvÄĽ cech
zku m
ĠS M
ĠMe to
Ġt vÃ©
ĠĠĠĠ ĠĠĠĠ
mo ti
Ġz vÃ¡
Ġo ranÅ¾
no f
Ġmini mali
or ku
Ġpohod lnÄĽ
ĠÄįty ÅĻech
Ġslu nÃŃ
sko k
ĠnÃ¡ stro
Ġspo lku
ĠSt ÅĻÃŃ
Ġne ÅĻÃŃ
ĠVÅ¡e chno
ĠprobÄĽh lo
Ġne dÄĽlÃ¡
ĠzamÄĽ ÅĻenÃŃ
= =
ĠR ou
si c
Ġa rche
ĠÅ¾ivo tu
Ġtehde jÅ¡ÃŃ
zi la
ĠjÃŃz du
enÃ¡ tu
ĠvyuÅ¾it ÃŃm
ĠpÃŃsem nÄĽ
se d
Ġnej Ãº
ĠÃºÅĻa dy
Ġz nal
ĠzamÄĽstna vatel
an Ã½mi
ĠVe dle
ĠpÅĻij mout
fo to
E B
Ġzem ÅĻe
ĠTe x
ĠpoÅ¾ Ã¡dat
vi deo
k terÃ½
ĠvÃ½ slov
Ġnej niÅ¾Å¡ÃŃ
Ġpartner y
Ġmik rov
ĠpronÃ¡ jmu
Ġnaro dil
E V
Ġsouvise jÃŃcÃŃch
Ġvy loÅ¾
Ġkonstru kci
st Å¯m
ĠlhÅ¯ tÄĽ
Ġvy hle
ĠB Ã¡
Ġzde jÅ¡ÃŃ
ce r
pe Å¾
ÅĻen Ã½m
Ġtak tÃ©Å¾
pou Å¡tÃŃ
Ġbram bor
Ġpro slu
ĠlÃ©Äį bu
ĠK le
ovnÃŃ k
ĠÅ¾ivo to
Ġnasa zenÃŃ
Ġagen tura
di s
m inu
Ġz mrz
Ġminist ra
s vÃŃ
Ġot vor
b ce
ĠbÃ½val Ã©ho
Å¡e jÃŃ
Ġstre su
Ġsto py
ĠzÃ¡pa sy
Ġpod rÃ¡Å¾
Ġzji stili
st on
ĠzÃ¡ tÄĽ
be t
ÄįÃ¡ k
Ġ5 1
ĠvysvÄĽt lenÃŃ
ĠZ lat
ĠM ana
Ġko ÅĻenÃŃ
Ġ ),
ob ÄĽ
Ġdosava dnÃŃ
Ġt alÃŃ
ĠNej en
vÄĽ r
ĠC er
ĠrozdÃŃ ly
Ġna bit
Ġregistra ce
ĠnebezpeÄį nÃ©
Ġpr vo
ĠpÅĻÃ¡ teli
se xu
Ġrespe ktive
c eny
su n
Ġvytvo ÅĻil
ĠÅĻÃŃ kat
Ġ2 30
Ġbr z
] :
ĠlÃŃ bit
ha jÃŃcÃŃ
Ġminu tÃ¡ch
ĠhrÃ¡ li
Ġpohla vÃŃ
ĠT at
Ġkontak tnÃŃ
Ġvrcho lu
sti ckÃ½m
Ġvz ala
Ġtren dy
st rÅ¯
d Å¾
Å¡ nou
Ġstej nÃ½m
ĠÅ¾ ada
Ġro ck
te ro
lnÃŃ kÅ¯
Ġperfe ktnÄĽ
ĠkaÅ¾do roÄįnÄĽ
Ġporu chy
Ġf u
rÃ¡ ly
Ġse s
ĠJa ck
Ġni komu
ĠsnÃŃ mek
Ġnejstar Å¡ÃŃ
lan t
N av
Ġkro kem
cho dy
Å¾en Ã½m
Å¡ eny
ĠS h
Ġ emi
ĠFace booku
Ġnor my
Ġokru hu
ĠPÅĻed stav
ĠDo mÃ¡cÃŃ
ĠNe s
Ġf ace
ĠPrÅ¯ mÄĽr
Ġmo jÃŃ
ĠS im
atutÃ¡ rnÃŃ
Ã¡l ka
ty ÅĻi
ĠsÃŃ dlo
lu jÃŃcÃŃ
Ġkou pil
ĠpodÄĽ kovat
ĠvzÃ¡jem nÃ©
Ġbi ologi
ĠÅ¾i vÃ©
Ġnesou hla
Ġpodzi mnÃŃ
Ġpo hov
ĠnalÃ© zt
Ġvypa dajÃŃ
ĠpÅĻe dÃ¡nÃŃ
man n
ĠukÃ¡ zalo
K U
Ġtak ÅĻka
Ġho ke
Ġle pi
Ġreak ci
ĠsnÃŃm ky
on g
t vÃ¡
st rou
Ġprav ou
sk la
ĠsluÅ¾ bÃ¡ch
b Ã¡m
la v
E CH
Ġnaje vo
ĠN Ã¡d
Ġzach rÃ¡
Ġ3 50
Ġy ou
P es
Ġvol nÃ©ho
Ġpoplat kÅ¯
Ġcen ou
Ġto bÄĽ
Ġpar ty
ĠstÃ¡ la
ĠpÅĻÃŃj menÃŃ
ĠT an
ĠPro du
å ½
ĠStÃ¡ le
Ġkou zel
mÄĽ te
Ġpo pla
nÃŃ me
ĠzÃ¡ ha
RA V
ĠpÃ¡d em
ĠNÄĽ me
ĠÃºdrÅ¾ bu
ĠstÃ¡ lo
Mo Å¾nÃ¡
ĠF rÃ½
Ġko tou
ĠÄįle na
Ġal ba
ĠpÅ¯sob il
Ġpove de
Ġautomobil Å¯
Ġpo si
d ÅĻÃŃve
Ġreag ovat
Å¾ÃŃ te
Ġdobr Ã½m
ma ilem
ĠbÄĽ hu
Ġpoliti ckÃ½ch
P e
Ã¡ Å¡
Ġnepla tÃŃ
c ovÃ½
V ÃŃ
Å¡le te
ĠnÃ¡ kla
ĠTo p
o pe
Ġne ur
Ġteplo tÄĽ
mÄĽ ny
nÃ¡ lnÃŃ
Ġh Ã½
ĠbrÃ¡ ny
Å¡ker Ã©
ĠreÅ¾is Ã©r
Ñ ı
Ġkli dnÃ©
st art
ce lku
Ġte pl
Ġobcho dÅ¯
Ġn y
Ġde vÃŃ
Ġsymbo l
ĠvÃ½ stÅĻi
ĠstÃ¡ tnÃŃch
Ġpro mlu
Ġrych lÃ¡
Ġfi al
ak ti
Ġjedna lo
Ġovliv nit
co Å¾
ĠvÃ½ lety
p Ã©
ĠpÅĻÃŃznak y
ĠÃº klid
ĠnÃ¡s il
Å¾ ujÃŃcÃŃ
ĠzÃ¡vo dÅ¯
Ġc u
Ġb er
Ġh eslo
Ġzla to
ĠD le
ĠBritÃ¡ nie
My slÃŃm
nÄĽ nou
lo s
Ġro hu
Ġdo Äįka
si e
Ġtvr d
Ġob vod
s nÄĽnÃŃ
ĠpÃ¸ ÃŃ
d anÃ¡
Ġm or
Ġza vr
Ġpro hrÃ¡
ĠStÃ¡ tnÃŃ
min o
zen i
Ġpaci enta
liv Ã½ch
Ġprav Ã½
ĠN u
Å¡ ujÃŃcÃŃ
ĠÅ¡pat nÃ½
ĠJiho Äįe
ĠpÅĻeÄį tenÃŃ
ĠuspoÅĻÃ¡ dÃ¡nÃŃ
R U
Ġmoder nÃŃch
Ġdokon ÄįenÃŃ
Ġtex ti
ĠzÃ¡bav u
Ġdo lnÃŃ
Å¾ÃŃ vajÃŃ
Ġde b
Ġp ut
Ġpro chÃ¡zÃŃ
ĠE r
ĠstÃ¡ tech
Ġsi mu
Ġneu stÃ¡l
Ġzji stila
Ġlabora to
ĠtÄĽ sto
ĠpÅĻedstaven stva
ka ci
Ġf eno
ĠvÃ¡l ka
ĠC hor
Ġsyn te
Å¡tÃŃ ch
rozu mi
ĠPo skyt
Ġcertifi kÃ¡
ĠS et
ĠzpÄĽ va
Tak Ã©
Ġne tr
lÃ© ze
Ġap li
M no
ĠFak ul
ĠG ene
ĠÄįi stÃ½
Ġcel kovou
tegori e
200 1
cit a
f inan
Ġs up
ĠsignÃ¡ l
Ġma lin
ĠnÃ¡ moÅĻ
d rÃ¡
ĠRu sku
ĠdaÅĪ ovÃ©
Ġtelefon nÃŃ
Ġse k
u re
ĠsnÃŃm ku
ĠÅ¡ lech
h nÄĽte
Ġ7 2
ĠseznÃ¡ mit
Ġkamen y
Ġu c
Ġvod ovo
te dy
ĠsprÃ¡ va
ĠpravdÄĽpodob nost
ĠB ul
Ġobcho dnÃŃm
ĠvÄĽ r
Ġuve denÃŃ
n in
ĠpracovnÃŃ ky
pla y
ze nÃŃch
ĠnemÅ¯Å¾e te
ĠR Å¯
Ġminister stvo
Ġvyv inu
ĠpoÅ¾ a
Ġvr stva
Ġofi ciÃ¡lnÄĽ
Ġvo lebnÃŃ
ĠÅĻÃŃ kala
li st
Ġosob Ã¡m
Ġex pozice
Ġt kÃ¡
ĠSt rÃ¡
Ġsurov in
Ġskon ÄįÃŃ
Ġza stÅĻe
ĠM Å¯j
Ġnepo daÅĻilo
sa d
ĠzpÅĻÃŃ stup
Ġdoz vÃŃte
b ovÃ¡
Ġpod lÃ©
ĠpÅĻipo jit
ĠStra na
ĠDo lnÃŃ
tej ner
ji Å¡Å¥
ĠsnÃŃ danÄĽ
Ġz n
t rÃ¡
Ġvy Å¡la
Å¡ er
S o
ĠplÃ¡ Å¾i
ĠÃºÄįet nictvÃŃ
h lou
ni ch
ĠÅ¾Ã¡ dostÃŃ
Ġkyseli ny
ĠT ÅĻi
Ġnut nÄĽ
ĠP DF
Ġzi sku
ĠvÃ½stav by
Äį inu
Ġstar Ã©ho
ĠH T
ĠÅĻe z
Ġzru Å¡it
Ġse stra
Ġhodno tÃŃ
ĠzÃ¡kaznÃŃ ci
Ġsle duje
ĠÃºko lem
ĠnejrÅ¯z nÄĽjÅ¡ÃŃch
Ġnut nosti
Ġobcho dy
Ġjas nÃ½
Ġlitera tury
Ġmak e
to oth
Ġt mavÄĽ
mu n
ĠnÃ¡ tÄĽ
Ġvypa dalo
Ġhlas ovÃ¡nÃŃ
Ġope raci
x a
my Å¡le
ĠprostÅĻe dek
Ġnemo hli
Ġji stÃ½
H S
Äį len
Ġcel kovÃ©ho
ha bili
Pro toÅ¾e
R Ã¡
ĠprÃ¡ vem
Ġinteri Ã©r
Ġbezpe ÄįÃŃ
lov Ã½m
stli na
Ð° Ð
ĠnÃ¡vÅ¡tÄĽ va
Ġby ty
Ġo ÄįÃŃch
ĠskÅĻÃŃ ÅĪ
ĠS par
Ġdosta lo
ĠV an
no j
ĠpÅĻe lo
Ġji st
Ġreklama ce
ĠpovaÅ¾ ovat
ali zaci
Ġpub lik
le ku
ĠzÃ¡ vi
ĠdÄĽdi ctvÃŃ
ĠZD ARMA
ĠmezinÃ¡rodnÃŃ ch
Ġrezer vace
Ġrozho duje
Ġregistra ci
Ġdopl nit
Ġla ser
kÃ¡ zal
Ġe la
ĠM ou
ĠsmÄĽr nice
Ġprav di
ĠnatÃ¡ ÄįenÃŃ
ig h
ty p
Ġ199 8
Ġane b
g ene
Ġk av
Ġsna ha
ĠÅĻe kli
Ġho me
ĠdÅ¯vo dem
ĠuvÄĽdo mit
vin ut
ta il
ĠsvÄĽt ovÃ½ch
ĠzvlÃ¡ Å¡t
Ġdovo lit
lÃŃ kÅ¯
ĠpouÅ¾ÃŃ vÃ¡m
Ġode Å¡el
Ġostat nÄĽ
ĠS lovÃ¡
ĠvÃ½ bu
Ġnastav itel
Ġpod ot
Ġpoti skem
Ġod le
ĠÅ¾elez niÄįnÃŃ
se la
Ġinici ati
rÃ¡l nÃŃm
ĠbÄĽ h
ĠdÄĽt skÃ½ch
ĠnelÃŃ bÃŃ
Ġvz rost
Ġm zdy
ale rie
Ġsto l
P L
ĠMo del
Ġchu tÃŃ
Ġregi on
Ġvo dÃŃ
Ġpodob nÃ©ho
ĠdvanÃ¡ ct
8 1
ĠÃļ Äįast
m no
Ġra dio
Ġzlo Äįin
ĠdÅ¯leÅ¾it ou
Ġklasi ckÃ½
Ġekonomi ky
ve dl
chÃ¡ zenÃŃ
v ovÃ©
Ġfas Ã¡
Ġrad nice
v nÃ½ch
Ġuveden a
Ġleta dla
Å¡en Ã½m
E X
Ġh i
ĠT lu
ĠBu d
Ġnemo cÃŃ
Ġu vÄĽ
ĠkÅĻi Å¾ovat
Ġvyb erte
Ġt ari
Ġzvu ku
dnÄĽ te
Ġzelen iny
Ġprodej ce
ru p
Ġtu ku
en ciÃ¡lnÃŃ
Ġe vange
ĠÅł vÃ©d
Ġob rat
ĠC an
Ġap lik
Ġvy Å¡el
ĠpÃŃs ni
Ġsp la
Ġbezpe ÄįnÄĽ
Ġp il
Ġv ak
Ġk as
ĠkamarÃ¡ dy
ĠpÅĻÃŃjem nÃ¡
Ġovliv ÅĪuje
Ġpartner em
ĠÅĻa dou
po klÃ¡
Ġma j
ffi ce
ovo st
p let
Ġvy pro
Å¡ kem
ĠRe publi
Ġroz lou
Ġm Å¯
Ġby dliÅ¡tÄĽ
Ġpokle s
Ġkomfor t
a by
Ġkontex tu
ĠvÃ½znam nÃ½ch
al t
Ġtechni ku
Ġs rovna
ĠvÃ½ platou
Ġnere z
teri e
ĠZÃ¡ pa
inou t
Vel mi
iti vnÄĽ
M T
Ġrodin nÃ©ho
do m
ti s
Ġu chovÃ¡
Ġhra Äįky
k terÃ©
ĠportÃ¡ lu
Ġle tÃ¡
Ġdisku se
bÃŃ rat
ĠzpÅ¯sob it
Ġu pÃŃ
g ran
Ġposti Å¾enÃŃm
Ġdokon alÃ©
ĠblÃŃ Å¾e
ĠDat um
ĠpÅĻi hrÃ¡
ĠpamÃ¡ tek
Ġtr vat
Ġu kaz
Ġre zi
ĠM ak
AR T
ĠpomÅ¯ cky
Ġf ale
Ġbran ku
ĠS ho
v nosti
Ġkre vnÃŃ
Ġsmlu v
ĠK rÃ¡t
Ġstej nÃ©ho
Ġplat nÃ©
ĠvÅ¯ li
ĠU s
li lo
ĠL ito
ĠÅĻÃŃj nu
ri k
Ġkontakt ovat
Ġr em
Ġnap sala
A l
ĠIde Ã¡lnÃŃ
Ġpo hledem
hra ni
Ġu spÄĽ
Ġstruktu ry
Ġpat ro
B N
ĠzÃ¡bav y
Ġob orÅ¯
ĠV stup
ĠpotÄĽ Å¡ÃŃ
ci onÃ¡lnÃŃ
ĠdomÃ¡ cÃŃho
ĠS ky
Ã© ma
pu s
ig ht
Ġveliko stÃŃ
l Ã½mi
Ġproce sÅ¯
ĠV zni
Ġna dÄĽje
ĠtisÃŃ ci
ĠS L
Ġmeto d
Ġkonf lik
h nete
ĠÅ¾ivnost en
Ġpri or
Ġdvoj nÃ¡sob
ĠsnÃŃ dani
ÄĮ NÃį
Ġm em
Ġli Å¡
Ġautor Å¯
t s
ri bu
Ġkomer ÄįnÃŃ
Ġob lou
Ġh nÃŃ
ĠÅ¾Ã¡ ka
Ġkam ery
Ġzaslou Å¾ÃŃ
Ġb re
Ġsu ch
ĠchrÃ¡ nit
che jte
ĠÅ¡ko du
Ġzna Äįku
ĠnabÃŃ dek
li nu
ti ckÃ½m
Ġzab rÃ¡nit
ĠtÃ½m Å¯
j t
Ġdo mÃ©
Ġm ent
ĠV Z
Ġnapl no
Ġjed inÄĽ
ĠVÃŃ t
Ġzby teÄįnÃ©
ĠP ov
Ġza vÄĽ
rov anÃ½
Å¾e li
Ġbarev nÃ½ch
ĠRe d
ĠmnoÅ¾stvÃŃ m
Ġpo ci
K u
Ġod dÃŃl
Ġpla teb
ĠvÄĽ Å¾
Ġvla j
ĠK lÃ¡
Ġkomplet nÄĽ
Ġau tÄĽ
ĠNej prve
tel nÃ©ho
Ġmy sl
d roj
ÄĮe skÃ¡
ĠpÅĻine se
hroma Å¾Äı
Ġsvobo du
ku m
gra ci
Ġpro dÃ¡vÃ¡
av u
ĠzÃ¡kla dy
Ġsm art
ĠÃºÄįin nost
ĠpÃ¡ ry
da je
Ġsva z
' s
tÃ© r
ĠovlÃ¡ dat
Ġvy lÃ©
ĠobÄįan skÃ©ho
je tÃŃ
Ñ ĭ
ĠznÃ¡m ky
Ġh my
Ġameri ckÃ©ho
ĠLu d
Ġfotografi i
Ã© ÅĻi
ri p
Ġsa teli
Ġdosa huje
Ġsa my
lo ad
Ġcen ti
ĠÃº t
Ġtv Å¯j
I Z
i da
Ġmy Å¡le
e vrop
Ġt rav
ĠdospÄĽ lÃ½ch
Ġgale rie
l te
Ġroz hlas
Ġm rav
ĠhospodÃ¡ ÅĻskÃ©
Ġspoj enÃ½ch
nu tÃ½
ÅĪ ovÃ©
Ġbo ÄįnÃŃ
ĠdÄĽ kujeme
ĠpodmÃŃ nkou
xx xx
h rÃ¡t
ck em
Ġdisk ut
ĠK ore
Ġvyrob it
Ġin dex
ĠSlu nce
ĠzajÃŃmav ou
Ġnej ste
Ġdopl nÄĽnÃŃ
ĠextrÃ©m nÄĽ
nÄĽjÅ¡ÃŃ ho
Ġnote boo
ba mi
ĠA T
Ġabsolu tnÃŃ
ke jte
Ġroz mezÃŃ
9 8
in ec
Hla vnÃŃ
Ã© Å¾
ĠT rans
Ã¡ Ã¡
Ġod kazy
ĠVÃ½ bor
Ġvy ma
ĠnÃŃ zkou
ĠnapÃ¡ jenÃŃ
ĠA vÅ¡ak
ĠKaÅ¾ dopÃ¡dnÄĽ
t j
R y
ĠnÃ¡sled ky
M W
ĠP ÅĻem
ĠO pen
Ġasist ent
Ġmili on
Ġna padlo
mnÄĽ la
Ġmo ji
ĠvÃ½rob ci
ct va
ĠzÃ¡ nÄĽt
ĠlÃ©Äį ba
OV Ãī
Ġd Å¾
Ġsez ony
Ġka ted
Ġkontro le
x ÃŃ
Ġz h
ĠvÃ½ sky
3 00
ĠFili p
Ġvyu Äį
Ġteku t
ĠStan dar
ĠbalÃŃ Äįek
ĠcÃŃ tÃŃm
âĢĿ .
Ġakci ÃŃ
Ji Å¾
Ġex pe
ĠP rovoz
ze b
tu s
Ġt ran
ĠvÅ¡em u
ĠPo zor
ĠVÄĽtÅ¡ inou
j nÃŃch
Ġzave denÃŃ
ĠpÅĻem Ã½Å¡le
Ġtr hy
ĠÃºÄįastnÃŃ ky
ĠAu tom
Ġle tnÃŃch
Ġzna ÄįnÃ©
mo der
Ġpre fer
ito sti
Ġslov nÃŃk
stÄĽ te
wa y
ĠC u
Ġkomp li
st ÃŃm
Ġs un
ĠP V
Ġvy rovnÃ¡
Ġzahra du
ĠpÅĻÃŃprav ku
z ory
Ġmamin ka
ĠAn ge
Ġdo klady
ĠRu ska
ĠV ary
en ku
u Å¡
ĠobÄĽ tÃŃ
Ġnesta ÄįÃŃ
en tem
ĠsmÄĽ nku
Ġchiru r
ĠO R
ĠpÅĻe hra
Ġne hod
su s
ĠNÃ¡ vrh
Ġli du
Ġs ak
Ġs ovÄĽt
Ġsv aly
Ġhle dajÃŃ
chop il
Ġu kli
ze la
ĠvÃ½mÄĽ nu
Ġv celku
D Å¯
Ġkon Äįet
Ġuvo lnÄĽ
ĠCh ci
Ġsou dnÃŃ
Ġposkyt ne
Ġsklad by
Ġdo hodÄĽ
I B
Ġne rov
ĠtÅĻÃŃ d
Ġmeta boli
ĠkvÄĽt in
Ġpomo hl
Ġa kt
do x
Ch cete
Ġo mlou
ĠdalÅ¡ÃŃ mu
Ġnemo hu
Ġpa desÃ¡t
ĠmÃŃsto pÅĻed
Ġmo Äį
ĠvyÅ¡Å¡ÃŃ ch
Ã¡t ory
i se
Ġorgani zaÄįnÃŃ
sk ovÃ¡
ĠstÄĽ Å¾
ÄįÃŃ ta
M in
ĠveÄįer nÃŃ
Ġza da
ĠTÃŃm to
ĠZÃ¡ kaz
L o
Ġtradi ci
be ch
dol f
ĠO tÃ¡
n dÃ½
Ġru bri
nitÅĻ nÃŃ
ĠsnaÅ¾ÃŃ me
P P
Ġameri ckÃ½
t her
Ġfir mou
Ġstej no
ĠPr emi
ĠN at
ce s
Ġne rozu
Ġspis ovatel
Ġnejd ÅĻÃŃv
dou cÃŃ
len ky
Ġproce sy
, âĢĿ
Ġtren d
ĠvÅ¯ ni
Å¾i Å¡tÄĽ
lov o
ĠÄįi sti
Ġpoje tÃŃ
ĠV hodnÃ©
Ġe ur
ĠÄįtenÃ¡ ÅĻe
lov anÃ©
Å¾ kou
Äįe tnÃŃ
bÃ¡ nÃŃ
Ġsp lnÄĽ
ĠpomÃ¡ hat
U D
cen ou
Ġvr tu
k tora
ĠnesmÃŃ rnÄĽ
ÅĻ Ã¡t
ĠS vÄĽ
Ġnaj dou
ĠskÅĻÃŃ nÄĽ
pu Å¡tÄĽnÃŃ
Ġra dosti
ĠpoÅĻa du
ĠbÅĻe znu
ĠOlomou ci
oki es
Å¥ Ã¡k
Ġkon figu
ĠnaÅ¡i mi
Ġv on
ĠÅ¡ÃŃ ÅĻ
Ġprofi lu
en er
Ġnej vy
p ÃŃm
Ġmoti v
Ġklimati zace
Ġpostup em
Ġvyrob ena
Ġpoplat ku
Ġrozho dujÃŃcÃŃ
Ġpodpo rou
Äįen Ã©ho
Ġzt rÃ¡t
Ġfo cenÃŃ
Ġklu k
Ġsu chÃ©
ov na
Ġod stup
Ġ199 0
ĠK i
Ġmat race
ĠstÅĻe chy
st ku
ĠKri stu
ĠP ÅĻ
Ġsou bo
rych lÃ¡
Ġvla k
ĠÅ¡iro kÃ½
Ġostr ova
ĠprÅ¯zku mu
Ġsyst em
Ġdisku ze
ĠPou ze
Åĺ e
eb nÃŃ
ĠpÅĻe stav
Å¡e jte
Ġtu re
f ak
Ġhy per
l kou
Ġdub nu
ĠtÃ©m at
de ÅĪ
tu gal
Ġ6 6
ĠDruh Ã½
ĠprobÃŃ hat
z avou
Ġza lo
Ġja ro
ti c
ĠdÄĽ v
ĠÃºva hu
ĠzamÄĽst nÃ¡
ÄįtÄĽ jÅ¡ÃŃ
Ġmobil nÃŃch
Ġpa pri
ĠL CD
ĠV ala
Ġrestau racÃŃ
Ġu Å¾itÃŃ
Ġlo dÄĽ
ĠPÅĻi prav
ĠzÃ¡ slu
ĠA rchi
Ġproto ko
ĠdneÅ¡ nÃŃho
ĠÅ¡ ab
ĠvÄĽ dy
ĠnÃ¡vÅ¡tÄĽvnÃŃ ci
Ġdopl ÅĪuje
Ġba rok
Ġd anou
Ġra zÃŃ
Ġso cha
Ġtabu lce
Ġklik nÄĽte
å¤ ©
Ġs Ã¡d
ĠnÃ¡ rÅ¯st
at Ã½
Ġobec nÃ©
ĠvÃ½stav u
Ġtisko pis
ra j
Ġpla y
ĠB us
ĠmoÅ¾ nÃ½ch
Ġfon dÅ¯
J sme
Ġvy Å¡lo
Ġvnit ra
hÅ¯ ru
ĠÅ¡tÄĽ ÅĪ
Ġst aly
Ġport fo
Ġpracov nÃŃm
Ġpotru bÃŃ
Ġz ÅĻÃŃzenÃŃ
Ġb ÅĻÃŃ
Äį tu
sÃ¡ nÃŃ
Ġpozna men
E ST
Ġde sti
By lo
Je dnÃ¡
ĠpracovnÃŃ k
C I
Ġt zn
vÃ¡ ny
Ġdo hled
ĠB ur
vy kle
Ġstrate gi
ĠpÅĻÃŃ zemÃŃ
Ġadre sy
Ġho telÅ¯
Ġjin dy
mo ÄįenÃŃ
ĠA f
mr tÃŃ
Ġuka zujÃŃ
jednÃ¡ nÃŃ
kl Ã½
Ã¡l ky
k Äį
T ra
ĠZa stupitel
Ġbu r
tera pie
Ġuplat nit
M E
Ġzlep Å¡it
Äįet la
ĠKri sta
Ġpo stoj
Ġpostav u
Ġka mera
Ġproje vuje
ĠRoz hodnÄĽ
ĠT J
ĠDo ma
ĠChor vat
ĠlÃŃ bilo
ĠS ony
Ġknihov na
ĠS va
Ġod dÄĽ
Ġza me
ĠM ast
ĠZ i
ĠPra kti
tu jÃŃcÃŃ
ĠbrÃ¡ nit
Ġza regi
Ġ5 7
Ġefekti vnÄĽ
tel nosti
ĠvÄĽ z
ovÄĽ zÃŃ
p ho
ĠMu ze
ĠpÅĻi le
nem o
Ġpsa la
k to
ĠobjednÃ¡ vku
Ġkontaktu jte
Ġvo dnÃŃch
Ġmal Ã©m
Ġe rotickÃ©
To to
Ġposte li
Ġori en
s ovÃ¡
ĠzpÅ¯sob uje
Ġâ Ĥ¬
Ġve dla
ĠvyhlÃ¡ Å¡enÃŃ
le van
ĠdomÃ¡c nost
ĠvÃ½ch ovy
ĠÄį el
K e
4 20
ĠdÅ¯vÄĽ ry
ĠsouÄįas nÃ©ho
ĠspotÅĻe ba
Ġc oby
Ġ19 45
ĠsloÅ¾it Ã©
Ġsva tebnÃŃ
ĠÄįas y
Ġznak y
Ġz ma
Â »
ĠzdÃ¡ t
Ġg astro
Ġpolo Äįas
Ġli ne
Ġreali ty
ĠpÄĽ Å¡ÃŃ
ĠpÅĻÃŃspÄĽv kÅ¯
ĠdÃŃ vat
ĠPod rob
ĠnovÃ½ mi
Ġochran nÃ©
ĠvyjÃ¡d ÅĻit
ĠpÅĻi stup
Ġpo pÃŃ
ĠBy li
Ġinstitu cÃŃ
ĠItÃ¡ lii
Ġpri vÃ¡
ĠB ran
ĠÃºÄįastnÃŃ ci
ĠbezpeÄįnost nÃŃch
ka za
ĠzÃ¡ nÄĽ
Ġpo ÅĻi
ĠMo tor
ĠvÃ½z vy
ĠHla vnÄĽ
Ġo stÅĻe
Ġsvat Ã©ho
Ġlo go
ĠD va
Ġpl nÃ©m
ĠStÅĻe doÄįe
Ġu chy
nu li
Ġu se
ĠcÃŃ li
Ġpolice jnÃŃ
ĠvÃ½mÄĽ ÅĻe
nÃŃ ma
Äįan y
Ġpod ruhÃ©
len ka
lnÃŃ ci
ĠOb sahuje
Ġkro ku
Ġslo Å¾ek
kÃ¡ ÅĻe
ĠÄįe kala
ĠKa m
kon a
nu ta
ĠtÃ© hle
ĠÃº tva
Ġvyh rÃ¡t
ĠÃºzem nÃŃho
Ġvl ny
E O
ĠprÅ¯mysl ovÃ©
Ġsva zu
Ġsi li
Ġprosin ci
Ġza stoupenÃŃ
ĠH el
ĠZ O
ĠnÃ¡sled nÃ©
Ġzprac ovÃ¡nÃŃm
ĠVe se
Ã³ d
ĠsvÄĽd ÄįÃŃ
Ġtrans par
Ġle tu
Ġcel kovÃ¡
Ty to
Ġkontro lnÃŃ
Ġje li
ĠLa di
Ġsrp nu
Ġplat nosti
ĠsnÃŃ h
j Ã¡d
Ġrodin nÃ½
Ġsitu acÃŃch
Ġho dit
Ġk nof
mÃŃ ra
âĢ¦ âĢ¦
mp on
ĠM usÃŃm
Ġs emi
ĠG PS
å½ ©
Ġod chy
Ġ6 8
su r
ĠpÅĻÃŃ dav
tro l
Ġzdrav Ã½
ĠNÃ¡rodnÃŃ ho
ĠprÅ¯zku m
ĠP y
Ġch ovÃ¡
B ez
ĠMorav y
Ġautomati ckÃ©
hra je
Ġe ko
ĠbÃ¡ s
ĠdÅ¯ stoj
ĠzÃ¡sa dnÄĽ
ĠO D
p ru
ĠnÄĽjak Ã½ch
van Ã½m
ku r
ĠvÃ½bÄĽ rem
ĠK ul
» ¿
Ġporo d
Ġplane ty
l ko
ĠÄĮe Å¡i
Ġjo g
Ġban k
Ġostrov ÄĽ
ĠnÃ¡sledujÃŃcÃŃ m
ĠAmeri ce
Ġvy lu
Ġs mu
L a
Ġrostou cÃŃ
lo na
Ġpolo ze
ĠznÃ¡ te
ĠtÅĻi krÃ¡t
OV AT
By l
ĠMa c
vo jem
Ġran nÃŃ
Ġpr vek
ĠÄįÃŃ slem
ĠvnÃŃm Ã¡nÃŃ
Ġseku nd
Ġto ale
Ġm rk
Ġaro ma
Ġexist enci
kov anÃ½
an s
ĠloÅĪ skÃ©ho
Ġvez me
Ġka de
Ġstav bÄĽ
ĠbÃ½val Ã©
Ã £
ĠvÃ½raz nÃ©
ĠdodrÅ¾ ovat
Ġspokoj eni
Ġobje d
ĠD ub
Ġjeze ra
ĠNÃ¡ slednÄĽ
N ez
Ġvyrob enÃ©
ĠÄįe skÃ½m
ĠurÄįit Ã½ch
Ġnad Å¡enÃŃ
na r
Ġdlou hÃ½ch
Ġna Å¡t
ĠzÃ¡sa dy
Ġto le
m lad
IN G
Ġs ve
Ġklient Å¯m
ĠC he
Ġprogram em
ĠplÃ¡ nuje
d s
Ã¡ nu
Ġpose zenÃŃ
ĠNÄĽ co
Ġvy dala
Ġvznik lÃ©
p ly
? !
Ġroz poÄįet
v zd
Ġob rÃ¡tit
chÃ¡ze li
ĠkaÅ¾do den
Ġobo ha
Ġrodi Äįi
ati ce
ĠNe Å¾
Ġohro Å¾enÃŃ
Ġpro zkou
Ġuspo ÅĻÃ¡d
Ġme lo
Ġkomunika ÄįnÃŃ
Ġna ru
Ġkontak ty
Ġpotvr dil
jÃŃ mat
Ġbi skup
Ġlit rÅ¯
ke tu
ĠPÅĻÃŃ jem
ĠnapÅĻÃŃ Äį
Ġod o
ina ce
ĠFil m
C a
ĠpÅĻe ru
Ġoprav u
ĠO tev
Ġkon tejner
ĠvrÃ¡ tila
Ġfanou Å¡ky
ĠR ob
ĠÄĮÃ¡ st
Ġregu lace
à ¸
ĠsnÃŃm kÅ¯
U r
Ġje l
Ġu tÃŃ
Ġvy nÃ¡
ĠaÄį koliv
Ġvyhov uje
ĠdÅ¯ chodu
v l
ĠKa ro
Ġvarian tu
ĠDani el
Ro stlina
Ġvz hledu
Ġvi dÃŃme
ĠT el
ĠOb chodnÃŃ
Ġku f
ĠpÅĻÃŃ no
Ġnep ove
ĠH it
VÄĽ tÅ¡
va cÃŃho
dky nÄĽ
h vÄĽz
Å¾ Å¡ÃŃm
Ġch ovat
sud ku
ĠC eny
h Ã½m
Ġspole ÄįnÃŃ
Ġsil ou
ĠzÃ¡kladnÃŃ ho
ĠvÄĽ dÃŃ
Ġnevi dÄĽl
Ġo cen
Ġci ga
ĠdÃ© lku
es s
ĠvÃ½ pis
le l
B O
Ġuve ÅĻej
ujÃŃcÃŃ ho
ĠpotÅĻebu jeme
ĠprÃ¡zdn iny
Ġvy dÄĽlÃ¡
Ġfakul ty
Ġatmosf Ã©ra
Ġmysle la
Ġak redit
ĠvÄĽt ru
Ġruka ma
ĠdodrÅ¾ ovÃ¡nÃŃ
ĠjejÃŃm Å¾
Ġvy razit
ĠtÄĽ hot
ĠpÅĻe va
ĠspotÅĻe bu
Ġvznika jÃŃ
ĠMÄĽ li
ĠztrÃ¡ cÃŃ
Ġbar vou
ĠIn tel
Ã½ val
b la
ne y
ĠZa mÄĽst
j deme
ku ju
Ġsil nÃ¡
ber t
Ġs jedno
Ġz dÄĽ
Ġsval Å¯
Ġnech ali
ĠÅ¡ vÃ©d
m Ã¡l
Å¯ vodnÄĽ
ĠMorav skoslez
Ġoh nÄĽ
Ġfung ujÃŃ
ĠpÃŃsem nÃ©
Ġfit ness
ĠS ha
ĠpÅĻed lo
r kou
un g
Ġuveden Ã©ho
d f
ĠvÄĽ dÄĽli
Ġpodpor ovat
ĠMat ÄĽ
ĠkrÃ¡s nÃ½ch
Ġce le
Ġpu stit
te jte
p ku
ve lo
Ġa po
Ġkultu rnÃŃch
loÅ¾ il
hlÃ© dl
Ġau dio
sla ne
Ġpozor ovÃ¡nÃŃ
ĠH i
Ġvy hnout
ĠvrÃ¡ cenÃŃ
Ġvy Å¾Ã¡
Ġde sku
Ġprodu kci
Ġza ba
ĠS R
9 6
Ġse ktoru
ĠdÃŃ lem
ĠdveÅĻ mi
ka zujÃŃ
Ġinforma ÄįnÃŃch
ĠT h
f en
Ġobraz y
T ÅĻe
ĠvÃ½znam nÄĽ
Ġg olf
ĠDÃ¡m skÃ©
Ġzbyt ky
Ġsil ni
Ġp lic
c Ã¡
Ġkampa nÄĽ
Ġka li
dÄĽ ly
Ġodbor nou
ĠH istori
ĠstÅĻe diska
ĠpÅ¯ dÄĽ
ĠpÅĻi hla
Ġpoho n
pu stil
ĠLu cie
Ġbram bory
pi se
ĠpodmÃŃ nkami
ĠiP hone
ĠE S
Ġpra ch
ĠdÃŃl ny
o prav
Ġizo lace
Ġsna Å¾ili
Ġvy razili
bra l
Ġport Ã¡l
ĠÄįÃŃ n
ĠtvÃ¡ ÅĻe
Ġmeto dou
Ġtvor ba
ĠS ez
ĠnÃ¡rodnÃŃ ho
\\\\\\\\\\\\\\\\ \\\\\\\\\\\\\\\\
ĠKni ha
Ġro du
Ġnez vlÃ¡
ĠdneÅ¡ nÃŃm
Ġs hromaÅ¾Äı
Ġ199 7
U V
ĠÅ¡ tÃŃt
k el
Ġ199 6
ĠnÃ¡hra du
Å¾i je
ÅĪ ujeme
Äį kat
sto p
ĠVy berte
ĠTe p
Ġh no
tÄĽ li
ĠKo m
ar ch
T he
Ġtem po
Ġsoukrom Ã½ch
ov skÃ½
ĠE X
ĠtÃ©ma tem
ĠA kce
. (
Ġspoj uje
Ġprinci p
Ġg el
e p
ĠspeciÃ¡lnÃŃ ch
Ġnej levnÄĽjÅ¡ÃŃ
Ġaut ori
Ġvyrob eny
Ġsle vu
cla v
Ġm raz
Ġhez kÃ½
men i
Ġvra Å¾
Ġpe vnost
ĠM Å¯Å¾eme
! )
Ġa ero
Ġspokoj enÃ¡
Ġprezen taci
ĠvÃ½ hodu
ÅĻ skou
Ġza poÄį
Ġpat rnÄĽ
ĠvÃ½ znamu
ĠO ne
ĠÃºÄįe lu
Ġfot bali
lin k
Å¾ nÃ½m
ĠsbÃŃ rky
ĠM ad
Ġvysky tuje
Ġvyrob en
z ovanÃ¡
Z dra
Ġs dÄĽ
Ġod boru
ĠN Ãģ
by la
Ġpos lÃ©ze
Ġk avÃ¡
ĠJ enom
ne chÃ¡
Ġvz hÅ¯ru
Ġmla dÃ¡
ove j
Ġpomo hou
rov stvÃŃ
sto jÃŃ
Ġuvol nÄĽnÃŃ
ĠDo l
Ġdra Å¾Å¡ÃŃ
jedin ÄĽ
ĠnÄĽ Äįeho
v la
ĠÅ¡ up
Ġvy hÃ½
Ġvirtu Ã¡lnÃŃ
Ġpremi Ã©r
Ġdo tÃ¡
s onÃ¡lnÃŃ
Ġneh ty
Ġjednotliv Ã½mi
ĠCe sta
NO ST
Ġsmr tÃŃ
hra de
ÅĪ oval
Ġmikro fon
ĠVÃ½sled ky
Ġs lep
Ho tel
Ġt ito
ĠdÃŃ le
K ou
lÃ¡ me
x el
ĠnÃ¡ la
Ġano ny
ĠoblÃŃb enÃ½
ĠvÄĽn oval
__ __
Ġad vokÃ¡
ĠpÅĻ in
Ġpubli kace
ĠBro d
Ġkur zÅ¯
Ġnesta lo
ch t
kla da
ĠpoÅ¾Ã¡ rnÃŃ
Ġemo ce
B C
Ġobje vit
I ÄĮ
ĠdÃ¡ vku
ĠdÃŃtÄĽ ti
Ġne Å¡Å¥ast
g el
ĠpÅĻemÃ½Å¡ let
ĠJeÅ¾ÃŃ Å¡e
ov er
Ġspolehli vost
Ġr itu
ĠpÅĻÃŃleÅ¾ito stÃŃ
ĠlÃŃ p
ĠdoplnÄĽ k
re a
B ar
Ġja ter
Ġpro prac
di vu
Ġproce du
ĠD Å¯m
Ġli nie
y ne
ĠO pa
Ġse vero
ĠskÃ³ re
Ġkont in
200 2
Ġda nÃŃ
Ġ7 7
Ġs ing
ÃºÄį tovÃ¡nÃŃ
Ġho s
ĠÄįtvrt letÃŃ
Ġpoky ny
Ġru skÃ©
Ġ5 000
na pÅĻÃŃklad
ĠurÄį enÃ¡
Ġh rÅ¯
ĠurÄįit Ã½
ĠpÃ¡ nskÃ©
ĠTak ovÃ©
Ġzaru Äįuje
ali ta
ĠS kup
rÃ¡Å¾ ky
ĠJe dnÃŃm
Ġchle ba
Ġ6 2
ĠvÃ½ hodnÃ©
Ġglob Ã¡lnÃŃ
Ġsk lep
ĠRa da
ĠovÄĽ ÅĻenÃŃ
Ġtechni ckÃ©ho
sla vi
s eznam
Ġvari a
b ru
ĠP as
ĠjÃŃz da
Ġh l
Ġko ment
ĠlÃ¡ ka
ĠzÃŃskÃ¡ vÃ¡
I CE
ĠpÅĻe dnÃŃch
Vz hledem
ĠJ ste
ĠrÅ¯z nÄĽ
Äį eni
ĠpÅĻem ÃŃ
no ra
ĠnedokÃ¡ Å¾e
ĠvÃŃ n
ni ky
din y
ĠK ali
ĠzÃ¡leÅ¾ito stÃŃ
Ġhote ly
ĠobliÄįe je
ÅĻa du
ĠÅĻa dÃŃ
ĠnÄĽkter Ã½
Ġpoliti ku
Ġw ellness
ĠJedno t
Ġod chodu
ven tu
ĠjÃŃz dÄĽ
ĠÄįlen stvÃŃ
Ġz opak
Ġodpa dÅ¯
ĠzpÅ¯sob il
ĠnabÃŃd kou
9 2
Ġna stup
Ġma leb
ĠÄįerst vÃ©
Ġg um
ĠÅĻe tÄĽ
Ġlib ovol
Ġji stÃ¡
Ġc z
ĠscÃ© nÄĽ
ba ck
ĠmÄĽ ÅĻi
A A
am eri
ĠzÃ¡pa sÅ¯
ĠseminÃ¡ ÅĻe
ĠvÅ¾dy Å¥
Ġpy t
ĠrozsÃ¡ hlÃ©
Ġk Ã½m
mi ly
Ġvz adu
dr Å¾enÃŃ
Ġseznam ka
Ġroz mÄĽrÅ¯
ĠpoÅ¡t ou
ĠF ri
ÃŃ nek
ĠAn na
ĠpÅĻines l
Ðµ Ð
ĠpÃ¸ i
Ġfe de
ĠkonkrÃ© tnÃŃch
ĠK ÅĻi
ĠnezamÄĽst na
an em
Ġpru d
ĠCel kovÃ¡
Te Äı
u d
ĠstÅĻedi sko
en cÃŃ
Ġdove dnostÃŃ
ĠpÅĻiprav enÃ©
Ġkou pila
ti ci
ĠP RA
Ġkoupel ny
Ġsever u
ĠÃºno ru
Ġin solven
Ġkdy koli
ĠvÄĽ dÄĽla
ĠÄįtenÃ¡ ÅĻi
ĠpÅĻÃŃjem nou
Ġfilo so
ĠpÅĻi znÃ¡
ĠS lez
. /
ĠrozvÃŃ jet
ĠpoÅĻa da
bra m
ĠKS ÄĮ
ĠbÃŃlkov in
komu nika
he v
ĠDÄĽ kujeme
Ġs nÃ¡
ĠMo sk
II I
ĠpÅĻÃŃro da
Ġminu lÃ©m
Ġopat rnÄĽ
ĠP lo
Ġslavnost nÃŃ
ĠVÃ½ kon
ĠdosÃ¡ hl
ĠsezÃ³ nÄĽ
Ġpok rÃ½
ĠzÃ¡ tÄĽÅ¾
Ġpodob y
ĠpÅĻispÃŃ vÃ¡
Ġ12 5
ĠB on
Ġbar vÃ¡ch
g or
Ġkapacit a
Ġtera pie
jez dem
ĠÄį inu
Ġper spe
ĠprÅ¯bÄĽ Å¾nÄĽ
ĠS v
ĠdÄĽla la
Ġvy vr
ĠC ol
ĠS nÄĽ
ĠpojiÅ¡Å¥ov ny
he ÅĪ
ĠpÅĻÃŃ jezdu
il li
ĠÄĮe chy
p k
ĠpÅĻesvÄĽd Äįit
di telnÃ©
ĠmÃ¡ lem
bo st
ĠsezÃ³ nu
Z S
Ġky slÃŃ
ĠKrÃ¡ lov
ĠpoÅ¡ ty
RA N
Ġarchitekt oni
Ġa sf
ĠnepÅĻe tr
ĠkÃ¡ vu
Ġnakladatel stvÃŃ
ĠÃºzem nÃŃ
Ġodvo lÃ¡nÃŃ
Ġno min
ĠTe hdy
Ġob ez
ÅĻÃŃ cÃŃ
Ġregi strov
v Å¡e
ĠE L
Ġsty ku
Ġsna Å¾ila
Ġsoci Ã¡lnÃŃm
Ġsouse d
ĠvÃŃ ry
Ġminu tu
Ġvybav eny
Ġz Ã³ny
Ġpar kovÃ¡nÃŃ
Ġv nu
Ġkonkuren ci
Ġmoder nÃŃm
ĠV lÃ¡
Ġupozor nÄĽnÃŃ
ĠÃºÅ¾as nÃ½
Ġspl nit
Ġvzni klo
Ġcel Ã½ch
Ġvnit ro
Ġvliv u
ĠS pi
ĠÅĻÃŃ Å¡e
w in
ovatel nÃ©
d anÃ½
Ġa rab
Ã¡l ÃŃ
at h
ro ka
ĠA da
Ġm j
ĠvÃ½da jÅ¯
Ġli nka
pÃŃ Å¡
ĠD O
htt p
la mi
Ġnebu deme
ĠklÃ¡Å¡ ter
Ġsk rÃ½
Ġkoupel na
Ġak cie
ĠobrÃ¡z kÅ¯
Ã¡d al
Ġben zÃŃ
Ġpozor nosti
Ġzi mu
ĠlÃ¡ skou
Ġaktu alizace
ĠvyÅ¡ Å¡ÃŃm
Ġinfrastruktu ry
Ġpodez ÅĻenÃŃ
Ġpo chy
ĠzodpovÄĽ dnost
Ġoby vatelÃ©
PrÃ¡ vÄĽ
gre di
A CE
Ġre habili
dob y
Ġpodni kÅ¯
ĠRober t
Ġdostup nost
Ġdobr Ã©m
m g
Ġdeseti letÃŃ
Ġsaz by
Ãº hel
Ġproje vy
Ġlicen ce
Ġu zÃ¡
ul t
ĠTak to
ĠKon tro
ĠnÃ¡ raz
ĠuÅ¾ÃŃ vÃ¡
Ġpo ÅĻÃŃzenÃŃ
Ġga ran
dÄĽ lo
Ġvaz by
ĠÄįaro dÄĽj
Ġned ovo
Ġpl nit
rÃ¡ me
Ġpo jem
b l
ĠlÃ© kÅ¯
ĠzÅ¯stÃ¡ vajÃŃ
ĠPodÃŃ vejte
ĠPro je
âĢĿ ,
ĠV in
Ġnemovito st
ĠnechtÄĽ jÃŃ
Ġo stra
ĠrÅ¯ znÃ¡
mÃ¡ n
Ġbyli n
ĠpÅĻi znÃ¡nÃŃ
ĠSo ko
ĠtÅĻi ceti
ĠFace book
Ã©m ata
ĠpÅĻeno su
la li
ĠMin i
ĠnaÅ¡em u
ĠVe s
vi a
ĠlÅ¾ÃŃ ce
met ru
Ġp ato
Ġkapacit y
ĠpÅĻe klad
Ġreali zovat
mysle m
ĠP ut
Äįet l
m ber
Ġhej t
mysle l
ÅĻ enÄĽ
ĠzÃ¡kla dem
Ġnepo cho
Ġelektroni ckÃ½ch
ĠH en
Ġfinan ÄįnÃŃho
ĠVÃ½ch o
k ru
ĠAu strÃ¡
me di
ĠlhÅ¯ ty
ĠO p
ĠDob rÃ½
ĠÃ į
K vali
Ġky ta
ĠlÃ¡ sce
ĠzÃ¡kla du
ĠO pravdu
ĠpÅĻÃŃzni v
ĠFranti Å¡ka
ĠnÃ¡ hle
Ġo ÅĻÃŃ
vi zi
Ġbri gÃ¡
pi ckÃ©
den ci
Ġspe ku
ĠPo znÃ¡mka
Äį k
Ġte bou
te rou
ĠpohÃ¡ r
ĠT ho
r nÃ¡
si m
Ġs ran
ĠBritÃ¡ nii
Ġmamin ky
Å¾e h
Ġzkou Å¡ku
Ġmot ory
Ġpove den
Ġpodpo ÅĻe
lu ji
B A
Ġfinan ÄįnÄĽ
Ġsil nou
ĠpÅĻÃŃsluÅ¡ nÃ©ho
fun kÄįnÃŃ
Ġne sk
ĠtÄĽ Å¾Å¡ÃŃ
Ġdobr Ã½ch
Ġs Ã¡le
Å¡ nÃ©ho
Ġpoho t
pÃ¡ ch
s al
Ġo slav
ĠpÅĻe chodu
Ġvy skyt
ĠtÅĻetÃŃ ho
ho to
Ġde nÃŃk
gy p
ĠvojÃ¡ kÅ¯
f fe
ĠnevÃ¡ hejte
ĠpodÃŃ lu
Ġr ty
ru jÃŃ
v na
Ġneu ro
kti vnÄĽ
ĠHo ra
B e
i on
ĠnejoblÃŃb enÄĽjÅ¡ÃŃ
Ġokam Å¾it
ĠzÃ¡leÅ¾ito sti
Ġuveden Ã½
ĠukÃ¡ zala
Ġod tud
Ġ0 8
Ġdra hÃ©
ĠvnÃŃm Ã¡
ĠvÃ½bor nÃ½
le sk
Ã¡t orÅ¯
Ġzach ovÃ¡
Ġseni ory
Ġpot enciÃ¡lnÃŃ
ro nika
ĠdÅ¯leÅ¾it Ã½ch
Ġprod lu
Ġvybav ena
Ġ6 3
Ã© rou
ĠSk vÄĽ
ĠzmÄĽ nou
Ġosob nostÃŃ
ĠjakÃ©ho koliv
tÄĽ te
Ġvlh kosti
ĠnepÅĻÃŃjem nÃ©
Ġaudiokni hy
Ġo l
dnÃŃ k
pro toÅ¾e
Ġfo l
ĠMicha el
j dÄĽte
Ġhladin y
ĠÃºÄįin nÃ©
i ch
ĠÅĺ ÃŃm
Ġsto lnÃŃ
Ġpora dce
Ġnechy bÃŃ
ZÃ¡ kladnÃŃ
PÅĻe sto
Ġgene rÃ¡lnÃŃ
ĠpÅĻedchozÃŃ ho
Ġstandar d
ĠP al
ĠzÃ¡ bava
ĠnÄĽme ckÃ©ho
Ġmo zek
Ġtitu lu
art ner
ch na
ĠklÃŃ Äįe
ĠÅ¡ÃŃ ÅĻenÃŃ
Ġkomunika cÃŃ
ĠMilo Å¡
Â «
I KA
ste j
ĠC ity
kov anÃ¡
ĠA K
Ġzbra ÅĪ
Ġin tu
Ġdlu ho
Ġnote book
ĠVyso Äįina
ĠzvlÃ¡Å¡ tnÃŃho
Ġkampa ÅĪ
ĠIS BN
ĠsouÄįas nÃ½ch
klÃ¡ dacÃŃ
J sou
ĠjejÃŃ mu
ĠpÅĻÃŃpa du
b alu
Ġmi lost
Ġnap lnÄĽ
ati cky
ĠMar kÃ©
Ġna la
Ġkouz lo
Ġle sy
ĠPo mocÃŃ
Ġk les
je dnou
Ġregi str
ĠK rum
sti lo
ĠjakÃ½ koliv
v ana
u se
ĠprohlÃŃ dky
Ġadminist rati
Ġad res
ĠV il
Ġau dit
ĠpÅĻed bÄĽ
Å¥ a
ĠzmÄĽ nil
ĠhvÄĽz di
E U
Ġnes prÃ¡
ĠI s
Ġu j
Ġsorti ment
ĠvyprÃ¡vÄĽ nÃŃ
ĠVa Å¡em
ĠA li
Ġpuj cky
ĠspotÅĻe by
Ġpod vo
Ġparf Ã©m
Ġkalku la
Ġnez mÄĽ
Ġarchitek tury
Ġmoti vy
ĠpodÃ¡ vÃ¡
ĠÄį u
ĠtÄĽlo cvi
ĠpÅĻedcho zÃŃm
mp y
ĠvÃ½ po
Ġx D
ĠÄįÃ¡ stech
Ġpat nÃ¡ct
Ġoh ÅĻe
Ġan tÃ©
A ni
ĠR ec
ĠnÃ¡ stav
Ġza pÅ¯j
Ġorganis mus
n cem
ov skÃ©
Ġne sti
Ġin s
ĠÃ ģ
ĠU l
Ġtr valo
] ,
Ġsa dy
i de
Ġkomp en
ch Ã¡m
ist Ã©
bo ar
ĠschÅ¯ ze
zv anÃ©
ĠI sla
ĠG T
ĠPoz dÄĽji
ĠzabÃ½ vat
ĠSt anis
ĠZa jÃŃmav
gen er
ĠzÃ¡stup cÅ¯
Ġstanov enÃ½ch
ĠumÃŃ stit
ĠB rati
Ġku sy
ĠnechtÄĽ la
ĠÅ¡e dÃ¡
v nou
j ou
Ġob ÄįanÃ©
ĠoÄį kovÃ¡nÃŃ
ĠmyÅ¡len ka
ĠÅ¾Ã¡ rov
ro l
ĠpÅĻiprav il
ĠMax imÃ¡lnÃŃ
Ġsk li
ĠUÅ¾i vatel
ĠvymÄĽ nit
bili ta
kÃ¡ Å¾e
ĠpÅĻedstav il
M Å¯Å¾e
Ġvzta huje
Ġpoz Å¯
Ġb ari
ĠlÃ¡ znÄĽ
ch ti
ĠzjistÃŃ te
Ġme dit
Ġkou pÃ¡nÃŃ
Ġne bav
Ã³ z
Ġsta vÄĽt
Ġve pÅĻ
ĠKateÅĻ ina
ĠB lo
Ġpev nÃ½
Ġz kra
i telnÃ©
Ġkre ati
Ġroz liÅ¡
ĠtvÃ¡ ÅĻi
Ġdlu Å¾nÃŃ
Ġdokumen taci
Ġp sÃŃ
xus nÃŃ
ĠzdÃ¡ n
Ġklasi ckÃ½ch
ĠpÄĽst ovÃ¡nÃŃ
ĠPro fe
w eb
mple tnÃŃ
ĠZD E
ĠDouf Ã¡m
pe t
zo nÄĽ
ĠpÅĻij a
ĠtÃ½m em
ĠÅ¾a datel
va ÄįnÃŃ
ĠS vÃ©
Ġturi stickÃ©
Ġnov iny
Ġpora dÃŃ
Ġvlh kost
Ġuvi dÃŃ
Ġs ur
Å¾i vo
Ġexter nÃŃ
Ġpedago g
Ġfi gu
ĠodpovÄĽ dÄĽl
F ir
Ġkru hu
ĠpÅĻÃŃ nos
Ġz mat
ter s
zo zem
ĠdevÃŃ ti
ĠVoj tÄĽ
ĠRo ky
ĠS ko
wn load
ri ckÃ©
j my
Ġdo nu
---- ----
P re
n cÅ¯
Ġsta rat
t re
Ġstup ni
ĠbalÃŃ Äįky
ĠT R
ĠobÄįan skÃ©
ve c
V P
Ġc ou
ĠVe Äįer
ĠzdÃ¡ lo
ĠpÅĻÃŃÄį inou
ĠC N
ÅĪ uji
Ġvol nÃ½ch
ĠpÅĻe tr
lÃ© t
Ġzapo jit
ĠÄĮer nÃ¡
lÃ¡t oru
Ġo liv
ĠprodÃ¡ vat
ĠnabÃŃ je
ĠGro up
Ġpodstat nÃ©
ĠM F
Å¡ kovÃ¡
Ġleh kÃ½
ĠÄĮÃŃ slo
Ġide Ã¡lnÃŃm
Ġdob rovo
ĠdokÃ¡ Å¾ÃŃ
Ġbo m
to xi
ĠA N
rÅ¯ sta
ĠÃº pravÄĽ
ĠZ dÃ¡
ĠÄįer nou
Ġpod prsen
Ġjin Ã©mu
ĠsvÄĽ tem
Ġmen Å¡
ĠduÅ¡e vnÃŃ
ÃŃ z
teÄį nÃ½
c us
Ġkam er
ÄįÃŃ cÃŃ
ĠÃºrov nÃŃ
ĠZ ji
Ġposkyt ovat
ĠR S
I ON
Ġso tva
ĠkrÃ¡ sy
hr n
Â ²
ĠS tej
Ġko no
Ġnava zuje
Ġfrek vence
Ġsy nd
ÃŃ ny
Ġrych lou
Ġpoznat ky
Ġskup inou
ĠSloven sko
Ġa f
Ġob haj
mÄĽ s
la jÃŃ
Ġtu n
Ġ2 20
Ġru koje
Ġrodi ÄįÅ¯m
Ġpozem ky
Ġvytvo ÅĻili
loÅ¾ enÃ©
ĠÅ¾ lÃ¡
Ġtvo ÅĻit
pa cÃŃ
ĠprÃ¡zdn in
ĠV ÃŃm
ĠpÅĻi dal
ĠmÃ¡ slo
ĠstÃ¡ ÅĻÃŃ
ĠC ou
Ġvy ÅĻÃŃzenÃŃ
ĠPla y
h neme
ĠpoÅ¾adav ek
it ka
Ġmimin ko
ma ge
Ġmuse lo
mÃ© no
ĠB ezpeÄį
Ġstra chu
Ġzept al
Ġnarozen in
Ġbez Ãº
ĠCent rum
Ġzdravo tnÃŃho
ĠP lÃ¡
Ġneza pomenu
ĠOb Äįas
ĠÅ¾ al
ĠumÄĽle ckÃ©
ĠvÅ¯ nÃŃ
ĠjakoÅ¾ to
Ġsla vÃŃ
ĠÄįtvr tÃ©
Ġpro jÃŃÅ¾
ĠÄįi li
pa dnÄĽ
ĠzvlÃ¡ dnout
ĠH r
Ġcho rob
ĠVz dÄĽlÃ¡
Ġtisk ovÃ©
ĠDi git
Ġma il
ĠjÃŃz dnÃŃ
ĠspoleÄį nÃ½
Ġdostup nÃ½ch
Ġobraz ovky
Ġlid skÃ¡
ĠvÄĽ ty
ĠzmÃŃ r
ĠdÃ¡ vÃ¡m
Ġpotvr zuje
m nÄĽl
ĠBi o
ĠÄĮÃŃ nÄĽ
ĠbÃ¡ je
Ġsili kon
Ġu Äįe
ĠE gyp
ĠPo ra
ĠvÃ½stav bu
in s
ĠM alÃ©
ĠkÃ¡ mo
ĠÅłtÄĽ pÃ¡n
Ġdu cha
Ġnimi Å¾
Ġv li
ĠÃº mrtÃŃ
ĠumÄĽ t
Ġmaxi mum
Ġlo kÃ¡lnÃŃ
ĠnÃ¡dher nÃ½
ĠpÅĻi vez
ĠsvÄĽ domÃŃ
Ġo rche
Ġab s
ĠpÅĻedpis u
Ġtre stnÃŃ
Ġdostup nÃ¡
ĠtÄĽles nÃ©
Ġly Å¾ovÃ¡nÃŃ
Ġtep lÃ¡
Ġtex tÅ¯
jÃŃ te
ĠEvrop skÃ¡
Ġdokon alÃ½
ĠÄįlovÄĽ kem
ste in
o xi
ĠlÃ©ka ÅĻskÃ©
Ġspoj en
ĠS loÅ¾enÃŃ
Ġ15 00
Ġproje vu
ĠnÃŃz kÃ¡
Ġnepat ÅĻÃŃ
ĠvÃ½ her
z ovala
ĠdÄĽ lo
on em
Ġzla ta
h ÅĻÃŃ
Ġpr Ã©
Ġpohyb ovat
Ġkom ory
ĠDalÅ¡ÃŃ m
Å¡i le
ĠA kadem
I X
ĠnÃ¡sle duje
Ġak cÃŃch
Ġco koli
ĠF lo
Ġ199 5
Ġvy povÄĽ
Ġturi stÅ¯
ĠsprÃ¡v nÃ¡
ĠneuvÄĽÅĻi telnÄĽ
ĠVÃ½ Å¡ka
ĠPÅĻi dat
ĠHra dci
ï »¿
ĠpÅĻiz nat
Ġpostup Å¯
ĠRo ck
ĠpokraÄį oval
Ġry tÃŃ
Ġ3 000
ĠpÅĻedstav y
ĠdokÃ¡ zala
Ġdr Å¾i
ĠÃºprav ou
S M
ch te
Ġvy da
Ġz hodno
ĠmÃŃst nÃŃho
ĠAn t
ĠKo lik
Ġprofe snÃŃ
Ġbezpro stÅĻe
prav it
ĠAmeri ky
Ġsamo sprÃ¡
ĠdÃ¡r kovÃ©
Ġkapacit ou
sk ut
li o
Å½ i
Ġlet ovi
Ġbo lÃŃ
ko lo
ĠpÅĻekvapi vÄĽ
j Äıte
ĠK al
Ļ ¥
at Ã©
Ġs rozumi
ĠcÃŃrke v
ĠVi deo
ĠD ÅĻe
ĠdoplÅĪ kÅ¯
ĠpÅĻedse dy
z Ã¡n
ĠZ pÅ¯sob
Ġji hu
D Ã¡le
Ġudr Å¾enÃŃ
ĠodbornÃŃ ci
ĠchÅ¯ ze
Ġ7 9
Ġmotor em
Ġh rou
ĠpÅ¯l no
Ġse stry
veden Ã©
g na
ĠspotÅĻe b
Ġzlat Ã©
ĠO na
ÄįÃŃ ho
OR T
ĠsouÄįas nÃ½
ĠS ig
Ġfilt ry
ĠS C
Ġcel Ã½m
ĠtÅĻi cet
a c
ĠumoÅ¾ ÅĪujÃŃcÃŃ
Ġra dostÃŃ
ĠnÃ¡ ru
E J
Ġpor ce
Ġ17 0
ĠodmÄĽ nu
Ġvo lit
ĠOb rÃ¡
Ġof f
la k
er t
ĠpÃ¡ du
ĠzajÃŃma lo
ä º
ĠbÄĽÅ¾ nÃ©ho
Ġa pa
ĠtÃ½dne ch
Ġfotoapa rÃ¡t
Ġ199 2
m ovat
ĠzemÄĽdÄĽl skÃ©
Ġ ~
ĠpÅ¯vo dnÃŃm
Ġpal ce
Ġve stavÄĽ
ĠÃ ¸
ĠpÃŃ Å¡u
lÃ¡ r
Ġspu Å¡tÄĽnÃŃ
Ġodpo ÄįÃŃ
ĠR an
fi ci
Ġlikvi daci
Ġk van
ĠEvro pa
Ġkvali tou
nat Ã©
Ġhasi ÄįÅ¯
lÃŃb il
ĠSever nÃŃ
Ġzapomen out
ĠzmÃŃ nÄĽnÃ©
st Ã¡t
Ġby zny
nu s
Ġob ÅĻÃŃ
ĠÄįer padla
ĠVy tvo
vo ÅĻÃŃ
n s
Ġvy su
ĠO ld
N ovÃ½
Ġpodnika tele
ĠA rt
lo gu
ĠloÅĪ skÃ©m
Ġne cÃŃ
ĠB ob
p roblÃ©m
ĠkrÃ¡t kou
Ġov zdu
ĠMo to
Ġzub Å¯
ĠMist rovstvÃŃ
i o
ĠF re
Ġsp ÄĽ
teÄį nÃ¡
Ġalkoho l
ĠpÃŃs nÃŃ
Ġpro Å¡el
is h
Ġul tra
ĠtrÃ¡ pÃŃ
ĠM ulti
Ġkon al
Ġin vali
ĠÃºspÄĽÅ¡ nÃ½
ĠstÅĻi h
Ġnut nÃ¡
Ġza pÃŃ
ĠumÄĽ lÃ©
Ġno cÃŃ
ĠtÅĻ inÃ¡
Ġst ali
ĠsÃŃ dlÃŃ
Ġsu k
ĠSt ro
Ġplat nost
ĠS O
Ġin formati
s vÄĽ
stÃŃ me
Ġo jedinÄĽ
Ġbateri ÃŃ
ĠD C
Ġfot ku
Ġkontro lou
lo stech
ĠLiber e
ĠK an
w ing
ĠvÃ½voj Ã¡
e jte
Ġkart ou
ĠC ro
ĠodbÄĽ ru
ĠÄĮ lÃ¡nek
Ġh ad
ĠZ mÄĽna
ĠtrÃ¡ vnÃŃ
ĠN ut
ĠL enka
Ġkla den
Ġtu rnÃ©
Ġk rav
ĠKla si
Ġkan Ã¡l
ĠtÄĽÅ¾ ce
ĠNa stavenÃŃ
ĠI D
ĠS ty
Samo zÅĻejmÄĽ
c ovÃ½ch
Å¡ ily
ĠobtÃŃ Å¾nÃ©
ĠveÅĻej nou
ĠG ab
ĠnechÃ¡ pu
ĠJiho morav
Ãº to
Ġz ro
ĠmÃŃst nÃŃm
Ġvy kou
ĠOn line
Ġse dÄĽt
Ġangli cky
ĠGe or
cen Ã©ho
Ġpo psat
Ġpi vovar
ĠanalÃ½ za
z Ã¡tor
Ġpneumati ky
ĠÃºsmÄĽ vem
ĠÃļ ste
Ġin du
s na
ĠzakÃ¡ zek
ani ce
ĠtÃ¡ bo
L Ã©
zra el
Ġfi x
ĠSt atutÃ¡rnÃŃ
kÃ¡ me
Ġexperi ment
mina ce
ĠspoleÄį nÃ½ch
ĠodpoÄį inku
Ġa ir
a j
S tu
ĠzaloÅ¾ il
Ġpane lu
Ġza bi
Å¾ÃŃ vat
ĠobjednÃ¡ vce
P G
ĠrÃ¡ mec
bav enÃŃ
Ġstro mu
ĠÃº vodu
ÅĻ eme
ĠO pe
te lu
ĠB et
ĠvteÅĻ in
Ġspl ÅĪuje
ĠPor no
Ġre spon
ci a
ĠpÅĻÃŃstup em
ĠKomi se
ĠzamÄĽÅĻ uje
Ġobrov skou
ĠtÄĽ lem
Ġplast ovÃ©
ĠposÃŃ lenÃŃ
Ġzkou Å¡ek
Ġan ga
hÃ¡ me
ĠÄįerven ci
ĠF ree
Ġkombina cÃŃ
ĠbÄĽÅ¾ nÃ½
ĠzÃ¡sob y
Ġservis u
ĠudrÅ¾ ovat
P rac
N B
Ġkr vi
, âĢ¦
n ovÃ½ch
... "
le ni
ĠkancelÃ¡ ÅĻi
Ġnapro ti
ĠSa mot
Äį kÃ¡m
Ġvy spÄĽ
Ġakti v
ĠvÄĽtÅ¡ÃŃ ho
S pe
ĠD ata
Ġpostav il
Ġse zonÄĽ
ĠuÄįi telÅ¯
ĠY orku
Ġaltern ativnÃŃ
ĠÅ¾ enou
Ġro h
Ġkon zo
ĠsvÃŃ tÃŃ
Ġkvali fikace
Ġk aka
Ġ {
ĠZ kou
Ġmuse jÃŃ
Ġmou ky
ĠobÃ½ vacÃŃ
Å¡ Å¡ÃŃm
ĠvnÃŃm at
Ġbr zo
ĠodpovÄĽ dÃŃ
Ġtable ty
ĠpÅĻek rÃ¡
Ġkompak tnÃŃ
Ġvr stev
Ġvla ku
ni ho
ĠPo tÅĻeb
ĠÅ¡a ch
Ġm zda
Ġty Äį
N ovÃ¡
ĠHla vnÃŃm
Ġled vin
ÅĻ ujÃŃ
Ġ9 8
Ġpo sa
Ġhladin u
Ġroz v
ĠÅ¾Ã¡ k
ĠpoÅ¾ad ovat
ĠpromÄĽ n
mÃ¡ ch
Ġde sce
Ġode vz
ĠlÃ©ka ÅĻÅ¯
Ġmet al
Å¾ al
Ġzob razit
lu k
Ġsil niÄįnÃŃ
ĠknÃŃ Å¾ky
Ġne w
ĠSo kol
d ovou
tÃ¡ ÅĻe
ĠuÅ¾ivatel Å¯m
H ra
ĠkÃ³ du
Ġpre ci
re en
Ġobec nÃŃ
Ġtypi ckÃ©
Ġu loÅ¾it
Ġ; -)
ĠoÄįekÃ¡ vÃ¡
Ġod bÄĽr
bo rat
Ġri sk
Ã© rem
Å¡i ce
Äįi tel
ĠVÃ½ bÄĽr
ĠvnitÅĻ nÃŃch
ĠnÃ¡ plÅĪ
ĠS obo
spÄĽ Å¡
ĠstÃ¡ r
ĠÅĻ as
ĠpohÃ¡ ru
ĠvÃ½mÄĽ na
ĠhlÃ¡ sÃŃ
ĠH motnost
ĠBe rou
Ġsto le
ĠnevÄĽ dÄĽl
Ñ Į
Ġjedin ce
c lu
Ġdost aly
ĠpÅĻedstav itel
Ġpodporu jÃŃ
ĠstÅĻe Å¡nÃŃ
sk lÃ¡
ĠÃº chy
ĠvÃ¡ ha
lÃŃ ku
Ġfyzi cky
ĠzamÄĽ ÅĻenÃŃm
Ġpoby ty
Ġhlubo ko
Ġa s
ĠTomÃ¡ Å¡e
ĠS dÃŃ
ĠpÄĽ Å¡ky
is ou
ĠÄįlen skÃ½ch
Kdy by
Ġpro zatÃŃm
ĠH us
Ġrecen zi
Ġ Å¡etÅĻenÃŃ
Ġoce l
ĠvlÃ¡ dnÃŃ
Ġla k
ĠC R
Ġna dÄĽji
di u
Ġdiva del
ÅĻen Ã©m
z oru
z vu
Ġinvest ovat
H P
Ġh rob
Ġpartner Å¯
P rÅ¯
Ġnej za
ĠpÅĻin Ã©st
ĠPÅĺ Ãį
ĠnÃ¡ro d
Ġhum or
ĠkvÄĽ ty
Ġpopis u
to Å¡nÃŃ
w ood
ĠN emo
ĠÅ¡kol nÃŃm
ĠpÃ¡ te
ĠVÃ½ roba
Äį ovÃ¡
le nÄĽ
ĠzvÃŃ tÄĽ
Ġna piÅ¡te
ste vnÃŃ
ĠbÃŃ lou
ĠvÃ½bor nou
ĠpÅĻe kladu
Ġv sa
Ġus mÃŃ
Ġjed enÃ¡ct
ÅĻ ov
Ġvy boj
Ġvy fo
Ġman Å¾ela
Ġkon ala
b on
di c
kraj in
ĠÃº tÄĽ
ĠdÄĽt skÃ©ho
z ne
Ġb lu
Ġstani c
ĠfanouÅ¡ kÅ¯
ĠV nitÅĻnÃŃ
ĠpÅĻizpÅ¯sob it
Ġslov nÃŃ
w al
prac ovÃ¡nÃŃ
Ġmo di
ĠzajÃŃ mat
es pon
Ġslab Å¡ÃŃ
N ic
Ġdosta teÄįnÃ©
si a
Ġne jednÃ¡
ĠTru mp
ĠdÄĽ lÃŃ
Ġmob ilu
Ġot ro
ĠZa ÄįÃŃ
dÄĽla la
Ġfakt ory
Ġtepel nÃ©
Ġste reo
Ġkone ktor
ĠC en
m or
dÄĽ lnÃŃ
ĠzÃ¡j mÅ¯
en ÄįnÃŃ
Ġovzdu Å¡ÃŃ
Ġnechce te
dar mo
ĠpÅĻednÃ¡ Å¡ky
Ġorigin Ã¡l
Ġproveden a
ĠvÃ½povÄĽ di
ĠAn ti
Ħ ¢
ĠBar to
Ġkou ÅĻenÃŃ
ĠC hla
Ġkro kÅ¯
ĠzajiÅ¡Å¥ ujÃŃ
Ġhla sit
MÃ¡ me
Ġod ve
ĠNem usÃŃ
Ġmanu Ã¡lnÃŃ
Ġop lo
Ġvzni kne
Ġre cy
Ġbohat Ã½
cen tnÃŃ
ĠBy ly
ch vat
Ġpoh ÅĻ
ĠzÃ¡va zky
ĠuÅ¡et ÅĻit
S tÅĻe
M u
ar s
ĠzaÅĻÃŃ zenÃŃch
Ġpod klad
Ġin gredi
Ġhoke ji
ĠNÃ¡ sle
Ġpoz vÃ¡
ĠzvÃ½ Å¡enÃ©
Ġch ov
ĠpÅĻiprav ena
Ġj deme
Ġves nici
Ġkvali fikov
Ġpra chy
Ġlo k
ĠpÅĻe konÃ¡
Ġodbor nÃ¡
Ġp si
Ġpro pad
ĠuÅ¾i teÄįnÃ©
ĠO ffice
pla tÃŃ
ĠvÃ½u ku
li p
Ġim pul
ĠvÄĽ Å¾e
ĠDob a
Ġset kat
ĠdÄĽla li
r in
m ato
ĠklÃ¡ ve
Ġvari ant
Ġpozor ovat
stu jÃŃcÃŃ
Ġroz hled
ĠJa b
Ġozna ÄįenÃŃm
ĠarmÃ¡ da
Å¾ to
Ġkone ÄįnÃ©
Ġvo lej
ĠC up
ĠvnitÅĻ nÃŃho
ĠliterÃ¡ rnÃŃ
ĠoznÃ¡ mil
ĠtÄĽ lu
ĠkupujÃŃcÃŃ mu
Ġg ala
ĠpÅĻede Å¡
ĠCh i
ĠZob razit
Ġpat ent
N ak
rÃ¡ la
ĠzamÄĽ ÅĻenÃ©
Ġru chu
ĠS W
ĠhlÃ¡ Å¡enÃŃ
Ġkan alizace
Å¾ nÃŃho
ĠvÃŃ Å¡
Ġ199 3
at ch
ĠnemÄĽ ly
Ġzapla cenÃŃ
Ġbud ovÃ¡nÃŃ
pevnÄĽ nÃŃ
Ġsubje kt
ĠÃº stnÃŃ
Ġu sil
ĠztrÃ¡ ta
9 7
Ġtra se
ĠsdÃŃ lenÃŃ
ĠÅ¡ ÅĪÅ¯
Ãģ T
st ovat
ĠGala xy
O sob
ĠjÃŃz den
Ġsta Äįilo
ĠPodob nÄĽ
Ã¡t Å¯
ĠumÃŃstÄĽ na
Ġsk lÃŃ
Ġpro dat
Ġnej sme
ku py
ĠrÃ¡ nu
ĠzakÃ¡ zku
ĠÅ¡ rou
Ġaler gi
Ġkapit Ã¡n
ĠpÅĻÃ¡tel stvÃŃ
tern ational
ĠvlÃ¡ dÄĽ
ĠprobÄĽ hl
le Å¡
ĠnÄĽ Å¾
Ġsebe vra
mÄĽ rech
ĠTele fon
Ġeviden ci
ch ali
ĠpÅĻÃŃ kladem
ĠE u
Ġpreven ci
Ġsoft war
ĠOS N
Ġo kouz
ĠOsob nÃŃ
ba rev
Ġopti mi
ÅĻ ina
Ġbr zd
ĠodehrÃ¡ vÃ¡
Ġspoluprac ovat
Ġsou dem
Ġuzav ÅĻenÃ©
Ġtvr dÃ©
ti Å¡tÄĽ
Ġramen o
Ġhlou b
Ġsle va
ĠÄįtyÅĻ mi
Ġ6 1
ĠdatabÃ¡ zi
Ġpal ub
tÃ¡ me
Ġv Äįer
ĠrozÅ¡ÃŃ ÅĻit
In formace
b ovÃ©
m eme
ĠnÃ¡ drÅ¾e
ĠpÅĻe ji
Ġabsol ven
bi Äįky
ĠHo dnÄĽ
ĠzaÅĻa zenÃŃ
O bec
Ġvan il
ha lo
Ġpi sto
Ġmini mum
sti k
Ġ: ).
Ġplo Å¡
Ġo tÅĻe
Ġf urt
": "
Ġz nÄĽ
ĠzvÃŃ tÄĽz
ĠBlue tooth
ĠW orld
Ġop er
k ing
Ġh al
ĠT wit
Ġpostup ovat
Ġsen zor
ĠvÃ½ch ova
ĠkÅĻÃŃ dla
l s
ĠzÃ¡vo dÄĽ
Ġod vez
Ġvide ÃŃ
ĠpÅĻi ÅĻa
loÅ¾ ka
Ġpova hy
Ġtelefon Å¯
ĠNa bÃŃzÃŃ
Ġvy plnÄĽ
ĠsÃŃ le
Ġkonce pt
Ġnarozen iny
ĠumÃŃstÄĽ n
ĠFinan ÄįnÃŃ
ĠsvÃ¡ tek
ziden t
Ġdiscip lÃŃ
vka mi
Ġrekre aÄįnÃŃ
Ġdo rt
ĠD ru
Ġ6 7
ĠpÅĻÃŃsluÅ¡ nÃ½
ĠÄįe tla
Ġdesig nem
A Å¾
Ġtou Å¾ÃŃ
dÃ¡ vat
ĠNÃ¡ vÅ¡tÄĽ
Ġva dÃŃ
v Ã¬
Ġ0 4
z la
Ġre levan
in Å¯
Ġz m
p ov
Ġdo chÃ¡
Ġpremi Ã©ra
Ġpodni ky
ĠÅ¾lu tÃ©
Ġobcho dech
Ġi dent
Å¡ skÃ©
Ġzna Äįkou
Ġni ÄįÃŃm
Ġ0 3
Ġdoprav nÃŃch
f ra
ĠÃºsmÄĽ v
ĠÄįe sky
ĠC P
ĠJa blo
ĠchÃ¡ pu
ĠotÃ¡ z
Ġzab rÃ¡
Å¾ bÄĽ
Ġpe ÄįenÃŃ
ĠU bytovÃ¡nÃŃ
Ġpas Ã¡
Ġobou stran
Ġjedin Ã©ho
Ġspravedl nosti
ĠD ar
Ġzauj me
ĠkritÃ©ri a
Ġohro m
st ovÃ¡nÃŃ
Ã© Ã©
nu lo
Äį ovÃ©
Ġsk rÃ½vÃ¡
Ġhotovo sti
ĠÄįemu Å¾
Ġgene raci
Ġvybere te
Ġ3 60
ĠpÅĻe zdÃŃ
ĠD N
Ġlokali ty
Ġvo lÃ¡nÃŃ
ali tu
Ġpoziti vnÄĽ
Ġpra chu
Ġstuden Ã©
Ġmo stu
lnÃŃ ky
Ġlisto pad
Ġ7 6
Ġh it
Ġva je
ĠF la
Ġpot re
Ġbar vi
ĠÃºpl nÃ©
Ġzach rÃ¡nit
ĠnÄĽjak Ã©m
Å¾ÃŃ vejte
ĠV rch
Ġ7 3
Ġsm s
Ġdo kola
Ġst ovek
ĠodpovÄĽ dÄĽt
ĠNAT O
Ġnav zdory
ĠMe xi
ĠÅ¡ko lou
ĠdÅ¯sled ky
Ġpor trÃ©
Ġob le
Ã ¯
nan Ã½
ĠdÅ¯vÄĽ ru
ĠvÄĽ dci
Ġpo bÃŃ
il le
ĠtÄĽÅ¾ kÃ½
Ġbyto sti
' '
Ġznamen at
Ġpod ÅĻÃŃ
ĠAlex an
Ġhasi Äį
Ġkabe lu
ĠmlÃ¡ dÃŃ
Ġauto ÅĻi
A Äį
Ġvol bu
Ġmob ili
et nam
Ġd re
Ġu Å¡i
ĠvlastnÃŃ kÅ¯
Ġanti bio
O G
ĠK vÅ¯li
Ġbak alÃ¡
Ġkla de
Ġkr vÃ¡
F ran
Ġ7 4
Ġspokoj enost
ĠshromÃ¡ Å¾dÄĽnÃŃ
ĠvÃ¡ hu
Ġvhod nou
D C
Ġot rav
ĠTÅĻe tÃŃ
Ġotev ÅĻel
Ġver zÃŃ
ĠsprÃ¡ vnÃŃho
z ovÃ¡
Ġzah rÃ¡t
ĠobÄĽ ti
z ovali
ĠS un
ĠnÃ¡ ma
z vy
Ġschop na
Ġry bÃŃ
Ġvy hodnocenÃŃ
Ġzas vÄĽ
Ġspecifi ckÃ©
Ġkor up
ĠSm art
ĠCh tÄĽl
Ġfo tka
ĠBy t
Ġpro ni
ĠMa gi
ĠnÃ¡stup u
ec t
p ty
Ġka ra
Ġko Å¡e
Ġbe rou
Ġde Å¡ti
Ġplno hodno
Ġkapit Ã¡l
Ġza z
ĠnÃ¡ vaz
ĠvÃ½ stavÄĽ
Ġnemo Å¾nÃ©
Å¡t iny
ĠvÃ½povÄĽ d
DÄĽ kuji
Ã¡t ra
ĠpÅĻesvÄĽd ÄįenÃŃ
Ġprodej nÃŃ
Ġcho ro
Ġodes lÃ¡nÃŃ
stu d
Ġspou sty
Ġjazy kÅ¯
ĠnÃ¡po jÅ¯
Ġrodi Äįov
ta j
Ġode jÃŃt
ĠrÅ¯z no
Ġsestav y
Ġmodu l
vÃ¡ r
Ġma pa
Ġsubje ktÅ¯
ĠSmlou vy
Ġvy kon
ĠDruh Ã¡
Ġpodla h
Ġjedno mu
log Å¯
ĠvlÃ¡ du
ĠpohÃ¡d ky
Ġza darmo
ĠpoÄį kat
ĠTechni ckÃ©
Ġvy chy
ĠS Ã¡m
Ġ0 6
ĠpÅĻÃŃ lohy
ĠJ UDr
Ġblo ku
Ġspolehli vÄĽ
ĠniÄįem u
D M
rov anÃ¡
v nÃ©ho
Ġpoliti ce
k nu
ti m
Ġ0 5
P rav
ĠTak ovÃ½
ĠnavÃ½ Å¡enÃŃ
ĠprÃ¡ vnÃŃm
Ġb eru
Ġnej sil
ĠPra hu
Ġ( +
sk al
Ġvi b
Ġpra vÃ¡
ĠHo me
ta huje
Ġdiva dle
Ġcent rem
jÃŃ ren
ĠuÅ¾i vateli
ĠnÃ¡ro da
Ġpo stÃ½
p nout
d ovÃ½ch
dÃŃl nou
tak Å¾e
vÃ¡ dÃŃ
Ġka me
ĠÃº loÅ¾
Ġus na
ĠHon za
F or
ĠJak Ã½
ĠrozhodnutÃŃ m
ĠÃº sek
Ġkole na
Ġter min
Ġ7 8
Ġstu d
ĠzÃºÄįast nit
Ġstruktu ru
Ġinteligen tnÃŃ
Ġznamen alo
ĠsignÃ¡ lu
Ġ199 4
Ġpomo ct
Äįa se
Ġob r
lÃ© b
Ġdce ru
si ve
por tu
ĠpÅĻÃŃ tele
Ã¡ rnÃŃ
du jte
ĠnÄĽme ckÃ½
Ġkon den
Ġvrch nÃŃ
F C
Ġposlou Å¾ÃŃ
ĠU P
ĠP ovin
ĠBude te
Ġna mÃŃsto
h nul
Ġka pu
S tejnÄĽ
Ġfotoapa rÃ¡tu
an ti
h aly
Ġkari Ã©ru
Ġob hÃ¡
ĠtÃ¡ bora
p ne
f m
E ÄĮ
Ġbe st
Ġprinci py
Ġpa liv
Ġvysoko Å¡kol
Ġt ry
Ġfilm ovÃ©
Ġzak ladatel
Ġblo k
Ġrezer vaci
mo no
sti tel
lou t
Ġ0 7
ĠpÃŃ seÅĪ
dÃ¡ n
ĠS at
Ġp ruh
ĠpÅ¯vo dnÃŃch
ĠKontak t
Ġten krÃ¡t
me ran
w p
Ġperson Ã¡l
b s
: -
Ġveletr hu
lan ce
U J
ĠD S
ĠÄįÃŃ nskÃ©
Ġnepo chyb
ĠmezinÃ¡rodnÃŃ ho
ĠoddÃŃ lu
Ġdo loÅ¾enÃŃ
ĠzvÃ½ raz
ĠNÄĽ kolik
Ġpsychi at
su dek
Ġfil tra
ĠProb lÃ©m
ĠF al
Ġinvesti c
ĠIzra el
ĠÅ¡ Ã¡
Ġusku teÄįnÄĽ
ĠpÅĻÃŃstroj Å¯
Ġs ny
Ġ9 6
ĠromÃ¡ n
ĠodbornÃŃ ky
Ġcestu jÃŃcÃŃ
ra lo
Ġu zdrav
ĠpÄĽk nÃ¡
Ġpod pis
ĠreÃ¡l nÃ©
ĠNÃ¡ sled
ĠHospo din
Ġf ou
Ġin tele
ĠpÅĻelo mu
ĠnÃ¡ poj
ct or
ĠÃº razu
Ġde sek
Ġdisku si
ĠB R
Ġkav Ã¡r
ĠrÃ¡ mu
Ġobslu ha
V Y
sk ak
Å¡e lo
bi ci
Ġspon zor
200 3
Ġlikvi dace
Ġz nova
Fo to
ĠPro sÃŃm
dÃ¡ vno
Ġi gno
gan tnÃŃ
ĠpÅĻÃŃÅ¡tÃŃ m
ÅĻi ch
ĠzpÅ¯sob enÃ©
ĠJ ez
Ġko Å¡
min ut
ĠztrÃ¡ tu
Ġslu Å¾ebnÃŃ
ĠpÅĻÃŃ klady
ĠvÃ½znam nou
Kar lovar
lov y
Ġobyvatel stva
Ġob klop
Ġnep ÅĻ
Ġod raz
ĠodpoÄį inek
Ġz poÄįÃ¡tku
Ġposkyt ovatele
ĠpouÅ¾ÃŃ vÃ¡me
Ġco okies
ma la
Ġne dÅ¯
Ġposlou chat
ĠK ON
ĠpÅĻiprav eni
ĠsprÃ¡ vÄĽ
Ġmikrov l
u li
ĠSt ru
d skÃ©
Ġja ra
ĠVe Å¡kerÃ©
Ġzb Ã½vÃ¡
ĠH al
len ce
Ġzastav enÃŃ
ĠspoÅĻitel na
z l
Ġtechni k
Ġkla vÃŃ
Ġperi o
ĠdruÅ¾ stev
Ġp alu
ĠD J
ĠSvobo da
Ġfyzi ckÃ½ch
ĠurÄį uje
Ġo pi
ĠzÃ¡ mÄĽru
Ġplo dy
Ġtrou by
Ġhlubo kÃ©
ĠPe ter
ma ci
Ġprovoz ovÃ¡nÃŃ
ĠnÄĽk Ã½m
Ġpl zeÅĪ
Ġh aly
vot ÅĻÃŃ
ĠLu bo
y o
ĠpÅĻÃŃÅ¡tÃŃ ho
ĠsvÄĽ tu
ĠKr kono
â Ĩ
Ġsp i
Ġod stoupit
A meri
Äįa stÄĽji
ĠnÃ¡m it
ĠsoustÅĻe dÄĽnÃŃ
Ġobvy klÃ©
Ġautor em
Ġins cena
ou cÃŃ
ĠM O
Ġza mÃŃt
Ġu ji
T S
av i
ĠB MW
ĠknÃŃ Å¾e
Ġsna hu
Ġindividu Ã¡lnÄĽ
Ġvybra li
Ġobdi v
Ġbo mb
e lekt
Ġv s
Ġdo rost
Ġveli tel
Ġspoko jen
Ġnedostat ky
Ġopu stit
ĠÃºdrÅ¾ ba
Ġobjev ily
Ġdovo lenÃ¡
ĠprimÃ¡ rnÄĽ
ĠpÅĻed stava
ĠsbÄĽ ra
Ġjedine ÄįnÃ©
N ynÃŃ
na je
tu ri
Ġh ar
lÃ¡ na
Ġdefin itivnÄĽ
Ġ196 8
po t
l ly
Ġroz k
Ġpan stvÃŃ
Ġkonce pce
ĠnÃ¡dob y
nÃŃ te
ĠK ing
Ġpla ch
Ġkoste le
ĠVÃ½sled kem
Ġ199 1
9 4
ĠzamÄĽstnan ec
ĠvzpomÃŃ nky
ĠH ro
ĠurÄį enÃ½ch
Ġpr st
Ġle m
ĠsÃŃ dla
Ġfyzi ckÃ¡
Ġse tr
t ori
slÃŃ te
Ġobchod ovÃ¡nÃŃ
ĠpÅĻe zkou
Ġvznik ly
an skÃ©
po dle
li jeme
ĠpoÅ¾Ã¡ ru
Ġpat rnÃ©
Ġse zenÃŃ
Ġkamen e
Ġpro tÃ¡
Ġde sÃ¡t
Ġko k
Ġnez Å¯
Ġsna ze
ĠZe jmÃ©na
hod il
ĠÄįes ne
tu be
Ġnapl nÄĽnÃŃ
ĠpovÄĽ st
Ġ !!!
ĠO pat
" )
ĠN P
Ġvyp lÃ¡
ĠpÅĻedpo klÃ¡dÃ¡
Ġin ovat
ĠCa non
ig ur
t nÃ¡
ĠÄįaso pis
ĠodstÃŃ n
ĠK ÅĻe
Ġsly Å¡el
Ġva Å¡ÃŃm
Ġle sÅ¯
Ty p
ĠzaloÅ¾ en
Ġcen nÃ©
ob ile
Ġde kla
ĠTÅĻe bÃŃ
Ġnes pl
Ġpo stÅĻe
P an
Ġpe pÅĻ
lu jte
Ġode sÃŃ
ĠzÃ¡sa h
Ġba ru
ĠM oni
ĠneÅ¾Ã¡dou cÃŃ
Pro to
ĠvÃ½ lu
Ġs kladu
ĠpÅĻÃŃÄį iny
ĠT our
fika cÃŃ
ĠK ru
Ġnem usÃŃm
mÃ½ Å¡le
ĠDÅ¯leÅ¾it Ã©
Ġpa le
Ġkot le
ĠPo ÅĻÃ¡d
ĠdÄĽt skÃ¡
ĠPar la
ĠlÃ© k
ĠpoÅ¾ Ã¡r
h m
tÃ½ kÃ¡
Ġdoz vÃŃ
Ġne cho
Ġ% )
ĠJa va
ĠÄįerven ou
ĠNÄĽk do
ĠvyÅ¡etÅĻ ovÃ¡nÃŃ
ĠvÃ½ klad
Ġklo bou
Ġv Äįe
ĠStar Ã©
ĠzÃ¡ bra
ra dÄĽji
ĠpouÅ¾it Ã©
Ġzobraz uje
ĠmanÅ¾el ka
Ġkredit nÃŃ
Ġza pis
9 1
Ġdo padlo
ĠM et
ri ka
Ġkategori ÃŃch
Ġdopad ne
Ġmez itÃŃm
in ter
ĠpapÃŃ ry
Ġpat nÃ¡cti
Ġz pe
pla n
Ġepi zo
ĠM ed
ĠzmÄĽ nila
Ġinspi raci
Ġh eb
StÃ¡ t
Ġt h
Ġmaji telÃ©
Ġg ri
Ġvybra l
ĠcÃŃ til
ĠpÅĻihlÃ¡ sit
Ã¡le Å¾ÃŃ
Ġh ale
Ġpat ÅĻi
ĠTe chnologi
v oru
ĠKvali tnÃŃ
m pa
ĠâĢ ļ
ĠzÃ¡sa hu
ĠvysvÄĽt lil
mati ckÃ©
Ġte d
ĠG er
Ġzb ar
ĠpÅ¯j Äįov
ĠZ noj
Ġer go
Ġodha d
Ġpo kli
Ġinfe kce
ĠvÃ½ hru
Ġfrancouz skÃ©
Ġcho le
Å¾ ene
A d
ÃĿ CH
sy cho
Pro dej
in nÃ©
ĠH ana
Ã³ zu
Ġutr penÃŃ
MÃŃ sto
ĠRa dek
ĠzÃ¡zna my
ash ing
o sob
Ġsurov iny
Ġhla sy
ĠdostÃ¡ vajÃŃ
G A
Ġsoft waru
Å¯Å¾ u
u er
Ġku ku
Ġservis nÃŃ
as Ã¡
Ġoch utnÃ¡
ĠFir ma
ĠpÅĻe je
Ġnej po
Ġ:- ).
Ġpodob nÃ¡
ĠnÄĽme ckÃ½ch
zd vi
Ġnut nost
ĠnÃ¡z vy
ĠdokÃ¡ Å¾ou
Ġml d
ĠN ovin
di ca
Ġz ÅĻiz
Ġtla kem
ĠSo ft
Ġza pÃ¡
ĠNe t
ĠKa men
Ġzlep Å¡uje
Ġdomlu vit
de ctvÃŃ
ĠvÃ½ Å¡ku
ĠRov nÄĽÅ¾
ĠJ em
cem Ã©nÄĽ
ĠnejkrÃ¡ snÄĽjÅ¡ÃŃ
ĠO proti
ĠzÃ¡ jezdu
Ġpobo Äįky
Z E
ĠE V
9 3
je v
ĠS IM
ç ¥
Ġpra sk
Ġsou rozen
Ġrekla mu
Ġz ko
Ġkade ÅĻ
Ġch ovatel
ĠkancelÃ¡ ÅĻÃŃ
âĢ¦ âĢľ
ĠstÃ¡ tÄĽ
ĠH um
Ġspokoj enÃ½
Ġne li
hl Ã½ch
Ġa teli
Ã¡ na
Ġplo chou
Ġmoti vem
ĠsluÅ¾ bÄĽ
Ġc ar
Ġstanov ena
Ġnavi ga
ĠMicha ela
Ġmet ra
ĠzkuÅ¡e bnÃŃ
Ġse kre
Ġdo spÃŃ
ĠU n
fi ciÃ¡lnÃŃ
Ġsubje kty
ĠNem ÄĽ
Ġor din
ĠpouÅ¾it y
liv Ã½m
To hle
Ġsta rou
Ġpouzd ro
Ġleti Å¡ti
ĠlÃŃ stky
hod it
s nou
Ġna r
dr Ã½
forma ÄįnÃŃ
Ġ8 8
Ġkoncent race
oprav dy
Ġje vÃŃ
drÅ¾e li
N ik
Ġkompati bilnÃŃ
ĠÃ Ĺ
Ġli dech
f ou
Ġfyzi ckou
ĠÅ¡ vÃ½car
ĠvyprÃ¡ vÃŃ
ĠskuteÄį nÃ½
Ġma Äıar
T R
Ġv Ã©
Ġla nov
Ñģ ÑĤ
Ġslad kÃ©
ĠuvÃ¡ dÄĽ
Ġnedostat ku
Ġne kou
Ġdota ci
Ġdvou lÅ¯Å¾
Ġopra va
ĠPod pora
ht ml
Ġdo ch
Ġko ÅĻeny
Ġdr Å¾enÃŃ
ĠÄĮeskosloven ska
ĠÄĮ EZ
ĠVlt avou
i zo
ĠO no
ĠvÃ¡ Å¾nÃ©
Ġkou pe
Ġintenzi vnÄĽ
Ġcyklu s
ĠPoli cie
Ġko pie
men tem
Ġpa cha
ĠuznÃ¡ nÃŃ
Ġkapit Ã¡lu
p sala
dÄĽli la
ĠdivÃ¡ ky
Ġre for
Ġpr vÃ©
ÄįÃŃ tat
Ġmateri Ã¡lem
ĠpovaÅ¾ uji
ho spo
ĠT vr
ĠzpÅ¯sob Å¯
Å¾ nostÃŃ
ĠBole slav
f an
ĠzaÄį le
a p
rÅ¯ stÃ¡
Ġte stÅ¯
Ġ ove
Ġser vÃŃ
d Ã¬
prÃ¡ ce
ĠN ova
T ER
ĠC it
ĠoblÃŃb enou
Ġdeko race
Ġupozor nit
ĠodliÅ¡ nÃ©
Ġnesku teÄįnÄĽ
Ġstro p
ĠE P
b Ã¡n
Ġpoko jÃŃch
Ġch aty
ri ÃŃ
rov er
zi i
Ġpravi dlo
do or
Ġbo Å¾
Ġopak ovat
Ġn Ã¬
Ġde nÃŃku
ĠfÃ³ lie
da ÄįnÃŃ
ĠlÃ©ka ÅĻem
ĠP am
â Ħ¢
Ġoby vatele
Ġu le
ĠVi z
ĠvÃ½znam nÃ½
Ġch rom
Ġle da
ĠdvanÃ¡ cti
Ġodol nÃ©
Ġlogi cky
Ġveli kono
ĠklÃŃÄį ovÃ©
ĠkonkrÃ© tnÃŃho
ĠpÅ¯sob i
ĠnÄĽkter Ã½m
Ġci rku
Ġchemi ckÃ©
sk et
Ġpolo hu
Ġner vy
ve Äįer
ĠIÄĮ O
Ġvelk Ã½mi
Ġper sonÃ¡lnÃŃ
ĠodmÃŃ tÃ¡
g res
Ġchemi e
so li
Ġzastav il
Ġfeno mÃ©
Ġrizi k
ĠÅ¡ ta
ĠÄį p
s che
Ġslou p
Ġma pÄĽ
Ġkou pali
Ġko hou
ĠodmÄĽ ny
ĠNÄĽm ci
p ress
Ġu cho
n ko
Ġprofe s
ĠpoznÃ¡m ky
Ġminu lÃ©
Ġkoncer tu
ĠnÃ¡ kladnÃŃ
ĠÅ¾en skÃ©
Ġtro ji
Ġdia be
Ġgrafi ckÃ©
Ã©ho Å¾
Ġzvy Å¡ovÃ¡nÃŃ
Ġpovin nÃ©ho
ĠÄįi p
Ġd Ã©m
Ġbyto st
ĠPo kraÄį
Ġto xi
ĠO pti
ĠjÃ¡d ro
Ġneur Äįit
rov Ã½m
Ġzelen inu
ĠzÃ¡sil ky
nut Ã½ch
Ġolympi j
ĠD vÄĽ
Ġni kam
ĠÄįÃŃ sle
ĠTe prve
Ġkapa citu
ĠudrÅ¾ uje
ri c
Ġdo l
ĠMo dernÃŃ
ĠnÃ¡ leÅ¾ÃŃ
Ġva ÅĻit
ĠÃļ ÅĻad
A p
im nÃŃ
Ġst rou
Ġradi k
Ġhodno tou
Ġkup ovat
ĠvÃ¡ hy
Ġokol nÃŃch
ĠLondÃ½ nÄĽ
k terÃ¡
Ġdi gi
ĠpotÅĻeb Ã¡m
Ġmuzi k
Ġch ovu
Ġchy t
Ġkomuni kovat
ÅĪ ovÃ¡
Ġves mÃŃr
ĠO de
Ġspoj it
Ġkov ovÃ©
Ġde bu
Ġjedine Äįnou
ĠO kres
ĠzÃ¡jem ci
St av
ĠSou ÄįasnÄĽ
ĠUniverz ity
Ġna stal
Ġpolo Å¾ek
Ġod su
Ġhou by
ĠhrÃ¡ la
4 00
ĠNa Å¡i
Ġtu k
ĠpÅĻÃ¡ tele
n kÃ¡m
O n
LA D
Ġu b
t ce
ĠvÃ¡ Å¾ÃŃ
Ġci vil
ĠtÄĽ st
Ġfor em
ĠvÃŃ ru
Ġstruktu ra
Ġpovrch em
Ġtva ro
Ġzkou Å¡ka
ĠsvÄĽ Å¾ÃŃ
ĠBu deme
Ġkoncer ty
ĠveÅ¡ke rou
tu rnÃŃ
lou p
ĠDi e
Ġdrob nÃ½ch
ĠznÃ¡m Ã©ho
Ġpa m
Ġhlou bky
ĠÄįas ovÃ©
lik vi
ĠJ er
ran nÃ©
Ġpoh ÅĻe
ĠC as
ĠLÃ© ka
ĠstÃ¡ vajÃŃ
ĠZ A
ĠbÃ¡ snÃŃ
ezi e
ĠvÃ½ le
ĠVlast nÄĽ
Ġd vÃŃ
ĠÄįast Ã©
Ġbi bli
ĠG rand
li ci
ĠvÃ½ skyt
Ġbrat ra
Ġkos mi
ĠÃº c
ĠpodÃŃ lÃŃ
ĠFran couz
nÄĽ nÃ½m
rke v
ĠNabÃŃ dka
ĠÅ¡i k
j du
ĠVÅ¡e obec
Ġcestov nÃŃho
ĠfanouÅ¡ ci
lo t
ĠdivÃ¡ ci
oni c
Ġpla ve
Ġsorti mentu
ĠZ droj
Ġprav dy
Ġori g
zi on
Ġmanipu laci
ĠpÅĻihlÃ¡ Å¡enÃŃ
ĠvÃ½sky tu
Ġplat nÃ©m
ĠPÅĻe devÅ¡ÃŃm
ĠRakou sku
Ġnes nÃ¡
vova ru
ĠmÃŃst nostÃŃ
Ġrevolu ce
ĠsÃŃtÃŃ ch
z ak
d Ã½ch
le ze
Ġkombin ovat
Ġnejv hodnÄĽjÅ¡ÃŃ
ov ec
ĠU vi
Ġto tÃ©Å¾
Ġ8 2
Ġp Å¡eni
z an
z rak
e li
Ġnov inÃ¡ÅĻ
ĠC al
Ġbo jÃŃ
Ġro m
ĠJi stÄĽ
ĠzÃ¡ znamu
Ġko Äįka
d kou
Ġcen ter
ĠPan ny
ĠÅ¡ pin
ĠÅ¡ pe
ĠÃ¨ okolÃ¡
Ġpod pisu
hÃ¡ nÄĽ
ĠNe vy
ĠpÅĻed chÅ¯
Ġkatast ru
Ġj ar
Ġdostup nÃ½
Ġnej mlad
Ġdr ti
ĠoblÃŃb enÃ¡
Ġautobu sem
Ġrov inÄĽ
du ji
Ġvy rovnÃ¡nÃŃ
Ġod v
ĠvyÅ¾a dujÃŃ
ĠpenÄĽ Å¾en
Ġtva ry
Ġu klÃ¡dÃ¡
Ġna razÃŃ
d cÅ¯
Ġci zÃŃch
ĠNa u
ĠpouÅ¾i jte
ĠCh ru
Ġve ÄįÃŃ
ĠlÃ© ÄįenÃŃ
ĠKo ste
ĠzÃ¡vÄĽre ÄįnÃ©
sahu jÃŃ
ĠpÅĻÃŃ mÃ½
Ġtre stu
A F
ĠSloven ska
Ġpat ÅĻil
Ġjem u
ĠtermÃŃ ny
ĠpoÅĻa d
hra niÄįnÃŃ
Ġ qu
Ġna mÃ¡
lÃŃ ka
ĠJ on
Ġkonzul tace
ati ckÃ½
ĠpÅĻÃŃjem ce
s se
Ġne di
Ġu tÄĽ
Ġpobo Äįka
ĠPol sku
Ġsty lem
ĠE m
Ġkr k
Ġbon b
ĠprÅ¯myslov Ã½ch
ĠPou Å¾itÃŃ
ĠvÃ½rob nÃŃch
ĠÅł K
ĠrÅ¯Å¾ ovÃ©
Ġtvo je
Å¯Å¾e k
Ġdi vit
Ġrespe ktu
ĠÅ¡iro kÃ¡
Ġo heÅĪ
Ġma pu
Ġvyp oved
Ġo hla
Ġdisple ji
lÃŃ Äįek
ĠpÃŃs niÄįky
Å½ e
Ġv ou
Ġ24 0
Ġzahra d
Ġmimo chodem
Ġsil nic
Ġbav l
Ġo lomou
Ġre sor
Ġ4 50
ĠrÅ¯z nÃ½m
Ġpodez ÅĻe
Ġztra til
Ã ²
ĠÃºto ÄįnÃŃ
ĠvÃ½ poÄįet
ĠSÃ¡ zavou
Ġsle v
Ġmedi Ã¡lnÃŃ
Ġtra tÃŃ
ĠpÅĻiprav ila
ĠotevÃŃ rÃ¡
her e
Ġji sti
nou cÃŃ
Ġproblemati ku
k lost
ĠTÃ¡ bor
Ġlep Å¡ÃŃm
ĠzaÅĻa dit
de te
ĠpÅĻÃŃprav kÅ¯
Ġtradi ÄįnÃŃch
Ġpa se
Ġza bud
Ġt or
Ġod kazu
Ġsklad ovÃ¡nÃŃ
ĠsvÄĽt ovÃ©ho
ĠnakrÃ¡ j
ĠJaro slava
Ġs Ã¡l
ĠpÅĻi stÃ½
ĠÅ¡ le
ĠpojiÅ¡Å¥ov na
ĠotevÅĻ enÃ½
Ġklasi ckou
Ġakti vitu
ĠÅĻidi Äįi
c le
Ġnep Å¯j
va cÃŃm
ĠE C
Ġoz broj
Ġch ÅĻi
Ġle ktor
Ġstudi jnÃŃ
Ġsrde ÄįnÃŃ
Ġkontro lovat
Ġvysa vaÄįe
ĠO ut
Ġmot ori
Ġz hub
ĠMu Å¾
ĠÅł a
Ġkultu rnÃŃho
Ġ ]
ĠZÃ¡ vÄĽ
stup u
Ġbohat stvÃŃ
ĠSpoleÄį nÄĽ
ĠprodÃ¡vajÃŃcÃŃ m
ĠPo ji
Ġ Ã©
Ġ Ä
ĠprohlÃŃ dku
T U
ĠvÃ½ch od
ĠF B
ĠDoporuÄį ujeme
t ari
ĠÅĻeditel ka
ĠIn ternational
Ġ @
Ġozna Äįuje
Ġjakou koliv
Ġdo opravdy
Ġjak si
stÅĻe l
Ġhub nutÃŃ
Ġs ci
Åĺ Ãį
Ġk lep
ĠDo poru
ĠzabÃŃ t
ĠÅ¡pat nÃ¡
ĠÄįlen skÃ©
pa cita
f tu
ĠRich ard
ĠvrÃ¡ tili
ĠpoÅ¾adav kÅ¯m
Ġproje vÃŃ
ĠJihla va
ĠÅ¡ t
ĠzÃºÄįast nili
ĠpÅĻÃŃ loze
Ġautomob ilu
ĠMla dÃ¡
Ġroz hla
nov Ã½m
ĠVe ÅĻej
ĠPÅ¯ vodnÃŃ
ĠÅ¾ivo ty
ĠM alÃ¡
Ġzapla tÃŃ
ĠupÅĻÃŃ mnÄĽ
Ġd no
Ġhle dÃ¡me
ĠÃº le
Ġ12 00
ĠnejdÅ¯leÅ¾it ÄĽ
Ġposta rÃ¡
ĠOstat nÄĽ
Ġgen er
Ġrozli Å¡enÃŃm
Ġsem inÃ¡ÅĻ
ĠÄįas ovÄĽ
Ġlegen dÃ¡rnÃŃ
/ .
Ġslu Å¡nÄĽ
ĠL as
ko moti
ovnÃŃ kÅ¯
Ġu krajin
ĠdÄĽlÃ¡ me
bo ard
ĠCh ce
T Äļ
Ġupozor ÅĪuje
ĠtiskÃ¡ rny
ne sla
Ġtu kÅ¯
ĠzveÅĻej nÄĽnÃŃ
Ġagre si
Ġdetek ti
Ġh ovÄĽzÃŃ
Ġpe kÃ¡
ĠstÅĻe d
Ġorienta ci
ÅĪ ovacÃŃ
A Å¥
ĠvzdÄĽlÃ¡va cÃŃch
rati on
m ont
ĠuÄįin it
b Ã¡t
ĠG lo
ĠstÄĽ n
ct vo
z r
ku jÃŃcÃŃ
ĠurÄį eno
Ġsamot nÃ¡
ĠB lÃŃ
z nÃ©
cent rum
Ġpra ha
ĠKa pit
i dy
Ġkle sÃ¡
Ġkonzu lt
ĠsdÃŃ let
Ġt k
Ġfinan c
ĠstÄĽ nu
Ġhudeb nÃŃch
ku pe
ĠseznÃ¡ mÃŃ
ĠM HD
bu rk
Ġdez in
J an
ĠP le
Ġnetra diÄįnÃŃ
Ġprakti ckÃ¡
Ġanti oxi
Ġu kra
Ġs at
Ġf arma
ĠangliÄįt inÄĽ
ĠK el
ĠpÅĻÃŃsluÅ¡ nÃ½ch
ĠsoustÅĻe dit
ĠzÃ¡ru ka
d anÃ½ch
Ġs pad
ĠAl p
Å¡ ou
Ġnefun guje
ĠObec nÄĽ
Ġdat ovÃ©
Ġatra kti
ĠÄĮe chÅ¯
Ġli nku
Ġperspe kti
ĠÃº hlu
Ġpr stÅ¯
Ġr enes
Ġbu bli
ĠSy n
ĠNÃ¡ plÅĪ
Ġpolov i
Å¾i votnÃŃ
ĠpÅĻi chÃ¡zejÃŃ
Ġole jem
w ork
sle chu
Ġpa peÅ¾
ĠA D
Ġna klÃ¡dÃ¡nÃŃ
zÃ¡ kon
ĠZku ste
Ġv iny
Ġre f
ĠseznÃ¡ menÃŃ
Ġk ve
ĠVeli kono
ĠN isou
Ġpostav en
k rov
ĠpÅĻedpo kladu
Ġsk rz
? )
ĠnavÅ¡tÃŃ vili
ĠÄĮÃŃ ny
ĠpraÅ¾ skÃ©m
Ġvyu ÄįovÃ¡nÃŃ
ĠH C
ĠpovaÅ¾ ujÃŃ
ĠuÄįi telÃ©
Ġkonf li
ma g
Ġslov em
k nutÃŃ
ĠPol ska
Ġna mÃŃ
ĠnÃ¡ stÄĽ
j tu
Ġochra nou
Ġsig nali
Ġbez problÃ©m
dÃ¡ nÃŃm
N ovÃ©
va ÄįÅ¯
Ġspoluprac uje
in ve
ĠR en
Ġvla kem
ovnÃŃ ci
RO V
ĠKaÅ¾ dÃ©
ka nÄĽ
ĠHodno cenÃŃ
ĠB at
ĠKarlov ar
ĠpodÃŃ vÃ¡me
Ġpou Å¡tÄĽ
Ġli be
ĠvaÅ¡em u
te o
M C
kov anÃ½ch
ĠpÅĻi pa
Ġmi le
Ġna vo
ĠA c
ĠÄĮer nÃ½
ĠpÃ¡r ty
ĠnÃ¡ lez
ĠzÃ¡ lohy
ĠBo hem
E F
Ġnes mÄĽ
bÄĽ hl
ĠN ovÃ©ho
ĠmilovnÃŃ ky
Ġve terÃ¡
ĠÄįer padlo
ĠL inu
Ġdo kladÅ¯
hlÃ¡ sit
ĠpÅĻedpo klady
ĠExist uje
ĠS ec
Ġide Ã¡lnÄĽ
Ġpoku sy
ĠspotÅĻebi tele
ÃŃ nka
Ġhor kÃ©
c ore
Ġu n
Ġprav Ã©m
ĠZ o
Ġvrace t
ĠpotÅĻeb oval
ĠÄįer pÃ¡nÃŃ
ĠnÃ¡ vodu
rÃ¡ til
ZatÃŃm co
ĠzÃ¡ pad
Ġmas ivnÃŃ
n ovou
Ġspor ty
Ġni Äįeho
ch vÃ¡
Ġkou pÃŃ
V Å¾dy
ho l
ĠÅ¾i jÃŃcÃŃ
Ġdce ry
Ġjazy kovÃ©
ĠpÅĻije l
ĠvÄĽde ckÃ©
Ġvy jednÃ¡
ĠprÃ¡v nickÃ©
ch emi
Ġpro hlÃ©
j ka
Ġs nÅ¯
Mo c
Ġko stÃŃ
tnÃŃ kÅ¯
ĠRE AG
ĠP el
ĠvÃŃ cemÃ©nÄĽ
tickÃ© m
Ġadre sÃ¡
Ġnezi sk
Ġz Ãº
ĠCh tÄĽla
Ġb ob
ĠznÃ¡ zor
// //
Ġzhot ov
po st
Ġz moc
ĠmÄĽst skÃ©ho
ĠkupujÃŃcÃŃ m
Ġturna ji
n ovÃ©ho
ĠpoÄįÃŃta ÄįÅ¯
ĠsloÅ¾itÄĽ jÅ¡ÃŃ
Ġspolu Å¾Ã¡
Ġkor espon
Ġuchaze Äįe
ĠFun kce
Ġzna jÃŃ
ĠpoÅĻa datel
ĠÅ¾Ã¡ dÃ¡
Ġkor po
liv Ã©ho
Ġk ori
ĠUni vers
ĠklÃŃÄį ovÃ½ch
Ġsv i
stav ba
Ġuzav ÅĻÃŃt
v nice
ĠT H
ĠREAG OVAT
k ÄįnÃŃch
Ġvy vinut
Ġv loÅ¾it
Ġob ory
ĠspÃŃ na
Ġstou pÃ¡
Ġm isi
ĠÃºvÄĽ ry
z on
By la
Ġza sla
rob nÃŃ
Ġspo lÃ©
Ġmeto du
C ena
ĠvyrÃ¡bÄĽ t
ĠnÃ¡sle dek
Ġ9 2
ĠGre en
ĠjÃ¡d ra
Ġti cho
ĠÃºspÄĽ chy
Ã¡ ny
ĠkrÃ¡ su
ÄįÃŃtÃ¡ nÃŃ
re jte
ĠspoleÄįen skÃ½ch
Ġknihov nÄĽ
ĠvÃ½cho zÃŃ
ĠpÅĻekon at
Ġhu sto
ĠpovÃŃ dky
ã Ģ
ÄįÃ¡ tek
Ġnece lÃ½ch
Ġprovo zuje
Ġvz dÄĽla
ĠnÃ¡ro dÅ¯
ĠdozvÄĽ dÄĽt
Ġdobrovol nÄĽ
ĠNej vÃŃce
ĠAÄį koliv
t Ã½ch
za i
Ġzach ovat
Ġjazy ky
ĠBu du
fi ckÃ©
ĠOb Äįan
Ġvy hot
p nutÃŃ
Ġop ou
Ġze sil
Ġodva hu
Ġz vaÅ¾
D Ã¡m
ho st
ĠpÅĻij al
Ġobra nu
Ġst Ã©
Ġital skÃ©
Ġcivili zace
ĠudÄĽlÃ¡ m
Ġly m
z ovÃ¡n
g Ã©
Ġpodrob nosti
Ġmy tÃŃ
Ġproblemati ce
ĠdospÄĽ lÃŃ
ÅĻi zovÃ¡nÃŃ
Äįin ky
Ġnej moder
Ġam bu
ĠLe o
Ġp av
Ġze sÃŃ
ĠVÃŃ tÄĽz
Ġnoha ma
Ġne leg
g as
Ġsamot nou
Ġjas no
ĠN ovÄĽ
dru Å¾enÃŃ
Å¡k rÃ¡
ce pt
ĠzvÃ½ Å¡ÃŃ
Äį ovacÃŃ
Ġkou le
Ġostrov y
Ù Ħ
Ġmy Å¡i
ĠK L
tÃ¡ t
Ġzre konstru
Ġroz vod
Ġobdr Å¾el
ĠveÅ¡ke rÃ¡
Karlovar skÃ©
da y
Ġnev Å¡im
Ġch roni
Ġa fri
Ġreag uje
Ġcertifi kÃ¡t
ĠspoleÄį nou
Ġvzni knout
li g
Ġpojist nÃ©ho
Ġkomfor tnÃŃ
Ġb el
ĠnÃ¡ro ÄįnÄĽjÅ¡ÃŃ
ch ova
Ġjesky nÄĽ
ĠzÃŃsk anÃ©
ĠzÃ¡ liv
T ÃŃm
ĠnabÃŃ jenÃŃ
ĠÐ ¿
ĠÅ½i vot
ĠmedicÃŃ ny
Ġu kry
Ġpaci enty
Ġna stoupil
sti ÄįnÃŃ
ĠEuro pe
Ġdota cÃŃ
ĠlhÅ¯ ta
Ġrepubli ku
Ġho re
ĠpÅĻine sla
Ġvy ko
ÅĻÃŃ ÄįÃŃ
Ġsto pro
Ġkou t
Ġkost Ã½m
ĠpÅĻÃŃ chu
Ġh el
Ġopak ovÃ¡nÃŃ
ĠpÃ¸ e
Ġakti vi
ve ÅĻej
ĠpÃŃ t
ĠmusÃŃ Å¡
Ġen zy
Ġpohybu jÃŃ
te Äı
ĠparÃ¡ dnÃŃ
O ri
ĠVyso kÃ©
zi lo
199 2
ĠZÃ¡ ru
ĠzmÄĽ nÃ¡m
ĠumÃŃstÄĽ ny
ĠRu dolf
Ġsymbo lem
Ġjedine ÄįnÃ½
ĠhnÄĽ dÃ©
ĠotevÅĻ enÃ½ch
Ġmoder nÃŃho
Ġd Å¾ÃŃ
Ãģ N
Å¾a duje
Ġbyt ovÃ©
Ġsa du
Ġe volu
Ġkli enti
ĠpodÃŃ vejte
ĠpraÅ¾ skÃ©ho
Ð ²
ĠstrÃ¡ vit
ĠkvÄĽt iny
lÃ¡t ory
ÅĪ Ã¡k
S k
ĠvÃ½z vu
Ġu klÃ¡dÃ¡nÃŃ
ĠÃº mysl
Ġelektroni ckou
ĠzÃ¡ ku
ĠangliÄįt iny
Ġe ti
âĢľ ).
ĠdÃ¡l nice
ĠKraj skÃ½
Ġod hal
ĠstÅĻe t
ĠPÅ¯ vodnÄĽ
Ġo ny
ĠPostup nÄĽ
ĠJ ane
ĠmÄĽk kÃ©
Ġhy bri
Ġnau ÄįÃŃ
ĠupÅĻÃŃ m
sÃ¡ n
Ġbav lnÄĽ
Ġvody KarlovarskÃ©
hi te
Ġome zit
F S
Ġf igur
ĠkrÃ¡ de
Ġpou kÃ¡
ĠoblÃŃb enÃ½ch
ch ovÃ©
Ġpa st
ĠÅ¡ko lky
ĠL ho
ĠzaÄįÃŃ najÃŃcÃŃ
ĠpÅĻÃŃ chodu
Ġprav dou
Ġodst art
Ġpo rÃ¡Å¾
nÃ¡ me
Ġtabu lka
Ġsta letÃŃ
ĠSt re
Ġsa chari
Ġsto jÃŃcÃŃ
Ġdr Å¾el
Ġpo psal
ĠÅĻek nu
dr Ã©
Ġmet ru
Ġk ina
Ġkomp lika
zi st
Ġza stoup
Ġpod tr
Ġkomp romi
ĠNe o
Ġva d
kvali t
Ġro st
ĠPl znÄĽ
Ġpoch lu
Ġdesig nÃ©
Ġdoprovo du
ĠpÃ¡t Ã©
Ġbli Å¾Å¡ÃŃ
ĠpÅĻÃŃbÄĽh Å¯
Bo huÅ¾el
Ġsportov nÃŃho
ĠMo st
Ġstav y
le nÃ½m
ĠmÃŃ ÅĻÃŃ
Ġobje vovat
ĠNÄĽ jak
ĠpÅĻi dÃ¡vÃ¡
Ġna roz
Ġus ly
Ġevrop skÃ©ho
Ġmanagem entu
Ġhasi Äįi
ĠpÅĻi loÅ¾
l Ã³
Ġpolici stÃ©
o ÅĻi
Ġzdo kon
tÄĽ nÃŃ
ĠLe h
Ġkvali tnÃŃm
Ġpo klÃ¡
Äį le
Ġsta Äįit
ĠodmÃŃt l
ĠpÅĻedstav ila
Ġu ce
ĠstÃ¡vajÃŃcÃŃ ch
ĠKon krÃ©
Å¾ÃŃ Å¡
Ġkvali t
Ġstu dovat
ĠPo dÄĽ
Ġdob Ã¡ch
Ġodol nÃ½
S c
Ġsamostat nÃ½
ĠzÃ¡ko nÃŃk
ko stÃŃ
Ġmen Å¡ÃŃm
Ġhlad kÃ©
Ġko tel
ĠDo prava
ĠaÄį koli
Ġ8 4
VÄĽtÅ¡ ina
ĠT ÅĻ
Ġvz ali
Kni ha
ĠscÃ© nu
ĠvojÃ¡ ci
ĠkalendÃ¡ ÅĻe
Äįen Ã½m
ĠvyloÅ¾ enÄĽ
S u
... )
ĠtrenÃ© ra
Ġpoli cii
Ġtra su
bra la
Ġmeda ile
Ġsluch Ã¡tka
ĠsplÃ¡ tky
Ġvz oru
ĠsvÃŃ Äįky
j nÃŃm
ĠdÃŃtÄĽ tem
Ġdiag n
Ġex pon
ĠskuteÄį nostÃŃ
ĠpÅĻi bÃ½
ĠÅ¡e dÃ©
ĠA hoj
chÃ¡ zÃŃm
dle nÄĽ
Åĺ ÃŃ
fo j
ĠB ak
Ã¡le ch
Ġdi men
ĠvÃ¡l ku
S lu
Ġex teri
hled at
ĠOstrav y
sa ÅĻ
Ġob leÄį
Je den
ĠklÃ¡ves nice
Ġdruh Ã½ch
Ġvl na
Ġtr zÃŃch
Ġtroj Ãºhel
Ġzje vnÄĽ
i re
Ġnad standar
ĠvÃ½bor nÃ¡
Ġtechni kou
Ġkri zi
Ġw ith
Ġadminist rativnÃŃ
Ġpod klady
b ezpe
p tÃ¡
Ġnapa den
sko Äįil
DÄĽ t
Ġlid skÃ½
Ġnote booku
ĠT O
Ġbo Å¾ÃŃ
ta m
Ġchla zenÃŃ
ĠÅ¾en Ã¡m
Ne vÃŃm
ĠzastÃ¡ vka
Ġpa dl
ven ÄįnÃŃ
Ġro py
Ġka ple
ĠprÅ¯ hled
A h
ĠPravi del
ĠhÅĻe b
Ġproti vnÃŃ
Ġs nu
Ġpot r
Ġnap ovÃŃ
ĠD NA
ĠprohlÃŃ dka
Ġble sk
da s
M ar
jo f
Tak y
Ġtrval Ã©
ĠvÃ½cvi ku
Ġfaktor Å¯
Ġnov inek
Ġbyt ovÃ½ch
ĠvnitÅĻ nÃŃm
Ġoprav it
cy klo
Ġodbor nÃ©ho
Å¡e ÅĪ
Ġa sociace
m s
lÃ¡ rnÃŃch
ĠÄįe kali
Ġkov Å¯
ĠkÅĻe h
Ġkapito ly
Ġproces or
ĠvÃ½mÄĽ ny
Ġo so
ĠY ork
tu re
Ġplast u
ĠRo k
ĠVel kou
Ġga rÃ¡Å¾
Mi mo
Ġekologi ckÃ©
Jestli Å¾e
ĠodpovÃŃ dajÃŃ
ĠprobÃŃ hajÃŃ
ob chodnÃŃ
Ġd vor
ĠJe se
ĠnÃ¡ drÅ¾
ĠpÅĻi jÃŃmat
Ġkompon enty
A utor
ĠzaloÅ¾ enÃ©
ĠpÅ¯sob nosti
SS R
ati ckÃ¡
Ġpot Ã½
ĠCel kovÄĽ
Ġs lit
ĠkoleÄį ka
ĠbÃŃ lÃ©ho
ĠDob ÅĻe
Ġp ilÃŃ
Ġjazy kem
ĠvÃ½stup u
Ġpenzi onu
Ġzas lat
p eri
Ġvla s
P i
Ġzim nÃŃch
Ġaktivit a
ĠchrÃ¡ mu
Ġot vÃŃ
Ġpo mÄĽry
b ran
ĠsvÃ¡ tky
li ly
ĠK lo
ĠJi ÄįÃŃn
Ġf lo
Ġo ÄįnÃŃ
ĠSpoj enÃ©
l nÃ½
p nÃ©
q pk
Ġdo cÃŃ
je fm
Ġho ÅĻe
pom jof
jtu foj
qpk jtufoj
jefm pomjof
qpkjtufoj wp
c ing
ĠbezprostÅĻe dnÄĽ
ĠS Åł
Ġt Ã³ny
ĠS pa
ĠpÃŃ se
Ġpartner stvÃŃ
Ġkapit ali
St ar
Ġab sor
Ġlib ovo
Ġhum an
ni s
Ġjednoduch ou
i telÃ©
Ġvz pomen
pi ÃŃ
201 9
t ing
en skÃ©
ĠS S
pe ty
Ġvybra la
Ġkapito la
Ġhistori ckÃ©ho
ĠpÅĻÃŃ platek
ĠjakÃ© si
ĠBu Äı
ĠmÄĽst skÃ½ch
Ġpo hl
ĠelektrÃ¡ rny
E lekt
mÄĽ ÅĻi
ĠpÅĻi Å¡ly
Ġpla vky
z ovÃ¡ny
Ġposti Å¾enÃŃ
ĠpohledÃ¡ vky
Ġakadem ie
ĠÄįtver e
p enÃ©
ĠPoÅ¾ad avky
V ol
Je din
Ġpomo hla
sti e
ĠV I
Ġpru Å¾
å ı
Ġnevy hov
ch roni
ĠovÄĽ ÅĻit
ĠElekt ro
Ġc lou
lo ga
ĠodpovÃŃ dat
Ġope racÃŃ
ĠPu bli
ĠPÅĻe snÄĽ
Ġch or
Ġkabe lky
Ġme ga
Ġmali Äįko
Ġroz va
Ġinter nÃŃ
Ġba re
to le
last nÃŃ
Ġma g
Ġje zÃŃ
ĠBene Å¡
ri um
Ġ ÄĽ
Ġno hu
ĠnÃ¡rodnÃŃ ch
ĠzdÃ¡n livÄĽ
Ġb ÅĻem
Ġnepo tÅĻebu
la na
Ġdo pravÄĽ
Ġpou Å¾il
ĠpovaÅ¾ ovÃ¡n
Ġpev nou
Ġsoupe ÅĻi
ĠM r
Ġzak o
Ġ: (
Ġangli ckÃ©
ĠNa jdete
pÅ¯ r
Ġturi sty
smÄĽ nnÃ½
ĠÄįe Å¡tÃŃ
Ġschval uje
Ġco m
1 50
Ġcen ovÄĽ
ĠVÃ½ voj
Ġ12 8
an ty
ĠZ la
ĠÄĮe ska
Ġvysky tujÃŃ
ra s
ĠKa tegorie
rak teri
ĠmÄĽste Äįka
ĠB it
ĠprojednÃ¡ nÃŃ
ĠpraÅ¾ skÃ½ch
ĠzvÃ½ Å¡enou
ĠÅ¾ada tele
ĠM T
ĠzÃ¡ru ÄįnÃŃ
ĠPaÅĻÃŃ Å¾i
Ġt Ã©hoÅ¾
Å¡ti vte
Ġob jas
Ġe s
pravi del
ĠAB S
ob chod
Ġm ari
Ġnej sla
Å¾ÃŃ vÃ¡m
Ġklub Å¯
ĠÄįe kÃ¡nÃŃ
Ġt rÅ¯
tnÃŃ ky
ĠtÅĻet iny
ĠÅĺ i
ĠBan k
M B
ĠÃº hel
iki pe
pu j
vÄĽ jÅ¡ÃŃch
Ġdi vu
ĠÄįet l
Ġu tek
Ġmen stru
ĠE liÅ¡
s nÃ½ch
ĠpovÄĽ domÃŃ
ĠpronÃ¡ sled
Ġbo dem
Ġuli cÃŃch
Ġnemu sel
Ġt ruh
Ġte ple
Ãģ V
Ġskon Äįilo
Å Ĥ
Ġkata logu
Ì ģ
ĠÅłko lnÃŃ
prav nÃŃ
Ġsp oru
ĠC hrÃ¡
za du
Ġuspo koj
tÅĻe bi
B r
Ġekonomi ckÃ½ch
ĠvÃ½cvi k
ka ma
Ġrelax aÄįnÃŃ
Ġkou tem
Ġzvy klÃŃ
Ġnas lou
lep ky
ĠpozdÄĽ jÅ¡ÃŃ
ĠobÄĽ Å¥
ĠKur z
Ġzv on
Ġpoj my
Ġpodrob nÄĽ
ĠStÅĻe do
Ġdo kladu
lost nÃŃ
Ġka mi
ty ÅĻ
Ġvla sti
ĠpÅĻÃŃ telem
ĠvÅ¡eobec nÄĽ
ak tu
z ol
Ġn eno
ĠPS ÄĮ
dr ena
Ġvy pÃŃ
Ġtvr dÄĽ
Ġmlu vil
ĠzbyteÄį nÃ©ho
Ġ7 50
Ġna podob
sled ky
z Ã¡m
ĠS mÃŃ
te st
ĠÃº kli
hlÃŃ Å¾et
Ġdi vize
ĠAngli e
Å¡k rt
b re
chÃ¡ze ly
Ġinve sto
ro sta
ĠnejlepÅ¡ÃŃ ho
lou Å¾ÃŃ
Ġklasi ckÃ¡
Ġvylou ÄįenÃŃ
Ġrecep tu
ĠD el
Ur ÄįitÄĽ
O ST
ĠP Ã¡r
ĠpÅĻekÃ¡ Å¾ky
Ġorien tace
ĠpodÃŃ val
Ġz oo
n nÃ¡
Ġne ko
Ġpodzi mu
ĠdÅĻevÄĽ nÃ½ch
Ġzkontro lovat
Ġfak tu
Ġvytvo ÅĻila
Ġroz vÃ¡
Ġkraj skÃ©ho
Ġkole ch
ĠprÃ¡ dla
si lo
Ġpoliti ci
Ġsubje ktu
Ġhoriz ont
ĠzÃ¡ c
je jÃŃ
ĠPro nÃ¡jem
Ġeli min
Ġoh ÅĻÃŃ
ĠDe sign
ĠmagazÃŃ nu
tor Å¯
k ovala
ĠÄįtvr ti
Ġsk i
ĠP ru
ĠR AM
Ġstadi onu
Ġkultu ru
Ġrozhod ovat
ĠvÃ½jim ky
Ġi zrael
Ġprovoz ovatele
ĠvÃ½rob ou
Ġo pÃŃ
ĠKla us
ĠmanÅ¾e lem
ES K
ĠCho mut
ĠcÃŃ tila
ĠdÃ¡m y
ĠnÃ¡ leÅ¾ito
ĠdÄĽj iny
ĠTlu moÄįenÃŃ
Ġlitera tura
B Y
ĠVÃ½ hodou
ĠupÅĻe s
ĠLadi slav
Fir ma
Ġs mo
Ġprakti ckÃ½
Ġplo t
Ġsla vnÃ©
V Å¡ichni
ĠVÃŃ te
Ġis lÃ¡m
ĠSy stem
Ġhere Äįka
ĠpÅĻispÄĽ t
u dy
dob ÃŃ
Å¡t inÄĽ
N i
ĠskvÄĽ lÃ½m
ĠvyhlÃ¡ Å¡ka
Ġsez onu
fi i
Ġmarket ingu
Ġspo lek
ĠpÅĻed at
Ġg eni
ĠÄįtenÃ¡ ÅĻ
Ġzub nÃŃ
c as
Ġzab lo
ĠvÃ¡no Ã¨nÃŃ
Ġvstup em
Ġpev nÃ¡
Ġrozhod nete
Ġze lenÃ½
ĠpÅĻÃŃ stro
Je ho
si ce
kÃ¡ ÅĻi
Ġpan u
ĠAngli i
u e
Ġmi str
Ġfin Ã¡lnÃŃ
moÅ¾ ÅĪuje
mper k
re ag
Ġst atutÃ¡
ÃŃ ÃŃ
Ġhodno tit
Ġfinan ce
Ġuveden ou
ĠTe plo
= "
T r
ĠanalÃ½ zu
Ġnejrych leji
Ġod poru
Ġvy stoupÃŃ
Ġs now
ĠpÅĻe vodu
Ġe last
ĠF le
Ġn Ã©
ĠA G
Ġnej h
ĠpÅĻirozen ou
Ġpodob nou
ĠA rg
Ġzdravot nickÃ©
Ġkole ktivnÃŃ
stÄĽ nÃŃ
ĠtÄĽ sta
ĠÃºto ky
mnÄĽ li
hlÃ¡ Å¡ka
Ġob lÃŃ
Ġtechni ckÃ¡
ĠuzavÃŃ rÃ¡
ĠÄįeÅ¡t inÄĽ
Ġhe sla
Ġvrst vu
ĠhvÄĽz da
ĠP rove
Ġpra vÃŃ
Ġvi dli
P A
ĠspÃ¡ nek
Ġod Å¯vodnÄĽ
Ġsm Å¯
ĠvyhrÃ¡ la
ĠtrÃ¡ venÃŃ
ovanÃ© mu
hovÃ½ch o
ĠKo s
ĠVÃ½ sledek
Ġv ul
Ġdokon al
ĠB lu
Ġpo meran
ĠÅ¾i v
Ġsp er
Ġpov leÄįenÃŃ
ĠkÃ¡ va
ĠnedokÃ¡ zal
Ġn on
Ġch utnÃ¡
o la
gen nÃŃ
OD A
Ġs dÄĽlil
Ġin ka
ĠzÃ¡j m
ĠFi re
Ġbru t
Ġzb roj
ĠSdÃŃ let
ĠvÃ½z va
Ġve ge
stru kce
sta tek
Ġvy razil
Ġfon dy
o sti
si onÃ¡lnÃŃ
Ġza o
c at
Ġpohy by
Ġu mo
Ġi mi
ĠdneÅ¡ nÃŃch
ĠpÅĻev ez
Ġzapo mÃŃ
Ġko Å¡ile
Å¾e lo
Ġk ec
Ġkou ze
ĠÄįer nÃ©ho
Ġvo lÃŃ
Ġzate p
Ġstejno jmen
Ġre tro
ĠA lo
Ġtvo ÅĻi
Ġb Å¯h
Ġbu b
ĠF C
ĠvyhrÃ¡ li
grafi ckÃ©
P la
ĠÃº vod
sy stÃ©m
Ġpolo ha
Ġne prav
ĠDo stupnÃ©
sky tuje
ĠZu z
ĠPa nÃŃ
Ġkry tÃŃ
Ġo stÅĻÃŃ
myÅ¡ lenÃŃ
Ġna poj
Ġu pou
ob a
ĠTo mu
Ġlid skou
Ġtra sa
Ġnech Ã¡m
n ane
Ġintele ktu
ĠzÃ¡ru kou
ĠNe jde
ĠÄĮer ven
ĠRakou sko
Ġmanagem ent
ĠpÅĻÃŃ poj
ĠnenÃ¡ ro
s Ã©
ove nÃŃm
ĠzÃ¡ dy
ĠKone ÄįnÄĽ
ĠvlÃ¡k na
Z de
ĠtÅĻÃŃ du
Ġ:) )
to ku
nech at
n ovat
ĠÅ¡ tÃ¡
Ġruka vice
ĠI vana
Ġlo ka
Ġsje d
Ġsmlou vou
Ġnakup ovat
ĠSpe ciÃ¡lnÃŃ
Ġh avÃ¡
Ġu klÃŃ
Ġaby s
Ġal l
CÃŃ lem
ĠH ub
Ġm ÅĻÃŃ
ĠG ru
Ġrekor d
Ġs lÃŃ
Po dob
Ġdo razÃŃ
Ġsebe vÄĽdomÃŃ
Ġco si
Ġautobu su
ĠkonkrÃ© tnÃŃm
Ġdi o
ĠpolÅ¡ tÃ¡ÅĻ
ĠS ti
Ġsto j
Ġpresti Å¾nÃŃ
ĠC K
Ġspokoj enosti
Ġvyjad ÅĻuje
ĠstÃŃ Å¾nosti
ĠmÃ³ da
Ġo mÃŃ
Ġkome die
ch el
Ġzdravo tnÄĽ
mb in
o do
Ġreak cÃŃ
mu jÃŃ
son a
Ġnejza jÃŃma
Ġoch la
Ġcenti metrÅ¯
la ri
Ġnepro dlenÄĽ
k oru
ĠmÃ¡ sla
ĠpÅĻe pravu
ĠzastÃ¡ vky
ĠS tr
ĠKo mentÃ¡
der s
zu ji
AN D
lov ice
ob ra
ĠvÃ½u ce
Ġh Ã¡d
Ġosla vy
Ġro bu
ĠtÃ½ kajÃŃ
Ãģ NÃį
ĠOd povÄĽ
Ġ7 1
ĠpravdÄĽpodob nostÃŃ
ĠD al
Ġklu ky
Ġdlouh Ã½m
ĠvÃ½znam nÃ½m
logi ckÃ½ch
ĠvybÃŃ rÃ¡
le d
sa dy
vajÃŃcÃŃ m
ines s
Ġz tu
Ġsle vou
Ġru Äįi
Ġvo di
ĠzÃ¡ hy
ĠpÅĻÃŃ Äįin
Ġprakti ckÃ½ch
ĠZÃ¡ jem
mina ci
Ġzd at
Ġ20 20
æľ Ł
ĠR C
Ġv rat
ĠJ men
mo ÅĻskÃ©
Ġne stojÃŃ
Ġvi bra
ĠnÃ¡ dech
ze c
Ġbole stÃŃ
Ġno Å¾
RA M
pust nÃ©
ĠzÃ¡ k
ĠnemÄĽ nÃŃ
Ġne up
Ġukon Äįit
ĠvytvÃ¡ÅĻe jÃŃ
ĠdÅ¯ kazy
Ġzvu ky
Ġvy dÄĽ
ĠV se
Ġpo tisk
Ġvyzna Äįuje
ĠzprÃ¡ vÄĽ
ĠchtÄĽ lo
Ġ: :
va b
mo st
r skÃ©
ĠPV C
Ġznak Å¯
ĠpotÅĻeb nÃ½ch
ĠÃºvÄĽ rÅ¯
Ġzbyt ku
Ġva Å¡im
Ġza Å¡le
du m
Ġinforma cemi
grafi i
Ġuniverz itÄĽ
Ġpla vÃ¡nÃŃ
Ġstudi o
ĠStra kon
ĠTÃ© mÄĽÅĻ
Ġstanovi sko
Ġlet enky
Ġtechni cky
ĠÅ¾ivoto pis
Ġmil ovat
Ġkolo ni
i dnÃŃ
Ġpotvr dit
ĠCZ K
ĠplÃ¡ nÅ¯
ĠplÃ¡ tky
Ġgra tu
Ġnovin ka
T O
Ġakci onÃ¡
Ġvol nÃ©m
Ġlov e
ĠKo lem
ĠS hi
ĠÄįerno bÃŃ
Ġvy stou
ĠzajÃŃmav Ã©ho
ĠI tal
Ġne hody
ĠN emoc
Ġvy davatel
Ġvyrov nat
Ġu jÃŃt
Ġf av
T Ã©mata
Ġpostav ena
Ġod ra
sÃ¡ na
Ġkon c
ĠprÅ¯mÄĽr nÃ©
Ġa zy
Ġchemi ckÃ½ch
ĠW ashing
Ġmotor Å¯
p ark
ĠzpÅ¯sobi losti
Ġpa dÃ¡
Ġvyvr cho
Ġprostor em
e e
ma ilu
Ġtex til
ĠRo ku
ĠpotÅĻeb nou
ĠnÃ¡ kupy
ĠEx tra
Za Äį
ĠS vit
Ġvy jÃŃt
Ġklou bÅ¯
stit ut
ĠpÅĻi vo
ĠpÅĻe ruÅ¡enÃŃ
Ġla borat
Ġlete ckÃ©
Pro jekt
razi lo
ĠdomÃ¡c nostÃŃ
Ġzele nÄĽ
nÃ¡ te
ĠknÃŃ Å¾ku
Ġza Å¡
Ġneo prÃ¡vnÄĽ
Ġin g
ĠpotÃŃ Å¾ÃŃ
ori a
Ġergo nomi
U Åł
ĠstÃ¡ tem
Äį kovÃ½
Ġkul ti
s port
ĠmimoÅĻÃ¡d nÃ©
Ġtvr dit
um ÃŃm
Ġprodej nÄĽ
Ġsou Äįin
å½© ç¥
oni e
ĠnÃ¡sled ovat
Ġu pev
hod nou
vi ron
Åł ko
di ÃŃ
Ġsv is
ĠpÅĻÃŃrodnÃŃ ho
Ġlat in
Ġstrate gii
Ġsi s
Ġdetail Å¯
Å¡ kov
Ġelektri ckÃ½ch
Ġp ta
ĠÅ¡an cÃŃ
ĠsmÄĽ sÃŃ
ĠzÃ¡ jezd
ĠD vou
Ġ( âĢŀ
ĠotevÅĻ enÃ¡
ĠnejznÃ¡mÄĽ jÅ¡ÃŃ
art in
Ġt Ã³n
Kvali tnÃŃ
lov e
Ġbohat ou
ĠD Ã¡n
Ġhla sem
ĠNem Ã¡
ologi i
ĠkamarÃ¡ da
sku se
ceti letÃ½
Ġpro cvi
Ġintera ktivnÃŃ
Ġvo nÃŃ
Ġsk lenÃŃ
Ġta Å¡ky
nu tÃ¡
rÃ¡ lÅ¯
X L
ĠB rou
no ÄįnÃŃ
ch en
Ġgra f
ĠBudÄĽj ovicÃŃch
Ġinformu je
s poru
ĠVa len
bra li
ĠLo s
ĠnapÃŃ Å¡e
ĠhrÃ¡ ch
Ne ch
Ġpro po
ĠpÃ¡ sky
c to
Ġli s
ĠOsob nÄĽ
Ġhla su
Ġ rÃ©
ĠzÃ¡Å¾it kÅ¯
ĠmyÅ¡le nek
Ġvypl nit
ĠK lub
Ġu blÃŃ
Ġkre ativnÃŃ
ĠvÃ½stup y
de ra
Äı a
ĠnejvÃ½ Å¡e
Ġz ata
Ġzd vi
Ġdo dala
Ġ8 6
Ġkon stan
Ġopo tÅĻe
ĠÅłÃŃ ÅĻka
ĠVlast nÃŃ
Ġschop nÃ¡
ĠSo ciÃ¡lnÃŃ
Äį nice
Ġve dlo
Ġjin am
Ġredak ce
ĠS OU
Ġde leg
Ġbran kÃ¡ÅĻ
Ġkata log
Ġpotrav inÃ¡ÅĻ
ĠAnto nÃŃn
ĠP ale
ĠdÄĽ si
ĠzÅ¯ stalo
Ġkoupali Å¡tÄĽ
ne nÃŃ
Ġv ku
ĠPo ly
ĠpÅĻe vodem
Ð¾Ð ²
ĠSt art
ĠPo lÃ¡
ji m
de le
Ġg ly
ak o
Ġvylep Å¡enÃŃ
Ġpra nÃŃ
ĠÃļ ÅĻadu
Ġnaby tÃŃ
ĠzamÄĽ ÅĻit
ĠstÅĻe le
Ġko mÃŃ
Ġumy va
Ġpy rami
Ġsk rom
Ġh raz
ĠR al
Ġky tar
ĠdostÃ¡ nÃŃ
stÃŃ te
ĠpÅĻiprav eno
mi x
ĠVÅ¯ bec
Ġanga Å¾
ĠodbÄĽ ra
Ġle kce
ĠprÃ¡vnÃŃ mi
Ġv Å¡ÃŃ
Ġgastro nomi
< /
ĠBa lenÃŃ
Z P
Ġporu cha
ĠJednot livÃ©
Ġro d
Ġkultu ra
ÄįnÃŃ ku
ĠprÅ¯ kazu
ĠrÅ¯Å¾ ovÃ¡
ĠZprÃ¡ vy
Ġmet r
Ġosu du
d ovi
ru b
ĠM inu
ĠdÃ¡ te
ĠÃºto ÄįnÃŃk
ĠE konomi
Ġsel hÃ¡nÃŃ
Ġvli vy
k ovali
skÃ¡ ch
Ġkap li
sti ly
Ġre ziden
ni Äįkou
ĠVy zkou
ĠHo rÃ¡
ĠNi kon
ĠnÃ¡ jmu
ĠCh ro
ĠÅĻÃŃdÃŃ cÃŃ
bu lka
Ġje du
Ġkvali tnÄĽ
ĠpÅĻÃŃÅ¡tÃŃ ch
Ġdi am
Ġorg as
Ġtele komunika
Ġuhra dit
pom nÄĽl
Ġzvo lte
Ì Į
Ġkan Ã¡lu
ri ch
tÃ¡ k
da nÃŃ
ĠOb r
ĠVÃ½ znam
Ġscho diÅ¡tÄĽ
t zv
Ġklasi ckÃ©ho
s vÄĽd
ĠR O
Ġdopl nil
ĠmÃ¡ ma
ĠRe Å¾i
ĠPÅĻe hled
j sem
Ġod li
p lu
z nÃŃho
ĠÃºÄį ty
Ġs jednÃ¡
ĠF ra
Ġkan ad
ĠprimÃ¡ rnÃŃ
ĠÃļ vod
ÃŃ na
ka jÃŃcÃŃ
Ġvizu Ã¡lnÃŃ
Ġvybav enÃ©
ÅĻ eni
stra l
ÅĪ ovala
ĠRe kla
ĠMari a
19 99
ĠRakou ska
D ÃŃ
ĠpravdÄĽpodob nÃ©
ĠÃºdrÅ¾ by
Ġmo leku
Ġuzav ÅĻe
ĠÅ £
ĠS enÃ¡tu
ĠTro chu
ĠpÅĻe ve
ĠC le
Ġspeci fikace
ĠÃºÄįin kÅ¯
Ġko ÅĪ
u la
Z na
ĠÄįerv enÃ½
Ġza Å¾ÃŃt
Ġse stavÄĽ
ĠzÃ¡ por
Ġtra gi
b by
Ġaplik ovat
pu b
Ġgra nu
ĠpouÅ¾ÃŃ vanÃ©
rÃ¡l nÄĽ
ĠVlast nosti
D lou
Ġnep lat
ĠmÃ¡ la
Ġakumu lÃ¡tor
ĠzÃ¡sa dÄĽ
ĠtrÃ¡ vÃŃ
dor f
ĠextrÃ©m nÃŃ
ĠÅ¾ebÅĻÃŃ Äįku
ĠT es
ĠNa pÅĻ
k ovacÃŃ
ĠB il
Ġinternet ovÃ½
Ġdom em
E A
Ġti Å¡e
Ġtera peu
ĠpÅ¯ du
p res
ĠvzdÃ¡le nÃ©
Ġ Ï
ĠzÃ¡vo dech
Ġome zen
enÃŃ ze
Ġm Ã¬
ĠZ by
Ġle du
Ġtera sa
Ġmilu ju
jmen Å¡ÃŃm
ch an
hra da
ĠTer mÃŃn
Ġp ec
ne l
Ġnor em
S na
ĠpÅ¯j Äįit
ĠdÅ¯ cho
ĠnejvÄĽtÅ¡ÃŃ ho
ĠvÃ½ vojem
ĠgÃ³ ly
Ġkap sa
Ġlogi ckÃ©
Ġm Ã©mu
za ÄįnÃŃch
ĠLe a
U X
Ġko kos
ĠvÅ¡e stran
ĠzaÄį nete
ĠK ub
Ġdisple jem
Ġpo sel
D P
Ġ19 0
ĠmyÅ¡len ku
Ġuzav ÅĻena
ak i
ĠnabÃŃze t
Ġbrit skÃ©
Ġho jnÄĽ
Ġstudent Å¯m
spÄĽ vek
Ġprodej ny
na j
Ġpr sten
gen u
ĠÅ¾Ã¡ kÅ¯m
Ġmak ro
Ġpoz vol
ke ta
L ED
ĠdrÃ¡ hu
Ġde poz
Ġstrav u
ĠcÃŃsa ÅĻ
ĠnevÃŃ me
Ġobraz ovce
T C
Ġmed vÄĽ
Ġsouhla sÃŃm
ĠÃºz ce
Ġevange li
na lo
Ġf rÃ©
Ġnene chÃ¡
ĠvÃ½jime ÄįnÄĽ
Ry ch
Å¡ Ã¡k
ĠÄį tu
Ġobrov skÃ¡
ĠAl l
ĠÅ¡kÃ¡ lu
ĠÃº spo
ori e
ĠdÅ¯leÅ¾it ÄĽjÅ¡ÃŃ
ĠplÃ¡ Å¡tÄĽ
ru jte
Ġuveden Ã¡
Ġgale rii
Ġnez bÃ½vÃ¡
ĠvÃ¡Å¡ ni
ĠPÅĻed poklÃ¡
ĠscÃ©nÃ¡ ÅĻ
Ġvy prav
ze jmÃ©na
ĠbÄĽÅ¾ nou
Ġza ps
im Ã¡lnÃŃm
ĠnÃ¡hra dy
ĠM obil
Ġpoz vÃ¡nÃŃ
ĠS B
Ġelektri ckÃ½
ĠknÃŃ Å¾ka
Ġobn ovi
zi m
ĠobzvlÃ¡ Å¡tÄĽ
ĠÄĮer no
Ġna chy
Å¾it Ã½
ĠjakÃ½ si
lt raz
ĠpÅĻipomen out
ĠPÅĻÃŃ ro
Ġmi se
ĠIn fo
NÃ¡ Å¡
ĠpÅĻes nÃ½
a a
Ġjas nÃ¡
Ġozna Äįit
Ġpo chopil
Ġpre d
ĠTak ovÃ¡
bÄĽ Å¾nÄĽ
ĠschrÃ¡ nky
Ġs rÃ¡Å¾
ĠDav ida
ĠuÅ¾i li
Ġpro Å¡la
Ġpokle su
Ġcho di
Ġstro jÃŃren
ĠpoÅ¾adav ku
ĠstÃŃ Å¾nost
Ġmuse ly
Ġod kladu
Ġcvi Äįit
ĠPro chÃ¡
Ġtrans fer
Ġde vÃ¡
ĠpÅĻev zal
ĠJa zy
ni Äįce
Ġkari Ã©ry
Ġo tÄĽ
ter y
Å ĩ
Ġneob je
Ġilu stra
ĠFe stival
konstru kce
ĠU kÃ¡
Ġdra ma
Ġjedin cÅ¯
Ġzvo len
ĠprodÃ¡vajÃŃcÃŃ mu
ĠM ont
Ġpane ly
ĠrozdÄĽ lit
Ġmanipu lace
ĠpÅĻed sti
ĠJ E
men taci
ĠdÃ¡l nici
Vy so
Ġnevi dÃŃ
ĠsvÄĽ dectvÃŃ
Ġk ned
Ġpouzd ra
Äį enÄĽ
ĠkoÅ¡ÃŃ ku
Ġneob sahuje
Ġpou hÃ©
ĠV ari
Ġaspe kty
Ġva g
Ġobsa zenÃŃ
Ġan dÄĽl
ĠvÄĽ ÅĻi
ĠpoÅ¡ ta
mino ky
ĠRo Å¾
Ġko li
Ġu Å¡le
ĠAle Å¡
ĠZ P
Ġpod vod
ĠL om
Ġ å
Ġobraz Å¯
Ġhlou bka
Ġbabi Äįka
ĠspotÅĻebi Äįe
Ġdisku zi
sa mo
dek vÃ¡
Ġmode rÃ¡tor
ĠnÃ¡dher nÄĽ
ĠD on
ĠprohlÃŃÅ¾e Äįe
Ġjem nou
ĠnejspÃŃ Å¡e
ĠÅ¾ivot nÃŃm
ĠvÃ½stav bÄĽ
ĠZ vÃ½
ĠBu dou
Ġro lÃŃ
Ġz ka
dÄĽ nÃ½
ĠnÃ¡ro ÄįnÃ¡
Ġsmlu vnÃŃch
Ġbezplat nÃ©
ĠN ovÃ©m
Ġko cou
Ġal g
ĠU pozor
ĠkamarÃ¡ dka
ĠÅł im
ĠpokroÄįil Ã©
rat it
ĠM Ã©
Ġstanov it
Ġsch ovÃ¡
Ġrecep tÅ¯
i ckÃ©
ĠhnÄĽ dÃ¡
Ġzak ry
ĠVe le
ĠÅ¾ivo tnÃŃch
ĠS rb
V ÃŃte
ĠDlou hodob
k nou
b ak
vie w
Ġnav Å¾dy
Ġs alÃ¡
K la
ĠpodÃ¡ vÃ¡nÃŃ
ĠÅ¡kol nÃŃch
ĠzmÄĽ nilo
Ġ Ø
ĠH ej
Å¡ÃŃ ho
Ġuli c
Ġneza pomeÅĪte
Ġodstra ÅĪovÃ¡nÃŃ
Ġtri Äįka
Jen Å¾e
Ġtitu ly
ve nÃŃm
mÄĽ la
ĠumoÅ¾ nit
Ġhno ji
A ktu
st rÃ¡t
Ġbez va
Ġvy tisk
Ġfirem nÃŃch
ĠnÄĽÄįem u
Ġsou boj
Ġv stÃ¡
Ġzelen ina
ĠÅ¾lu tÃ¡
Ġstudi i
Ġpoliti kÅ¯
ĠpÃ¡ ru
Ġpark ovacÃŃ
Ġka ros
ĠpÅĻiprav enÃ½
ĠdÃ¡l ku
t ov
Ġpracovi Å¡ti
kÃ¡ nÃŃm
Ġzmi zÃŃ
Ġtva rÅ¯
ob raz
ĠRÃ¡ di
Ġtra tÄĽ
Ġbarok nÃŃ
Ġzat ÄĽ
ĠklÃ¡Å¡ tera
Ġpod al
hlÃŃ Å¾ÃŃ
ĠA ne
ĠS H
Å¡ an
Ġnad mÄĽr
Ġpas u
ĠM alÃ½
Ġopu Å¡tÄĽ
Ġvypad al
ĠsamozÅĻej mostÃŃ
ĠnÃ¡ro ÄįnÃ½
at Ã¡
ra di
Ġvz ruÅ¡
ĠudÄĽ lenÃŃ
dÄĽla li
Ġjuni or
chÃ¡ze jÃŃcÃŃch
ĠpÅĻÃŃ loha
la m
Ġru ko
Ġodpole dnÃŃ
ĠHra diÅ¡tÄĽ
Ġpreven tivnÃŃ
bili tu
ene j
Ġameri ckÃ¡
ĠnÃ¡ skok
Ġli n
c ujÃŃ
Ġangli ckÃ©ho
ĠnÃ¡sledujÃŃcÃŃ ho
D PR
ĠpÅĻe stane
ĠmÃŃ ra
ĠG ym
T I
Ġvy je
Ġpro kaza
ĠpÅĻi dejte
ĠWil li
Ġvzor em
Ġstati stiky
ĠpodÃŃ let
ĠpÅĻe h
Ġdruh Ã©mu
ĠsvÄĽ tel
ĠstÃŃ nu
z ovÃ¡na
strÃ¡ tu
N E
Ġjed nost
ĠtvÅ¯r ÄįÃŃ
Ġvide u
Ġuniverz ita
Ġt it
ĠO ce
Ġstabili tu
ĠnovÃ© mu
N Y
ĠT roj
ĠpotÅĻebu ji
ĠÅłko la
Å¾ dÃŃ
Ġ ÄıÃ¡
ĠÅ¾i dli
Ġcele br
Ġchole stero
ĠNe vÄĽ
ĠF ull
z in
ovo stnÃŃ
ra cÃŃch
Äį ci
Ġs Ã©
ĠdÃ¡ vka
Ġh ala
ĠK ro
Ġkomp res
ĠzÃ¡kaznÃŃ kovi
DalÅ¡ÃŃ m
ĠlÃŃ bil
ĠpoÄįÃŃtaÄį ovÃ©
Ġ19 48
ĠsoutÄĽ Å¾nÃŃ
ta in
Ġchor vat
ĠK V
Ġsvobo d
z ovÃ½
Ġpo jÃŃ
Ġskla deb
Ġob il
ĠK lat
ĠÅĻe ce
ĠKo lÃŃn
Ġpracov nÄĽ
ra nÃ©
tnÃŃ ku
ĠvykonÃ¡ vat
Ġinspe kce
Ġ8 7
d ÅĻe
Ġjednot ku
ĠStav ebnÃŃ
ĠtÄĽ Å¡ÃŃme
Ġar ci
Ġautom at
ĠSport ovnÃŃ
c or
ĠPo slane
Ġposu n
Ġmo tÃ½
ĠKa p
Ġz hodnocenÃŃ
Ġstej nÃ½ch
ĠLiber ci
ĠBul har
Ġobje vili
Ġvy sta
Ġvyvo lat
cyklo pe
Ġba m
Ġzach oval
me ty
Ġob cÃŃch
t nou
ĠpoÅ¡t ovnÃŃ
Ġvy n
Ġveli kÃ¡
ĠM AS
kÅ¯ v
ĠsvÃ¡ t
du le
ĠuÄįitel ka
ĠK vÄĽt
Je dnou
Ġmil Ã©
Ġkon dici
k rou
Ġotev ÅĻela
ĠDÅ¯ vodem
ĠZÃ¡ leÅ¾ÃŃ
ĠÃºÄįast nÃŃk
Ġje vi
ĠpoÅ¾a duje
rÃ¡ tora
Ġpo prav
Ġmeda ili
ĠH ude
hÃ¡ nÄĽt
Au to
ĠvitamÃŃ ny
âĢ Ķ
Äį kovi
d anou
Ġneob y
Ġpolo letÃŃ
ĠpÅĻe chÃ¡zÃŃ
ĠÅ¡per ky
Ðµ Ð½
ĠpÅĻÃŃro du
ĠnÃ¡ sob
Ġvlastnost mi
ĠMa y
Ġprv kem
ĠpÅĻÃŃro dou
ĠÅ½Ã¡d nÃ©
zÃ¡ na
Ġsplat nosti
ĠvÃ½kon nÃ½
Ġse dla
ĠK R
cti ve
Ġp us
Ġpo tu
ch ne
di Å¡ti
Ġpo sluÅ¡
ĠvÄĽ ta
ĠlÃ¡ kÃ¡
Ġod vÃŃ
Ġde bat
Ġne ro
ĠoblÃŃb enÃ½m
ĠzÃ¡su vky
it or
ĠS ing
bu jÃŃ
Ġu lo
g s
ĠotÃ¡ zce
Ġmusli m
ĠV Å¡em
g hÃ¡
Ġvypo ÅĻÃ¡
in c
ĠP F
H a
Ġnevi dÃŃm
Ġ8 1
Ġhot ovÃ©
ĠprÃ¡ Å¡ek
ĠPÅĻÃŃ loha
Ġg yne
ku ment
Ġmal Ã½mi
h ovÃ½
Ġkem pu
ĠzmÃŃ nit
nÃ¡ ÅĻ
Ġjak Ã½mi
ĠnevÄĽ dÄĽla
Ġde velo
Ġpara dox
ĠG al
Ġpo hledy
Ġleh ÄįÃŃ
gra mÅ¯
Ġdr Å¾Ã¡
ĠpÅĻije li
Ġstra va
ĠzahÃ¡ jenÃŃm
Ġcit ron
Ġpro hla
ĠJa mes
ck et
Ġstandar du
rou nd
Ġji hovÃ½cho
b Ã©
Ġvzta zÃŃch
ĠpouÅ¾i je
Ġsvat Ã©
Ġneu dÄĽlÃ¡
ĠTerez a
ĠuzÃ¡ vÄĽ
ĠnÃ¡vr hÅ¯
Ġhos pit
D u
Ġzava zuje
ĠjakÃ½ch koliv
Ġpo citu
T er
Ġma rat
ĠkritÃ©ri ÃŃ
ĠÃºÅ¾as nÃ¡
ĠnejÃº spÄĽÅ¡
Ġvyso kÃ©ho
Ġa do
Ġmodu lu
Ġse ktor
zÃŃ t
lÃ¡ vÃ¡
ĠÃºÅĻa dÅ¯
ĠÅ¾ivnosten skÃ©ho
Äı Ã¡r
klost ez
Ġmili Ã³nÅ¯
Ġnedo stane
Ġpotrav y
Ġstar ovÄĽ
ĠjÃŃ dlem
cit y
ĠK en
hro zÃŃ
gra ÄįnÃŃ
ĠlÃŃ ÄįenÃŃ
Ġlid ovÃ©
Ġfor mÃ¡lnÃŃ
Ġme ze
Ġmoti vace
Ġlim ity
Ġpro tÄĽ
P ar
Ġvybud ovat
ĠKristu s
Ġinspi race
ĠrÃ¡ ny
Ãģ D
inÃ¡ lu
Ġsy m
em a
Ġzpo ma
Ġmlad Ã©ho
men tnÃŃ
ĠNovÃ¡ k
Ġdlouhodob Ã½
Ġlid stva
Ġvhod nÃ½m
Ġza dek
Ġpopu lar
ĠzÅ¯ staly
Ġneda ÅĻÃŃ
ĠhnÃŃ z
v ing
Ġna pad
l h
Druh Ã½
ĠpoÅĻÃ¡ dÃ¡nÃŃ
ĠÄįes nek
Ġpro dy
Ġprode jem
Ġna stane
Ġpro mÃŃt
Ġmr zÃŃ
Ġv stoupit
ĠRoz mÄĽr
ĠdÃ© Å¡Å¥
Ġseda dla
Ġpo strÃ¡
N P
hlÃ© d
Ġreali tnÃŃ
Ġupozor nil
lan du
Ġhomo sexu
ĠÅ¾alu dku
Ġmrt vÃ½ch
ĠdosÃ¡ hla
ĠPo m
ra y
Äį na
s ni
ci ÃŃ
Ġpar c
Ġpo o
Ġbateri i
ĠosvÄĽd ÄįenÃŃ
ĠpÅĻe jÃŃt
ĠnavÅ¡tÃŃ vil
ĠÄįerst vÄĽ
ĠprÃ¡zd nÃ©
Ġle vi
Ġpri orit
ĠcÃŃ lovÃ©
ĠÃºhra du
ĠK re
Ġna stÃ¡vÃ¡
Ġod chÃ¡zÃŃ
Ġot cem
ĠHav el
Ġsamot nÃ©m
ĠbalÃŃ Äįku
Ġkry pto
ĠnepÅĻÃŃ tom
ĠvÃŃtÄĽ ze
ĠKri st
ĠnÃ¡vÅ¡tÄĽvnÃŃ kÅ¯m
ĠpodÃ¡ vat
Ġbato h
Ġhud bou
let Ã½ch
ĠpÃ¸ed mÃ¬
ĠD es
ĠBÃŃ lÃ¡
Ġpro ro
Ġse c
Ġsuk nÄĽ
Ġdo hodu
ĠTi sk
ĠkolÃ¡ Äį
ĠÄĮÃŃ na
Ġtrest nÃŃho
Ġleta del
ĠpÃ¡ novÃ©
no t
ĠdrÃ¡ ze
Ġko zy
ĠpomÅ¯ cek
ĠZ krÃ¡tka
ĠTru t
Ġn eni
ĠMo hou
ĠvlastnÃŃ mi
Å¾ enÄĽ
ĠtÄĽle sa
ĠS ovÄĽt
Ġbo dÄĽ
Ġme du
Ġodpa dnÃŃch
ĠR Ã¡d
Ġkoru ny
s nost
Ġod rÃ¡Å¾ÃŃ
ĠzÃºÄįast nilo
Ġkole j
ĠZde ÅĪka
ĠstÃ¡ nÃŃ
ĠzÃ¡sa d
ĠPÅĻÃŃ sluÅ¡
ĠPo prvÃ©
dr Å¾et
Ġvhod nÃ½ch
stav by
va Äįi
Ġcen ovÃ©
1 20
ĠSer vis
ĠscÃ© na
ĠKa te
ĠdÃŃ vek
Å¾ ko
Ġzak lada
Ġjem nÃ½
ĠPo lo
ĠvÃ½z dob
ĠÄįeho Å¾
pou ze
ĠromÃ¡ nu
po dla
Li dÃ©
Ġrozto ku
Ġse Å¡it
ĠtvÅ¯r ci
Ġvydr Å¾et
ĠÄįi stou
Ġho j
Ġbohat ÄĽ
Ġneji sto
ÅĻej te
ĠumÄĽl cÅ¯
ltraz vu
Ġpod pisem
z va
6 00
ĠsluÅ¾ bou
Ġsv r
Ġre vi
Ġher ci
ĠvyjÃ¡d ÅĻil
Ġot vory
Ġposou dit
ar da
c ino
Ġfakul ta
ĠvyvÃŃ jÃŃ
Ġli ber
va nÄĽjÅ¡ÃŃ
ĠBoh emi
C Ãį
ĠvÃ½ nos
Ġ8 3
ĠÅ¾i li
ÄįÃ¡ sti
ĠLe d
ĠAfri ky
ĠbÄĽÅ¾ nÃ©m
teÄį nou
199 1
ĠvÄįer e
Ġhor skÃ©
t av
e st
ĠÅł tÃŃ
dÃ© le
.... ..
Ġha vari
ĠprÃ© mi
ĠpÃ¡ ne
ka ÄįnÃŃ
ĠÅ½e lez
Ġschop nÃ½
Ġpoz nal
lit ou
Ġrozto mi
Ġnev in
ĠÃºda ji
hu jÃŃcÃŃ
Ġat p
Ġpe st
prÅ¯ mÄĽr
ĠP Ã©
Mo je
ĠvÃ½slov nÄĽ
ova jÃŃ
M Å¯j
Äį nÃ½mi
Ġd vÅ¯r
to to
ĠC vi
ĠO V
Ġdokon a
ĠÃº sp
Ġspoj enÃ¡
ĠVÅ¾dy cky
my sli
Ġnena padlo
ĠSch war
Ġdi sky
Ġhistori cky
ĠO vlÃ¡
ĠchrÃ¡ nÄĽna
ĠneuvÄĽÅĻi telnÃ©
Ġad ven
Ġnakou pit
P or
Ġon en
Ġpod zem
enÃ¡ ch
ĠH ory
ĠpÅĻiprav eny
In ter
ĠÅ¡pi ÄįkovÃ©
Ð ¼
Ġu si
Ġsoli dnÃŃ
u ra
vÃŃ li
Ġdisk ri
nu ty
ĠP Å¯sob
Ġob Ã½vÃ¡
Ġsna hy
Ġvo dÃ¡
kl Å¯
ĠzakÃ¡ zÃ¡no
kÃ¡ te
ĠmontÃ¡ Å¾e
ĠK rej
me j
ĠJedin Ã©
Ġza sah
ĠmÄĽÅĻÃŃ tku
Ġvy jÃŃÅ¾
ĠdÅ¯ klad
Ġspo je
z ovanÃ©ho
ĠtÃ½ka jÃŃcÃŃch
ĠÄį lu
Ġ( Â§
ĠkamarÃ¡ di
ĠzneÄįi Å¡tÄĽnÃŃ
ĠvÃ½Å¾i vy
ne ÅĻi
Ġz mÃ¡
ati e
ĠpÅĻÃŃ p
Ġk ino
kovÃ¡ n
Ġekonomi ka
S port
Ġsva teb
Ġh em
Ġman dÃ¡
Ġroz tr
Ġposti Å¾enÃ©
ĠreÃ¡l nÃ©m
ak y
vi Äįky
pu n
ĠÅ¾Ã¡d nÃ½m
ĠpÅĻesvÄĽd Äįen
lov Ã½mi
pad ku
Ġ ÅĻem
ĠnejÄįa stÄĽjÅ¡ÃŃ
Ġtari f
s ov
Ġnedo kon
f yzi
âĢ ĭ
Ġvyvo la
ĠnÃ¡stro jem
ĠveterinÃ¡ rnÃŃ
Ġtr van
ĠD ana
ĠAt lan
Ġzdravot nickÃ½ch
ĠkrÃ¡t kÃ¡
Ġse dÄĽl
Ġten denci
po divu
Ġvo dnÃŃho
Ġho ra
Ġrevolu ci
Ġdla Å¾
ĠÄįtenÃ¡ ÅĻÅ¯
ĠcelkovÃ© m
ĠV ino
ĠTak hle
Ġkato li
ĠkuÅĻe cÃŃ
ĠdÄĽt skou
ĠzÃ¡pa sech
ĠmuÅ¾ em
Ġpneumati k
ĠlÃŃ stek
ch nout
Ġo li
Ġroz lo
Ġvy rost
ĠpotÅĻeb ovala
ĠnavÅ¡tÄĽ v
z anÃ©
Ġhodin a
ĠA gen
ĠÃ Ī
Ġde vat
ĠÅ½i Å¾
Ġtou ha
Ġbakteri e
Ġplane tÄĽ
Ġtmav Ã©
Ġv stoupil
Ġry ba
Ġje zer
ĠSlu Å¾by
d ova
Ġdost anu
Ġd ovÃ¡
no c
Ġze lenou
ĠSa ma
ĠdÃ¡ no
Ġkonflik tu
ĠpÅĻedse dou
ĠstÃ¡r nutÃŃ
stÄĽh oval
ĠnÃ¡ leÅ¾it
ĠN HL
Ġkde koliv
mÃŃstÄĽ nÃŃ
Ġprodu kti
ĠK ata
ĠdÅ¯leÅ¾it Ã½m
Ġhod lÃ¡
Ġpodla Å¾ÃŃ
Ġtechni ckou
Ġleh kÃ¡
ĠHo stÃ©
ĠrozvÃŃ jÃŃ
Ġinteligen ce
ĠlÃ¡ tku
Ġfoto g
Ġbr no
rÅ¯ be
Ġkrmi vo
hod in
ĠvÃ½ hoda
ĠtkÃ¡ nÄĽ
Ġpomo hli
ĠMla dÃ©
Ġprosa dit
Ġmi strÅ¯
ĠvyplÃ½ vajÃŃcÃŃ
Ġhru dnÃŃ
ĠDu ch
pi sech
ĠVÃ¡no ÄįnÃŃ
t he
Ġovliv ÅĪujÃŃ
Ġpan em
ĠobjednÃ¡ nÃŃ
ĠZ as
Ġ10 5
ĠM lad
Ġuply nutÃŃ
Ġomlou vÃ¡m
ĠnakrÃ¡ jÃŃme
Ġnovin kou
Ġo hlÃ¡
Ġcibu le
Ġvel vy
ĠKo pÅĻi
ĠzÃ¡zna mÅ¯
pÃŃna cÃŃ
Ġsvat bu
bo sti
ĠsouÄįÃ¡ sti
ĠFran k
ĠÅ¾e l
ĠzkuÅ¡e b
ĠJindÅĻi ch
Ġde sk
hav Ã©
ĠslunÃŃ Äįko
Ġbu ÅĪ
Ġmimin ka
ĠupÅĻe dnost
ĠX L
Zdra vÃŃm
Ġkamen nÃ©
ĠZa jÃŃma
ĠdostateÄį nÃ½
Ġko ro
nic emi
Ġto ku
Ġmnoho krÃ¡t
ĠA F
Ġvyrob eno
Ġf lu
ĠP rovo
ĠstÃ¡t nÃŃm
Ġdva cÃ¡t
ist Å¯
ĠÅĻÃŃ kali
ob je
Ġch lÃ©b
ĠPor tugal
Ġproveden o
ĠzÃ¡klad ny
ĠVÄĽ ÅĻÃŃm
Ġbo ho
Ġhroma dy
Ġo sÃŃ
Ġprac ujÃŃcÃŃ
Ġvy stÅĻe
ĠtlaÄįÃŃ tkem
Ġnemoc nÃ½ch
Ġpropa g
ĠpoptÃ¡ vka
tex t
Ġolympi Ã¡
sÃ¡ ny
ĠIn die
Ġv pÅĻed
Ġbou ÅĻ
J de
tÃ¡ rnÃŃ
ĠJe d
Ġa rch
Ġarchi vu
Ġdlouhodob Ã©ho
Ġdost an
Ġga rant
Ġzaregi str
H e
ĠÅ¾ enÄĽ
ĠÃºstav nÃŃ
Ġarchi v
Ġse Å¡
nat Ã½
Ta dy
ĠÅ¡Å¥ast nÃ½
g lu
Ġvyu Å¾il
Ġhospo dy
Ġobjekti v
Ġsprav ed
ĠE dit
ĠobÄįan Å¯m
Ġjednodu cho
ĠpÅĻed loÅ¾it
Ġse Å¡li
in d
ĠnÃ¡ ra
ĠopotÅĻe benÃŃ
ĠmÃ©di ÃŃch
ĠnÃ¡zor Å¯
ĠdÅ¯ sto
ĠÄįo Äįky
Ġg rav
di Äįky
Ġautor ka
ĠnÃ¡d or
ĠÄįokolÃ¡ dy
Ġpla kÃ¡
ĠAsi e
ĠpÅĻe Å¾itÃŃ
Ġmin ce
Ġramen a
Ġtr Å¾nÃŃ
Ġdra Å¾by
Ġnemu se
ĠM ir
Ġciga re
ĠÅ¾Ã¡d nÃ©ho
Ġangli ckÃ½
lÃŃ t
ĠB ed
ĠpÅĻi dala
ĠNav r
Ġvelik Ã©
Ġ ou
' ,
Cel Ã½
Ġch lo
% )
Ġobdi vu
Ġa minoky
Ġzdrav Ã©ho
ĠAp likace
Ġpi g
Ġmobil nÃŃho
ĠvzÃ¡ pÄĽtÃŃ
ĠP artner
so lu
b ari
ĠvÃŃ tÃ¡
Ġat le
da le
Ġjed ny
Ġposu zovÃ¡nÃŃ
tÃŃ k
Ġspa nÃŃ
Ġbud ovu
ĠMar k
us it
ĠZem ana
va cÃŃch
Ġs raz
Ġskon Äįit
ĠzÃ¡ pla
ĠlÃŃ bila
ĠzpÄĽ v
Ġsp lnÃŃ
Ġ9 7
ĠKrÃ¡lovÃ© hrade
co s
Ġe shopu
n b
ĠvÅ¯ dce
ĠpÅĻiroz enÃ½
ĠskuteÄį nou
ĠobÄįan skÃ½
ĠC at
Ġpoliti ckou
ĠnevÄĽ ÅĻÃŃ
Ġkomer ÄįnÃŃch
Ġminu lost
ĠCS c
U K
Ġdostan eme
Ñ ĩ
ce u
ĠpÅĻi pad
ĠVÃ½ robce
ĠpÅĻi l
Ġnej radÄĽji
hod nÃ½ch
ĠpÅĻita Å¾
ks wa
M O
n skÃ½ch
ba la
Ġs eme
ven Ã½ch
S vÄĽt
Ġt ma
Ġle den
tu rou
ĠvÃ½tvar nÃ©
Å¾ÃŃ vÃ¡me
Ġost rav
Ġtot Ã¡lnÄĽ
Ġtradi cÃŃ
st eri
Ġ19 38
z nÃŃm
ĠzvÃ½ Å¡il
it Ã©ho
zd ovÃ©
ĠpÅĻed povÄĽ
Ġatmosf Ã©ry
ĠÄįtr nÃ¡cti
ĠCh ceme
K de
Ġpla men
ĠztrÃ¡ tÄĽ
Ġs ky
Ġvybud ovÃ¡nÃŃ
ĠumÃŃstÄĽ nÃ©
ĠnÃ¡ stra
ĠnechtÄĽ lo
ĠPr ovÃ¡
Ġpoch vÃ¡
ĠK lÃŃÄį
Ġr enom
ĠpÃ¡te ÅĻe
mÃŃ me
Ġval nÃ©
c ova
Ġhan dica
ĠpapÃŃ rovÃ©
Ġcest ovat
ĠSla v
pe ut
ĠOch rana
Ġpo Äįe
ĠpÅĻihlÃ¡ Å¡ky
Ġapo Å¡to
r d
Ġcho dÃŃm
Ġz lÃ©
Ġslu nci
Ġfunk Äįnost
Ġorienta ÄįnÃŃ
Ġra ket
ĠmezinÃ¡rodnÃŃ m
ĠukÃ¡ zky
ĠS lÃ¡
Ġhle dal
ĠpÅĻes nost
v kÃ¡ch
Ġdokon alou
ĠpouÅ¾it a
Ġpi vovaru
ĠÅ½Ã¡ ci
Ġpremi Ã©ru
à ¤
Ġz likvi
ĠÄįlen Å¯m
Ġod leh
Ġdodavatel Å¯
skut ku
d ruh
ĠB ÅĻez
ĠzmÃŃ nku
ĠO me
hrÃ¡ li
Ġdota znÃŃ
ĠPo j
Ġexeku ce
âĢ ¯
U ni
Ġeviden tnÄĽ
Ġargu ment
Ġnepochyb nÄĽ
poÄį tu
Ġpovo len
Ġprocen to
ĠMatÄĽ j
ĠPod mÃŃnky
ĠT S
psÃ¡ nÃŃ
nan Ã½ch
Ġpod pat
ĠÃº stÅĻe
Ġmaji telÅ¯
Ġpi z
Ġnap sÃ¡no
ĠzÃ¡bÄĽ ry
Ġd ani
Ġposto je
tu jte
Ġkvali fikaci
ĠÅĻedi telem
ĠkaÅ¾do pÃ¡dnÄĽ
ĠGeor ge
Ġvo lan
Ġopu stil
d ory
kro mÄĽ
h ni
ĠzÃ¡ zrak
ĠtÅĻetÃŃ ch
Ġe dice
Ġfanta zie
Ġle ze
ov skÃ¡
ĠPor t
ĠM lu
ch ta
sho py
Ġnato Å¾
ĠzajÃŃ t
Ġfotograf ovÃ¡nÃŃ
Ġob sta
Ġkraj skÃ©
ĠpÅĻe stal
ĠVe ronika
tu ji
Ġcho du
pod stat
ĠvÃ½stav ba
Ġstaro sty
ĠN ok
Ġobu vi
ĠzvlÃ¡Å¡t nÃŃm
ĠvÃŃ ÅĻi
un da
ĠD ovo
d vi
xi e
ĠPat ÅĻÃŃ
ĠkvÄĽt en
Ġin ci
Ġkon i
zÅĻej mostÃŃ
ĠpÅ¯lno ci
ze ly
ĠzÃ¡ru ky
Äļ L
Ġnale zenÃŃ
ez er
ĠMin imÃ¡lnÃŃ
ĠWi Fi
Ġse stÅĻi
Ġji h
ovatel nÃ½
ĠzÃ¡ le
Ġkalkula Äįka
Ġvy sti
Ġa lo
Ġprove dl
Ġkraj inÄĽ
C P
Ġo se
ĠNa jednou
C on
ti Äįky
Å¾i telnÃ©
Ġdistribu ce
ĠzpracovÃ¡ vÃ¡
v nÃ½m
Ġvy mÃ½Å¡
ĠÅ¡ÃŃ ÅĻÃŃ
da ÅĻÃŃ
ĠC re
Ġs um
ĠobrÃ¡ nce
Ġd aly
P ri
ĠtÄĽÅ¾ kÃ½ch
Å¡ ta
Ġab sur
Ġtan ec
f al
AT A
ĠpoÅĻÃ¡ dek
Ġost rÃ©
ĠÅ¡ Ã©
Ġvo lÃ¡
Ġfrekven ci
ÅĻ ovÃ¡
Ġbabi Äįky
ĠÄįi stÃ¡
z vÄĽ
ĠprokÃ¡ zat
Ġpat ra
ĠJak Ã¡
Ġpsychi ckÃ©
ĠG P
Ġpoku su
Ġsnad nou
ĠjÃŃdelnÃŃ Äįku
Ġzna ÄįenÃŃ
ĠpÅĻehrÃ¡ vaÄį
Ġkomp likace
Ġk rÅ¯
kre sle
Ġpos lÃ¡nÃŃ
bili ty
ĠNÃ¡ klady
K one
w an
Ġsouhla sit
ĠzvÄĽd avÃ¡
Ġa drena
ĠpÅĻi dÄĽle
Ġprav Ã©ho
Ġza pÃŃnÃ¡nÃŃ
ĠvlÃ¡ ken
Ġtem ati
r s
Ġsymbo ly
PÅĻesto Å¾e
Ġli g
ĠstÃŃ ha
Ex ist
ĠblÃŃ Å¾
dÄĽ nÃŃm
Ġta bÃ¡
Nej vÄĽtÅ¡ÃŃ
ĠVojtÄĽ ch
Ġhra cÃŃ
ni a
po s
Ġje v
Ġfil tru
Ġzav ra
ĠV rÃ¡
Ġciz in
ĠpoÄįÃ¡ teÄįnÃŃ
ĠÅ¡ pa
nika jÃŃ
OVÃģ NÃį
Ġzprac ovat
ĠC L
Ġome zenÃ©
Ġkoali ce
Ġatmosf Ã©ÅĻe
ĠtÃ¡ ta
Ġhra bÄĽ
ov nÃ©ho
Ġpru dce
Ġza dat
ĠpÃŃ sku
Ġzauj ala
an ka
Ġrenes an
Ġsil nÃ½m
Ġzabra ÅĪuje
ĠpÃ¡r krÃ¡t
ĠLÃ¡ znÄĽ
ĠÃºlo hu
Ġidenti fikaÄįnÃŃ
Ġabsolv ovÃ¡nÃŃ
Ġjmen ov
Ġlid stvo
Ġin je
ĠchrÃ¡ m
ĠzÃ¡bav nÃ©
Ġsni Å¾ovÃ¡nÃŃ
ĠÃºÄį t
Ġsl zy
jÃŃcÃŃ mi
ĠJak u
Ġpovo lenÃ©
Ġturi stickÃ½ch
Ġsam Ã©m
Ġdov ez
Ġvrst vou
ĠpÃ¡s ma
Ġkrabi ce
ĠstÄĽ nÄĽ
M at
ĠnÃ¡ plnÃŃ
Ġpo ÅĻiz
Ġmat ku
ĠstrÃ¡ vil
ĠproblÃ©m Å¯m
ĠzÃ¡ vit
Ġhle dÃ¡m
Ġw i
Ġposi luje
ĠnÃ¡ rÅ¯
Ġvyrob enÃ½
Ġdomlu vÄĽ
ĠoÅĻe chy
Ġpreziden tem
ĠM zda
Ġbeze sporu
Ġje la
stav ÃŃ
Ġpo ps
B ude
ĠKla dno
P Ã¡
ĠV ir
ĠneÄįe kanÄĽ
Ġdo ÄįasnÄĽ
NabÃŃ zÃŃm
Ġzastav ÃŃ
ly m
ĠzÃ¡vis lost
p hi
Ġvita min
Ġvy sla
Ġdat u
Ġroz por
Ġkapito le
Ġdi sko
Ġs rÃ¡
Ġreprezen tace
ĠstrÃ¡ Å¾nÃŃ
Ġna mo
Ġda ÅĻilo
ĠGe o
ĠNe bu
ĠS co
ĠapartmÃ¡ ny
Ġzni Äįit
ĠWilli am
Ġno Å¾e
Å¾ nÃŃm
Ġabsol vovat
Ġg ran
ĠMÃŃ stnÃŃ
ĠHD MI
Ġu k
Ġde Å¡Å¥
Ġagre sivnÃŃ
ĠpÅĻÃŃstav u
Ġnej as
kti v
my slÃŃ
Ġnere zovÃ©
ĠsprÃ¡v nÃ©ho
Ġmno hÃ½ch
Ġinspi rovat
to st
ĠpÅĻÃŃ Å¡er
ho ny
Ġna sy
ĠÄįeÅ¡t iny
n ovi
ĠkaÅ¾d Ã½ch
b in
bÄĽ hla
m rt
Ġroz mÄĽru
Ġstaveb nÃŃm
Ġmi cro
Ġba sket
r ova
ĠÄįlÃ¡n kem
ĠpÅĻe pravy
ĠT hu
ĠhÅ¯ ÅĻ
Ġdo razili
Ġtrou ba
dÄĽl ovÃ¡nÃŃ
Ġbra dav
ĠpÅĻÃŃ kon
ĠpÅ¯sobÃŃ cÃŃ
ĠC hod
Ġem is
ĠUs nesenÃŃ
l nÃ¡
Ġbarev nÃ½
Ġkomunit y
1 000
ĠMÅł MT
le ra
Ġhle dali
ze jÃŃ
ĠV ra
Ġchla pce
Ġvz ory
nÃŃ Äįek
Ġmar nÄĽ
ĠT or
dr em
IN E
ĠzÃ¡va Å¾nÃ©
Ġzkla mÃ¡nÃŃ
dy nami
mi mo
we i
enÃ¡ cti
ĠpÅĻetr vÃ¡
Ġkalho tky
d ÅĻÃŃv
Ġdlu h
ĠvÃ½cho dÄĽ
Ġp sem
Ġpod kladÅ¯
Ġslu Å¡ÃŃ
ĠzÅ¯ stanou
Ġzvy kem
Ġtexti lnÃŃ
Ġto ÄįÃŃ
ĠDra ho
Ġna pÄĽ
Ġslab Ã©
ĠJir ka
ĠpÅĻe stat
Ġne dÃŃlnou
ĠHD P
Ġma stu
Ġpu stil
Ġpodnikatel skÃ©
Ġna de
la ss
ĠÅĻÃ¡d ku
Ġosm nÃ¡ct
Ġf er
Ġp se
Ã¸ i
ty pi
ĠoznÃ¡ mila
ĠnapÃŃ na
ĠpÅĻiblÃŃ Å¾it
Ġna klÃ¡
ment Ã¡lnÄĽ
ĠrÃ½ Å¾e
Ġsoukrom Ã©ho
ĠnÄĽk terou
ĠvÃ½kon nost
Ġhrdin a
Ġdo hoda
den tÅ¯
ĠL is
ĠpÅĻÃŃspÄĽv kovÃ¡
Ġin ovace
ĠPh Dr
Ġza drÅ¾
Ġmem brÃ¡
se s
ĠkrÃ¡s nÃ©ho
Ġdefin ice
Ġpostav ÃŃ
ĠÅ¡pat nÃ©ho
ĠV od
lÃ¡ nu
Ġf ru
ĠÅ½Ã¡ dost
Ġta h
Ġroz mÄĽrech
pl Ã½vÃ¡
Ġ9 3
Ġkamen Å¯
Ġpropa gan
ĠVÃ½ Å¡e
gem ent
pis uje
do la
Ġkra jÅ¯
ĠM V
Ġpro t
Ġp up
Ġ9 1
ad va
Ġjakou si
Ġtitu lÅ¯
ĠR OZ
met rie
Ġstvo ÅĻenÃŃ
mo s
ba vÄĽ
N ÃĿ
ĠpÅĻedpo klÃ¡dat
ĠdÄĽlÃ¡ te
ĠDne ska
Ã¡l ku
Ġb ed
Ġsva hu
Ġleta dlo
ĠL ist
pra vÃŃ
ĠvyÄįer pÃ¡
ĠÅĺ ada
Ġmas em
teÅĻ skÃ¡
ĠjÃŃ dlu
ĠA mat
iti on
Äį kÃ¡ÅĻ
ĠstÄĽ hovÃ¡nÃŃ
le a
ĠdozvÄĽ dÄĽl
ĠRo din
ĠStanis lav
Ġsk lu
Je dna
ĠS mÄĽr
ĠAby chom
ĠsmÄĽ ny
ĠSer ver
ĠÅł pi
Ġa st
Ġmi gran
Ġpo nechÃ¡
de a
nÃ¡ rodnÃŃ
ĠprÅ¯mÄĽr nÃ¡
Ġstan oviÅ¡tÄĽ
ĠM nÄĽ
ov skÃ©ho
Ġch atu
Ġse stava
leÄį nÃ©
clu sive
Ġhistori ÃŃ
ĠMusÃŃ me
Ġko rÃ¡
ĠÄĮT K
ĠzpÄĽvÃ¡ k
Ġpo cÃŃ
di sko
ĠÃºno r
tÄĽ Å¾Å¡ÃŃ
Ġdra h
ĠobrÃ¡ bÄĽ
su lt
Ġspoleh livÃ©
pe la
ĠsnÄĽmov ny
ĠG old
ĠzÃ¡ru ku
schop nost
ĠvÃ¡ pen
Ġkyse lin
ĠzÃŃskÃ¡ vÃ¡nÃŃ
ĠvajÃŃ Äįka
ĠÄįer pa
ĠpÅĻÃŃtel ky
ĠVy dÃ¡no
Ġos ma
Ġinzer ce
ĠzÃ¡j mem
ĠvitamÃŃ nÅ¯
D a
ĠpÄĽ ta
Ġob dÃ©
Ġbarva mi
ĠM U
c ovou
ovnÃŃ ky
ĠF it
ĠnÄĽkter Ã½mi
ed vÃ¡
Ġli Å¡it
Ġpozi c
ĠT la
Ġdo razil
Ġur ÄįÃŃ
ĠbÃŃ lÃ½ch
Ġrozhod nuto
ĠSer vice
** **
Ġb as
Ġblo ndÃ½
Ġ- --
Ġokol nosti
Ġza Ãºto
ĠpÅĻidÃ¡ vat
Ġteori i
Ġobn ovenÃŃ
Ġna razil
Ġo tisk
F il
ĠzaÄįÃ¡teÄįnÃŃ ky
na mu
ĠLi ght
ĠnÄĽkter Ã©ho
Ġpos vÃ¡t
ĠdosÃ¡ hne
Ġporu ch
Ġdo tek
ĠurÄįit Ã¡
Å½ P
Ġd ary
ĠkrÃ¡ sa
ĠM it
ĠÃº de
Ġroz vr
Ġexist ovat
, .
Ġvy sou
J E
Å¾ eni
ĠÃºÄįin nÄĽ
Ġvy vÄĽ
Ġcuk rÃ¡
ĠR Å¯Å¾
cion ali
z lo
ra ly
Ġevi d
Ġok r
Ġsval ovÃ©
Ġob orech
ĠzboÅ¾ÃŃ m
stan u
s lÃ¡
Ġcen nÃ½ch
ĠS pr
Ġnemy slÃŃm
Ġst ri
za m
Ġpreven ti
ĠSoko lov
Ġefe kty
ĠvÃ½mÄĽ nÄĽ
Ġkte rej
Pro gram
ĠdÅĻÃŃ vÄĽjÅ¡ÃŃ
re sa
ĠPra gue
ĠmÃŃsto sta
Ġpo rodnÃŃ
Ġkoleg ovÃ©
ĠC hÃ¡
Å¾ nÃŃk
Ġlo komoti
ĠpÅĻe Å¾ÃŃt
fi x
ĠNej dÅĻÃŃve
Ġob novu
rych lÃ©
Ġzlo men
Ġkro m
Ġdu e
Ġk rÃ©
nt ry
ĠÄį iny
Ġaut enti
Ġmonit oru
Ġspu Å¡tÄĽ
Ġakce pt
ĠtÃ½den nÃŃ
dÃ¡ vÃ¡nÃŃ
ĠsdÄĽ lit
ĠZ dar
ĠpÃ¡ su
Ġka bÃ¡
Ġli nii
Ġporozu mÄĽnÃŃ
mÄĽ stÃŃ
onÃ¡ tu
ĠP lÃ¡n
jez dÅ¯
Ġv nÃŃma
Ġti pÅ¯
ĠvÅ¡ udy
Ġklu by
Ġfotbal ovÃ©
ĠvykonÃ¡ vÃ¡
ĠPa ci
ĠFor d
ĠzvlÃ¡Å¡ tnÃŃch
ĠAnd rej
Ġsr dcem
ĠS druÅ¾enÃŃ
S tra
ĠÃºspÄĽ chÅ¯
Ġvy slech
ĠpÅĻi chy
Ġhrdin y
ĠuskuteÄį nil
Ġprovoz nÃŃch
zd ra
Ġrakov iny
Ġcestu jÃŃcÃŃch
Ġrespekt ovat
ĠF ar
Ġob klo
Ġnej nÃ¡
ĠAu di
Ġem isÃŃ
Ġpasi vnÃŃ
Ġprodu cent
ĠpÄĽk nou
ĠpÅĻe dnÃŃm
ĠÃºspÄĽ chem
ĠÅ¡pat nou
Ġvolej bal
Ġsk Ã¡ly
ĠHlu bo
Ġdo ÄįkÃ¡
ĠpÅĻed Äįas
ĠAfri ce
p sa
Ġope vnÄĽ
h Ã¡d
Ġv chod
ĠprobÃŃ hala
Tu be
z ovanou
ob ili
ĠobyÄįej nÃ©
Ġban ce
Ġkomu nÃ¡l
Ġto tali
Ġdiplo m
Ġproje ktem
ĠzÃ¡ch vat
ĠvyvolÃ¡ vÃ¡
ĠM nich
ĠrozpoÄį t
C K
on ovÃ©
ĠprochÃ¡ zku
ĠvÃ½cho du
ĠsÃ½ r
Ġne stÃŃ
ĠnÃ¡kup nÃŃ
ĠPO Z
Ġemo cÃŃ
ĠB ig
Ġspeci Ã¡lnÃŃm
ĠpÅĻipra vÃŃ
zna la
ĠvÃ½poÄį tu
Ġter m
Ġprod lenÃŃ
ĠS met
Ġonemoc nÄĽnÃŃm
d Ã©ho
Ġe k
Ġpev nosti
Ġosoba mi
Ġmo rÃ¡lnÃŃ
ĠJ mÃ©no
lÃŃ Äįky
ĠR A
oru m
ĠzajÃŃma vosti
ĠzpÄĽva Äįka
b log
Ġtr hÅ¯
Ġroz le
ĠzpÅ¯sob ÃŃ
Ġprovoz ovatel
ĠÄįe la
Ġpsycho logie
sti ckÃ©m
Ġprac ovala
Ġpodob nÃ½m
Ġvak cÃŃ
Ġbran kÃ¡ÅĻe
ĠM ali
be rou
ĠzÃ¡ jezdy
Ġole ji
Ġnapo jenÃŃ
ĠpÅĻine jmenÅ¡ÃŃm
Ġroz loÅ¾enÃŃ
ĠMo de
na u
ĠstÅĻe chu
pl nÃ©
ĠJi ze
ob e
Ġpara le
Ġkuchy nÃŃ
ĠM Hz
ri d
Ġg ro
fil m
ĠnÃ¡z nak
ĠEle ct
Ġz nemo
ĠHra d
Ġmulti funkÄįnÃŃ
Ä ¾
Ġkoncep tu
Ġnaro dila
Ġkober ce
dÃ¡ vajÃŃ
Ġinform oval
ĠRu mun
Ġformu lar
Ġob av
Ġproblemati ky
ĠÄĮ NB
Ġnetra di
Ġza chÃ¡zenÃŃ
ĠUl tra
ĠzpÄĽt nÄĽ
ĠvÃ½raz nÃ½
ĠÅ¾Ã¡d at
d itu
sÃŃ te
ĠvzdÄĽlÃ¡va cÃŃho
ĠotevÅĻ ena
Ġzauj al
ĠdostateÄį nou
Ġfor m
ĠMi chala
ĠpÅĻiprav ovat
Ġza hy
ĠdrÃ¡ ha
Ã¡ ty
one y
Ġumo Å¾nÄĽ
va nÃŃ
I ng
Ġli ze
ĠlÃ¡ hev
Ġbun da
ĠsvÄĽt lem
ĠpÅĻipomÃŃ nky
ba ce
Ġv Ã¬
ĠA sociace
Ġso lÃ¡rnÃŃ
in te
ĠstÅĻÃŃ da
b as
Ġhejt man
Ġa lar
Ġza pamat
ĠBus iness
Ġza Å¾il
ĠlepÅ¡ÃŃ mu
Ġkabe ly
Ġmil Ã½
Ġkr menÃŃ
Ġto k
Ġza pal
ĠvÃ½rob cem
F F
Ġve get
ĠHo do
ĠpÄĽ ve
Ġbal k
Ġzane d
Ġjednotliv ce
Ġdo Äįas
Ġvhod nÃ©ho
Ġkober ec
ĠÅł te
ĠnÃŃm Å¾
V ID
Ġuprav enÃ©
ĠP oru
C hy
ar chi
plat ky
se lu
Ġtram vaj
Ġsu chÃ½
Ġstandar dnÄĽ
ĠE co
K L
âĨ ĳ
Ġne pravidel
g ent
Ġdi vi
f et
Ġnej roz
ĠznÃ¡m Ã½m
âĢ¦ )
w o
Je likoÅ¾
ĠnabÃŃ dl
Ġsmart pho
Ġpo Å¾eh
Ġosla b
ĠIn stitu
ĠrozÅ¡i ÅĻ
ĠH R
Ġvaz ba
ĠS Z
ĠNe chy
Ġpoznat kÅ¯
ĠJo han
Ġnavi gace
ĠR Ã½
Ġsu ver
Ġodstav ci
Ġsna dnÃ¡
ÄĮe skÃ½
Ġpohyb em
ĠnepotÅĻeb uje
Ġmat kou
Ġmuze u
Ġhladin a
Ġvyb rÃ¡
ĠotevÅĻ enou
ÅĻÃŃ z
Ġvypa dala
Ġsyn chroni
US E
Ġs ra
ĠznÃ¡ sil
Ġvypl nÄĽnÃŃ
Ġkou kat
ĠC am
Ġexklu zivnÃŃ
ber k
ĠÄįtvr tÃ½
ĠÃºÄįast nit
ĠvÄĽn ovÃ¡na
ĠE K
Ġspou Å¡tÄĽ
Ġokra je
ĠO k
ĠKo mp
ĠRÃ¡ no
ĠT P
Ġsateli tnÃŃ
Ġdo Äįkat
Ġpodla hu
ĠrÃ¡ dy
Å¡tej n
hÃ¡ nÃŃm
Ġtak zvanÃ©
ĠAmeri Äįan
dÄĽli li
del Å¡ÃŃ
Ġza znÄĽ
Ġinvest or
ter nÃŃ
Ġpa ste
ĠvstÅĻe bÃ¡
Ġpo Å¡le
Ġod nÄĽ
Ġprost ran
Ġrezer v
Ġopa ÄįnÃ©m
ĠÃļ daje
ä¸ Ń
Ġpa ro
A r
Roz hod
zÃ¡ ny
Ġudr Å¾itel
ĠprÃ¡ vu
ka p
Ġbavl ny
ĠJin Ã©
Ġteplo t
ĠAktu Ã¡lnÃŃ
ĠchÃ¡ pat
Å¾ oval
ĠorgÃ¡n em
ĠrÃ¡di o
ĠprodÃ¡ vajÃŃ
Ġper man
Ġpo pro
ĠDÃŃ tÄĽ
ĠoznÃ¡ mit
Ġcerti fikov
Ġreg ul
ĠpeÄįi vo
Ġpne u
ĠCe lÃ©
ov en
Ġnespo koj
ĠNe bylo
Ġole jÅ¯
ĠPh ili
Ġska lnÃŃ
Ġf re
ĠpÅĻiprav ujÃŃ
Ġpe ro
Ġso lÃŃ
b is
n c
Ġs enÃ¡
Ġautobu sy
i te
Ġbo hy
D I
ĠBo j
Ġslu Å¡nÃ©
ĠzÃ¡vodnÃŃ kÅ¯
e fici
Ġopera ÄįnÃŃho
Ġnevi dÄĽla
ban k
ĠBrati sla
Ġprob ou
ĠJ eru
Ġpi xel
ĠlepÅ¡ÃŃ ho
ĠnÄĽmu Å¾
Ġsamot nÃ½m
Ġna kupu
Ġnejrych lejÅ¡ÃŃ
Ġnejvy Å¡Å¡ÃŃm
Ġpolo o
Ġrem ÃŃ
ĠkrÃ¡t kÃ©m
Ġnej dÃ©le
teo ro
ĠnejoblÃŃb enÄĽ
ĠVy Å¡Å¡ÃŃ
Ġcy klostez
/ ,
rÅ¯ v
Ġtra gÃ©
ĠUnivers ity
Ġexp an
EK T
ĠsvÄĽt ovou
Ġstaveb nictvÃŃ
Ġs lan
ologi ckÃ½ch
ĠBo ok
Ġkolekti vu
Ġpod r
ĠhÅĻe bÃŃ
Ġkni Å¾nÃŃ
Ġtra s
ĠstÅĻedovÄĽ ku
li an
Ġnavr hl
ĠmanÅ¾el kou
Ġnau Äįil
ĠpracovnÃŃ ka
Ġkoncer tÅ¯
va lech
ĠEvro pu
ĠodstÃŃ ny
Ġmi lujÃŃ
ĠtÄĽ snÃ©
ĠrukÃ¡ vem
Ġtable tu
Ġdo kou
Ġbez kon
Ġvzor kÅ¯
ĠDo m
ĠP rÃ½
vÄĽdo m
ch ar
Ġventi lÃ¡tor
ĠpovaÅ¾ ovÃ¡na
ĠreÅ¾is Ã©ra
Ġpo ni
Ġpoky nÅ¯
ĠE T
Ġsemi finÃ¡le
Te chni
ĠsouÄįas nou
ĠkÅĻesÅ¥an stvÃŃ
ĠpÅĻi vÃ¡
gu a
ĠO strov
ĠPÅĻÃŃ bÄĽh
du r
Ġinte grace
Ġtu ky
Ġpodla ha
Ġpa desÃ¡ti
Ġta len
Ġmet ry
ĠP A
Ġ9 4
sko p
ĠInter netu
ĠchÃ¡ pe
Ġga u
Ġsho ra
Ġdo loÅ¾
ma gne
ĠÅĺe kl
mer ÄįnÃŃ
maz Ã¡n
ĠVi ce
ova nost
ĠD R
Ġroz ma
min i
Ġpod zemnÃŃ
Äį nostÃŃ
Äįte te
Ġzt vÃ¡r
Ġpravo moc
Ġzave de
s an
Ġvy chÃ¡zet
ĠpolÃ© vka
Ġvod or
ĠÃº kor
Å¡ ude
Ġkar tÄĽ
ĠÅ¾elez ni
Ġv Äįela
ĠnezÃ¡vis lÃ©
ĠobzvlÃ¡ Å¡Å¥
me nÃŃm
Ġtechni ckÃ½
Ġaktu Ã¡lnÃŃch
dr Å¾el
ĠKo lo
ĠdaÅĪ ovÃ©ho
ĠtÄĽÅ¾ kÃ¡
pÅĻÃŃ jem
Ġspou stou
ĠMÄĽ sta
" ,"
Ġhlub Å¡ÃŃ
Ġklik nutÃŃm
Ġspor tÅ¯
Ġor to
Ġn enu
Ġpoku tu
ko m
Ġzep tala
Ġly Å¾e
ĠnÃ¡dher nÃ¡
ĠKSÄĮ M
ĠÅ¡Å¥ast nÃ¡
ĠPol sko
ÅĪ skÃ©
va mi
Ġpro Å¾it
stu doval
ĠS li
ĠObje dna
ĠTep lice
Ġza hu
nan Ã¡
Ġat ribu
Ġkon alo
Ġza loÅ¾it
Ġosvobo zenÃŃ
h ÅĻi
ĠDo le
ĠÅ¡ ok
Ġn ul
ĠKrum lov
ĠvzdÃ¡ t
Ġfanta sy
Ġpoliti ckÃ©ho
Ġfar mÃ¡
ĠKa Å¡
Ġosla vu
ova nÄĽjÅ¡ÃŃ
Ġvedou cÃŃho
Ġkoupel nÄĽ
ĠzmÄĽ nÃ¡ch
ĠÄįe skÃ½mi
ĠOrli cÃŃ
Ġalg orit
Ġuprav uje
Ã¡ ru
Ġro kÅ¯
Ġje hli
Ġvyu Å¾ili
Ġkok tej
ĠB c
Ġmo ct
Ġin de
Ġtrans ak
ĠMarkÃ© ta
sho pÅ¯
Ġv Äįel
ĠÃºz kÃ©
Ġna klo
ĠvÃ¡ ze
H ned
ÅĪ me
p ÅĻÃ¡
........ ........
Ġdr Å¾Ã¡k
Ġpo chÃ¡zejÃŃ
ĠuvaÅ¾ ovat
ĠpÅĻe vy
ĠV zor
h nutÃŃ
ĠveÅĻej nÃ©m
Po z
ĠpÅĻijÃŃmÃ¡ nÃŃ
M ez
ä ¹
Ġaktu Ã¡lnÃŃm
Ġko pu
Ġprotoko lu
Ġtradi ÄįnÃŃm
ĠuÄįi li
kovÃ¡ nÃŃm
ĠOS V
Ġvar ovÃ¡nÃŃ
Ġa tom
Ġchla pci
ĠzajiÅ¡tÄĽ no
ĠpapÃŃ rÅ¯
Ġvol bÄĽ
Ġe kono
Ġpoku sil
ĠrozÅ¡i ÅĻuje
Ġkole ga
Ġa dekvÃ¡
Ġt ance
Ġli ni
Ġpodstat y
Ġprosin ec
ĠÐ ²
Ġuveden Ã½m
ĠveÅ¡ker Ã½
ĠposÃ¡d ky
pub lik
Ġokre se
ĠnÃ¡d voÅĻÃŃ
st rem
Ġfinan ÄįnÃŃm
F OR
Ġpubli kum
Ġnez tra
o dol
de ckÃ©
Ġcit livÃ©
ĠH z
Ġkoleg Å¯
Ġ }
Ġpr votÅĻÃŃ
Ġslib uje
Ġzakou penÃŃ
ĠS vou
Ġinternet ovÃ©m
ĠpoÅ¾ Ã¡dal
8 00
ĠI l
ĠD er
Ġnemu seli
Ġnebav ÃŃ
Ġsou dce
Ġdu Å¡ÃŃ
se y
ĠR ub
Ġkolik rÃ¡t
M an
Ġz organi
Ġt on
ĠobliÄįe ji
Ġdub en
Ġfo tit
ĠÅ¡ un
it Ã½m
Ġautomob ily
Ġ3 20
ĠMar ket
ĠtakovÃ© to
Ġtro pi
Ġspon tÃ¡n
Ġpo mysl
Ġvy hro
Ġvy Å¾i
Ġg lo
ĠpÅĻÃŃjem nÃ©ho
Ġcuk rem
Ġgeo metri
Ġjedin ci
ĠHarry ho
Ġustan ovenÃŃm
ĠhÅ¯ ÅĻe
ĠpÅĻÃŃstup nÃ©
ĠnÃ¡vr hÃ¡
ĠVy rob
Ġzvy Å¡ujÃŃ
Ġt kan
tÃ¡ Å¾e
Ġroz ko
hle dÅ¯
p sali
ĠVyso kÃ¡
Ġv skutku
ÄįnÃŃ mi
Ġzak a
Ġspekt rum
ĠpÅĻit Ã¡
Ġope rÃ¡tor
ĠbÅĻi cho
ĠBe sky
Ġzada vatele
ĠI denti
ĠpodmÃŃ nkÃ¡m
ssi c
Ġuz nat
stÃ¡ nu
ĠDÄĽ ÄįÃŃn
Ġzdob ÃŃ
ĠPÅĻem y
Å¡ ova
ĠjÃŃ dle
ĠpÃ¡ smu
ĠurÄįit Ã©ho
Ġkont inu
Ġtex tem
Ġinspi r
re ct
ĠveÅ¡ker Ã½ch
ĠMer ce
Ġvy rovna
å ħ
Ġvych ovÃ¡
ĠzÃ³ na
Ġz rak
ĠÅĺe ditel
Ġsto ly
ĠdÃ¡ vek
Ġambu lan
Ġza mil
ĠvÃ½ sad
ĠPou Å¾ÃŃvÃ¡
k toÅĻi
Ġsetka l
Ġkontak tÅ¯
Ġt im
de Äįek
me Äįku
av er
Ġna sÃ¡
Ġf rÃ¡
ĠzmÃŃ nil
Ġplatfor my
Ġob Äį
pÅĻ Ã¡t
Ġbo ha
ĠMy sle
Äļ T
ĠOb jem
itu ace
Ġobo jÃŃ
ĠvÄĽ da
ĠSa da
Ãį N
Ġvy razÃŃ
gi ckÃ¡
ĠvÃ½ dÄĽ
Ġvytr va
Ġodpa dy
Ġe sen
Ġsloven skÃ©
Ġu ÄįinÄĽ
Ġkomple xu
p per
ĠDo kon
P u
Ġpomo hlo
ĠtrÃ¡ vit
Ġprojekt ovÃ©
Ä ĩ
Ġza stavÄĽ
Ġtaj nÃ©
ĠcÃŃrke vnÃŃ
ĠMÄĽst skÃ©
Ġo chu
Ġkou kÃ¡m
Ġna ruÅ¡
ĠO ni
Ġdo mech
ĠSD H
Ġprostran stvÃŃ
len tnÃŃ
ĠÃºÄįin ku
Å¡ko lÃ¡
di ckÃ©
Ġpoz mÄĽ
Ġpro z
ĠbÅĻe zen
ĠvÃ½u ka
Ġskla datel
Ġrov nÃ¡
ĠPat ri
Ġpoto ka
ÅĻ in
Ġhla v
Ġpam Ã¡tku
ĠG Hz
ni ckÃ½m
Ġju bi
Ġproto kol
Ġvy stavÄĽ
Ġin va
Ġko j
ĠudÄĽlÃ¡ me
Ġten i
Ġ% ).
Ġtam nÃŃ
ĠpoptÃ¡ vky
Ġprogram ovÃ¡nÃŃ
Ġdopa dy
ĠzÃ¡ mÄĽrnÄĽ
Ġvy myslet
ĠkamarÃ¡ dky
Ġnapro stÃ©
ĠÃºko lu
Ġmulti medi
Ġkam na
ĠzÃŃska jÃŃ
ĠR on
ĠÄĮer nÃ©
ĠÄįist Ã©ho
Ġcelo dennÃŃ
Ġzim nÃŃm
ĠP it
ĠÄĮS OB
Ġmi stra
Ġo stro
ĠÅĻidi ÄįÅ¯
Ġzakon ÄįenÃŃ
ĠKu chy
Ġvy za
he j
Ġtrval Ã©ho
Ġne hle
sa hem
Ġne ov
ĠF yzi
ĠznÃ¡ mou
ĠnezamÄĽstna nosti
ĠsnÃŃ Å¾ÃŃ
Å¡ ovi
ĠzamÄĽstnan cÅ¯m
Ġd rÃ¡t
Ġdopl ÅĪujÃŃ
Ġnedo sÃ¡
Ġjeze ro
Ġchla pec
ĠY a
Po dÃŃ
Ġvych utnat
ĠrozdÃŃ lu
Ġu ltrazvu
Ġop al
ĠK lÃŃ
Ġroz pa
/ -
ĠmoÅ¾nost ech
ĠvÃŃ ra
ĠÃº vo
ĠstÅĻe va
va dÅ¾
Ġschop nÃ©
to mi
Ġpokry tÃŃ
Ġmatur itnÃŃ
ĠodpoÄį inout
Ġhud bÄĽ
ĠpÅ¯j du
ĠleÅ¾ÃŃ cÃŃ
ov ci
Ġsy nem
Ġvi zi
Ġtr pa
Ġk ovu
ĠpÅ¯ li
Ġkon ta
ĠzaÄį nu
dÃŃ Å¡
Ġde s
ĠbÅĻi cha
Ġochot ni
n aly
Ġkon ajÃŃ
Ġp Ã¡tku
ĠÃº stÅĻednÃŃ
ĠF on
Ġtyp em
ĠOpa va
ĠNej ÄįastÄĽji
Ġdvo ra
ĠÅ¾i vin
J u
Ġda b
Ġchoro by
NES CO
Ġreali ta
Ġo hodnocenÃŃ
Ġmo men
ĠnÃŃz kÃ½
ĠzbÃ½ vajÃŃcÃŃ
ĠzvlÃ¡ dli
Ġr Å¯Å¾e
Ġzkou mÃ¡nÃŃ
Ġpostup uje
zna my
Ġplat bu
roz enÃ©
Ġpova hu
å½©ç¥ ¨
Ġvyh ÅĻÃŃ
logi ckÃ¡
Ġska ut
ĠSpoleÄį enstvÃŃ
ĠBa by
Ġboj uje
ĠkrÃ¡s nÃ½m
Ġtrou bÄĽ
Ġex plo
ĠpoznÃ¡ te
Ã³ nem
Ġpro sk
Ġne dalo
Ġle tÃŃ
ĠBoÅ¾ÃŃ ho
ĠF lori
ĠÃº lohy
Ġbun dy
] [
Ġspu stit
ĠA na
ĠpouÅ¾ÃŃvÃ¡ te
i Å¡tÄĽ
Ġtelefon em
k in
Ġminist ry
c inu
Ġpra xÃŃ
ĠpÅĻÃŃrodnÃŃ m
ĠsouÄįas nÃ¡
ĠveÅĻej nÃ¡
Ġpokr mÅ¯
ĠstÅĻÃŃbr nÃ©
ĠD ÅĻÃŃve
bi a
} .
la j
ĠP on
ĠÄĮ V
ĠKa pacita
ĠhrÃ¡Äį Å¯m
Ġne dal
ĠN ym
sko pi
Ġnapo mÃ¡hÃ¡
ĠA ri
Ġbron z
ĠG ol
z nice
Ġk in
Ġpar dubi
ĠdokÃ¡ zat
Ġ19 18
pÃŃna Äį
ĠpÅĻÃŃm Ã©ho
ÃŃ k
ĠtrpÄĽ livost
Ġab stra
Å¡ kovÃ©
ICK Ãī
Ġpro ta
ĠBene Å¡ov
di kt
ĠvelkÃ© mu
n du
syp eme
Ġsobo tnÃŃ
ĠdÃŃ k
Ġp etr
Ġu de
ĠC ore
Ġjader nÃ©
ĠsluÅ¾ba mi
t ory
Ġneda lek
ĠJi zer
ĠPÅĻe rov
ĠLi fe
Ġp ovÃ½
Ġp lovou
ĠzÃ¡vaz kÅ¯
ĠLud vÃŃ
Ġhlubo ce
ĠPa ul
ĠSou tÄĽ
ĠvÄĽnu jÃŃ
ĠbÄĽÅ¾ nÃ½m
Ġstan u
ĠprochÃ¡ zky
h ovacÃŃ
ĠnÃŃz kÃ½m
ĠPÃ¡ na
ĠBar ce
Ġzpo Å¾dÄĽnÃŃ
Ġ ovÃ¡
lÃŃ ÄįkÅ¯
Ġpla cenÃŃ
ĠlÃ¡ h
AR D
Ġjednoduch Ã½ch
Ġd na
p hone
Ġpro p
Å¡ kÅ¯
Ġby tÃŃ
ĠzÃ¡klad nu
ĠâĢ º
ĠW o
ĠS up
ĠU R
ĠV ez
Ġzas lÃ¡nÃŃ
ĠzÃ¡chra nu
x t
ĠPÃŃ s
ĠpÅĻehrÃ¡ vÃ¡nÃŃ
Ġdoj mem
Ġko jenÃŃ
hlÃ© dla
jednodu Å¡Å¡ÃŃ
ĠN ov
Ġnemo cen
Ġpochlu bit
dÄĽpodob nÄĽ
m ak
ov kÃ¡ch
ĠvÃ½Å¾i vu
K r
ĠnavÃ¡ zat
po chy
ĠMo j
Ġzahrnu jÃŃ
Ġpro gre
Ġtlu mi
Ne bo
ĠmÃŃ ÅĪ
Ġdostup nosti
Ġoch rÃ¡
in st
ĠPo s
Ġgene racÃŃ
ĠvÅ¡im l
j ce
Ġvelko lep
Ġorganiz Ã¡tor
Ġty Äįe
ĠzajiÅ¡tÄĽ na
ĠzajÃŃma jÃŃ
Ġbu dÃŃ
ĠocenÃŃ te
Ġga y
Ġhroma da
Ġsku t
Ġregu laci
Ġnejsil nÄĽjÅ¡ÃŃ
Ġex ce
e konomi
Ġna fo
S er
Ġnim Å¾
Ġkou pili
ĠTo ho
ĠM M
ĠÄįtr nÃ¡ct
ĠdosÃ¡ hli
Ġdeta ilu
Ġdemokra cii
ĠK it
ĠlÃ© Äįit
ĠKo men
Ġvelik Ã½
v zetÃŃ
Ġspoj ena
ĠroÄįnÃŃ kÅ¯
ĠPrac oviÅ¡tÄĽ
ĠukÃ¡ z
Ġfot ce
Ġmak lÃ©
ĠgymnÃ¡zi a
ĠF OR
Ġpar ta
Ġjed eme
Å¾ nice
ĠpÅĻedÃ¡ vÃ¡nÃŃ
ĠjÃŃm Å¾
ĠKar lovÃ½ch
Ġ11 5
Ġut vÃ¡
ĠMora va
Ġdoporu Äįil
ĠtÃ©m ati
mÃŃ te
Ġz od
Ġnu tÃŃ
hlÃ© dnu
Ġhovo ÅĻit
ĠA maz
ĠpÅĻÃŃtel kynÄĽ
Ġregene raci
Ġkyseli na
ĠdÃ¡ na
ĠpoÄį Ã¡tkem
ĠstÃŃ n
Ġ Ñģ
Ġu sÃŃ
vnÃŃ ci
ĠÅ¡est nÃ¡ct
Ġpou kaz
Ġvhod nÄĽ
Ġnez le
Ġpenzi j
Ġpro da
Ġru skÃ©ho
ĠB li
pl nÄĽnÃŃ
ĠJ itka
Ġmaji teli
Ġs padÃ¡
ist r
Ġseni or
ĠsmÄĽÅĻ uje
ĠnÃ¡ro ku
Ġproje ktech
ĠÅ¡Ã© fa
Ġlo gem
Ġvi ce
Å¡ko lnÃŃ
ĠnÃ¡ ram
Ġodbor nÃ½
zi ce
ĠpoÅ¡t ovnÃ©
Ġka fe
ĠpokraÄį ovala
Ġo Å¡et
Ġaku tnÃŃ
ĠzvÃŃtÄĽz il
ali t
Ġsportov nÃŃm
ĠvÃ¡ le
ĠDoporuÄį uji
ĠnÃ¡vr hem
ĠNem Ã¡m
ĠIC T
ÅĻi zuje
Ġrostli na
Ġpr vku
ĠÅ¡ am
Ġzi my
Ġpilo t
Ġsamot nÃ½ch
Ġne komp
dÃ¡ r
Ġve dly
i tele
te Äįe
dit y
Ġmat ri
x o
dÄĽ jÃŃcÃŃ
ĠÃºsp ory
Ġc ro
Å¡Å¥ Ã¡l
i ck
MÄĽ sto
Ġnegati vnÄĽ
ĠtÅĻ py
ĠÄįas Å¯
Ġha dice
Ġposkyt ovatel
ĠA UT
Sou ÄįÃ¡stÃŃ
ĠÅĻÃŃkÃ¡ te
k ory
Ġmatemati ky
ĠrÅ¯zno ro
r r
Ġve tÅ¡ÃŃ
ĠmlÃ½ n
Ġtelevi znÃŃch
ĠJapon sku
ĠsleÄį na
ĠB O
ĠnezÃ¡ va
Ġs dÄĽl
Ġtepel nÄĽ
Ġjednotliv Ã½m
logi ckÃ½
ĠM K
ĠnepÅĻÃŃ liÅ¡
Ġï Ĥ
li ti
ĠA kti
zÃ¡ toÅĻi
ĠNÃ¡ stup
Po tÅĻeb
Ġdosa Å¾eno
ĠnepÅĻed stav
Ġd av
Ġne bi
ĠBÄĽ lo
Å¡ÃŃ n
Å¡ ovice
ĠZ Å¯
pis ovat
he ra
stau race
ĠE R
Ġbohat Ã¡
d nÃ½m
ĠKli ent
dnÄĽ ji
ĠAle spoÅĪ
di k
Ġchod il
Ġcibu li
ĠnÃ¡vaz nosti
ĠprostÅĻedÃŃ m
po koj
Ġmagi ster
Ġvi ditelnÃ©
ĠVol kswa
ar Å¯
Ġhlu ku
ĠzabÃ½ vajÃŃcÃŃ
Ġpej ska
Ġka Å¡
Ġsou dy
Ġroz mno
b ezpeÄį
lin ka
Ġvy mÃ¡
ĠjÃŃ zd
ch l
ri ve
rÃ¡t ory
ĠnabÃŃ zenÃ½ch
ĠFor mu
ĠnebezpeÄį nÃ½ch
ĠR T
Ġmo dli
ĠK B
Ġsv ato
Ġin kou
ĠS ci
Ġnes na
Ġfak tury
ĠDvoÅĻÃ¡ k
is ÃŃce
z te
Po tÃ©
Ġdvoji ci
Ġvyp nutÃŃ
ĠvÃ½ drÅ¾
Ġpo po
ĠS pou
Ġod ci
Ġnep ova
slov ÃŃ
Ġzru seni
ĠnÃ¡vÅ¡tÄĽ v
ĠÃºÄįel Å¯m
Ġzdra vÃ¡
Ġvyme zenÃŃ
ĠM el
ĠDu cha
ĠzÃ¡ kazu
. âĢ¦
Ġmas ÃŃ
ĠvÃ½raz nou
Ġoch utnat
ĠStre et
Ġ19 39
Ġdepre se
ĠPoÅ¾ad ovanÃ©
ĠRo y
Ġrelax aci
ph p
ĠpÅĻe loÅ¾
Ġani m
Ġnavr huje
d lÃ©
Ġko Å¾nÃŃ
âĢľ ),
ĠI B
Å¾ Ã¡d
Ġfla sh
enÃŃ k
Ġneoby Äįej
Å¡ kÃ¡ch
ĠÅ½ eny
ĠS cho
ĠCh an
ĠCe stou
ĠptÃ¡ kÅ¯
V Äįera
ĠR M
Ġv pÅĻedu
Ġproveden Ã©
Ġsvat by
Ġzo hled
vor ba
Ġkrou Å¾
z Å¡ÃŃ
ĠzmÃŃ nÄĽnÃ½ch
Ġko pec
ĠNej sem
ĠZvlÃ¡ Å¡tnÃŃ
ĠpodÄĽ kovÃ¡nÃŃ
ĠpÅĻe vlÃ¡
Å¾enÃ½ mi
Ġka pel
Ġsak ra
Ġled nice
ĠnedÃ¡ vnÃ©
Ġob sÃ¡
Ġpo pÅĻe
ĠÅ¾ele za
ĠnÃ¡ pis
Ġh ist
ĠvÃ½ro ÄįnÃŃ
ĠnÃ¡hra da
ĠpÅĻed vÃŃ
ĠvÄĽ cem
ni telnÃ©
Ġelektri ckÃ©ho
ĠtÄĽ lovÃ½ch
Ġchod by
pÃŃ me
Ġprac ovali
t onu
Ġprezent ovat
ĠStu dio
Ġfakul tÄĽ
ĠExist ujÃŃ
Ġba ter
men a
zen tace
ast ing
tla k
ĠSkup ina
ÅĻe cÃŃ
Ġven til
Ġnovin ku
lnÃŃ ka
ĠK ÅĻÃŃÅ¾
ĠJeru zal
D Ã¡
Å¾e Å¡
ĠÅ¾i vÃ½
ĠzÃ¡vÄĽ ry
se arch
Ð ´
ĠÅ½Ã¡d nÃ½
lov anÃ½
Ġuni i
ĠseznÃ¡ mil
ĠÄįÃ¡sti c
Ġobnov it
ĠZ vÃŃ
Ġprav Ã½m
Ġi OS
Äį ar
ÃģL NÃį
lÅ¯ v
nika tel
Ġak vÃ¡
en skÃ½
Ġzachy tit
ĠN AS
Ġji stou
Ġtre fil
ĠpÅĻije de
en d
Ġse ka
ĠpÅĻekvapi lo
ĠptÃ¡ t
gi ckÃ½
Ġlim itu
Ġlah vÃŃ
f ity
Ġdovo z
ĠRÃ¡ da
ce lÃ½
Ġvy Ãº
Ġne umÃŃm
ĠNa chÃ¡zÃŃ
men tuje
Ġu stav
NÃ¡ zev
ĠstÅĻi hu
Ġbyt ovÃ©ho
Ġoc as
Ġcit r
P RO
V OD
. ;
vÄĽd ÄįenÃŃ
Ġka ze
ĠdÄĽj inÃ¡ch
da jÃŃcÃŃch
ĠstÄĽ na
Ġpen ze
Ġcukrov ÃŃ
Ġod jÃŃÅ¾
ĠR D
ĠK ovÃ¡
mysle la
ĠZ lÃŃnÄĽ
vo ÅĻi
ĠPÅĻe dnÃŃ
Ġsty li
ĠIsla nd
Ġdo r
ĠbrÃ¡ nu
ĠzÅ¯ stali
Ġkole kci
ĠdÃ¡m skÃ¡
Ġde toxi
Ġpostav ili
do w
ĠO tec
Ġodha lit
ĠNech ci
Ġro Å¡
Ġdi vnÃ©
Ġbet onu
ĠEner ge
Ġza prac
ĠZ M
Ġozna Äįil
s hi
Mo dernÃŃ
Ġkom or
Å¡t Ã¬
Ġfa u
ĠG DPR
ĠE du
ĠÅł um
Ġji sk
po ji
ĠmyslÃŃ Å¡
Ġabsolv oval
d Ã½m
ĠA ra
Ġse stup
ĠbÄĽ Å¾et
tka mi
ĠzÃŃskÃ¡ vajÃŃ
ĠMu sic
ĠL at
ĠobyÄįej nÃ½
D Y
Ġve jde
is u
Ġsled oval
p rou
ni Äį
ĠkrÃ¡s nÃ©m
ÅĻÃ¡ tÃŃ
Ġvy hledat
Ġz ez
Za jÃŃmav
K li
ĠnejvÃ½znam nÄĽjÅ¡ÃŃ
ment s
Ġpozem nÃŃch
ĠZa ÅĻÃŃzenÃŃ
ĠrÃ¡ z
Ġkonzer v
ĠuvÄĽdo mil
ĠCe lo
Ġmine rÃ¡lÅ¯
ĠK alou
Åł Ãį
ĠvÄĽ kovÃ©
ĠAu gu
ĠvlÃ¡ dou
Ġen cyklope
Ġmodr Ã½
ĠVe lice
ĠpotÅĻeb nÃ½
Ġkont rover
Ġne vo
ĠKo l
i du
ÅĻe je
ĠIn sta
ĠovlÃ¡ dacÃŃ
Ġb Ã©Å¾
ĠdoplÅĪ kem
Ġuniverz it
ĠuloÅ¾ eny
ĠzpÅĻÃŃ jem
Ġslavnost nÄĽ
ĠAkadem ie
ĠvÅ¡eobec nÃ©
ĠJize rou
Ġmou ku
Ġode Å¡la
ne u
ĠstÅĻe dnÃŃho
Ġoto Äįil
Ġzab av
ĠpÅĻedstav ovat
Ġvz tek
Ġokres nÃŃ
ĠMezi ÅĻÃŃÄįÃŃ
A Z
Ġpodob a
Ġo sy
Ġperson Ã¡lu
Ġflexi bilnÃŃ
ĠU nie
ĠÅĻetÄĽz ce
Ġob tÄĽÅ¾
ĠschÅ¯ zi
Ġh nu
ĠN atu
ĠVÅ¡e chna
Ġna hlas
ĠÅ¡Å¥Ã¡ vy
Ġmaji telem
Ġnejmlad Å¡ÃŃ
Ġneod povÃŃdÃ¡
Ġkomi ks
Ġzkou Å¡ce
ĠuÄįeb nice
ĠA kci
Ġklu ka
H y
stÃ¡ n
Ġpolo Äįase
Ġd nÄĽ
Ġ% ),
Ġzvo lili
Ġrozhla su
Ġvy sÃ¡
Ġd rÅ¯be
Ġzpravodaj stvÃŃ
ĠT ren
ĠPov rch
Ġvzor ku
199 7
Ġvaz bu
ĠG ri
Ġroz pro
Ġprovoz ovat
ĠÃºlo Å¾iÅ¡tÄĽ
ĠvloÅ¾ ka
ĠNe chÃ¡
din Ã¡
ĠpÅ¯ da
ing er
ĠT haj
ĠDomin i
ĠP enÃŃze
ĠRoz sah
ĠF ot
Ġa e
ĠpÄĽ ny
Ġpoliti ckÃ¡
Ġle vÃ©m
Ġpolo pen
Ġsaz ba
Ġvybav enÃŃm
Ġ2 10
Ġrekonstru kcÃŃ
ĠtÅĻinÃ¡ ct
m obil
Ġhra dÃŃ
Ġne byt
Ġvy chÃ¡
ĠRa dio
ĠpÅĻÃŃ jezd
Ġuprav ovat
Ġ( *
ĠKon ce
Ġpat ÅĻila
ĠÅ¾ lou
u ri
Ġp let
Ġprote st
ĠE roti
Ġmla di
Ġefe ktu
Ġmou ka
ĠÃºÄį tÅ¯
ci al
Ġce lu
Ġpedago gickÃ©
ĠÄĮe skÃ©m
f ace
Ġplast ovÃ½ch
Ġze lÃŃ
Ġhudeb nÃŃho
ĠP ek
n ina
ĠAktu Ã¡lnÄĽ
Ġserver y
Ġnepo mo
Ġka lori
ĠsoutÄĽÅ¾ÃŃ ch
Ġin sta
ĠvÃŃtÄĽz Å¯
Ġdeva desÃ¡tÃ½ch
v Å¯j
Ġli nek
ti ckÃ½mi
Ġkou pÄĽ
dne te
MÅ¯Å¾e te
ĠuÅ¾ivatel skÃ©
Ġvoli ÄįÅ¯
NÄĽk terÃ©
+ +
ĠJednodu Å¡e
Ġoby t
Ġpr ovin
ĠpÅ¯ vab
ĠnÃ¡mÄĽ stek
Ġprim Ã¡tor
ĠmÄĽ sty
Ġdoprav ce
ĠpotÄĽ Å¡enÃŃ
ĠD Ã¡l
Ġpovin ni
Ġkar di
ĠP ÄĽk
Ġobvy kl
hlo pÅĻÃŃ
da te
ĠdÃ¡ n
Ġatmosf Ã©rou
Ġst la
ĠrozÅ¡ÃŃ ÅĻenou
Ġtep lou
ĠProstÄĽ jov
ĠF M
ĠpÅĻÃŃ mou
Ġslu Å¡
ĠkrvÃ¡ cenÃŃ
ĠmÃŃstopÅĻed se
ĠZa se
ĠkamarÃ¡ dÅ¯
p py
Ġopat r
Ġne hodÄĽ
ĠpÅĻÃŃ chod
Ġplast ovÃ¡
Ġpoho ÅĻÃŃ
Ġj Ã¡tra
Ġne stane
Ġzaz pÃŃ
Ġskup inÃ¡ch
sy n
ĠPÅĻÃŃ prava
Ġsy no
ĠM etro
) ...
Ġdoprav ou
to sti
Ġ4 000
ĠreÅ¾i i
Äįe te
a ra
Ġvstup enky
ĠvÄĽde ckÃ½ch
Ġzapo mnÄĽl
mÃŃ nka
Ġstandar dy
Ġkono pÃŃ
ĠdÃŃl ÄįÃŃ
Ġde Å¡tÄĽ
K om
ĠkandidÃ¡ t
ĠstarÅ¡ÃŃ ho
Ġimp rovi
ĠPo ku
SK Ãī
ĠPodÄĽ bra
Ġro hlÃŃ
dÃ¡ vna
Ġvysa vaÄį
Ġzak ot
Ġvy chÃ¡zejÃŃ
ĠS ub
Ġslou Å¾il
nov y
ĠmÃ¡lo kdo
Ġjed ou
Ġpa nora
Ġpodnika telÅ¯
in ten
K T
Ġnovo rozen
ĠSamo zÅĻejmostÃŃ
ĠkvÄĽt inÃ¡
Ġfak ta
vi ditel
ĠnÃ¡la dy
Ġtabu le
Ġjem uÅ¾
Ġgene rÃ¡l
Ġscho dy
as hi
lÃ¡ ny
vi i
ĠÅ¾i jeme
ĠsprÃ¡v nÃ©m
ĠztrÃ¡t ou
E E
Â ·
ĠzadÃ¡ vÃ¡nÃŃ
ino sau
Ġna start
Ġnevi m
Ġplat nÃ½
pi Å¡
Ġsouhla sem
p anÃ©
Ù ħ
ĠmÃŃ stu
Ġz ven
prav edl
LA S
Ġokre su
ĠkÅĻÃŃ Å¾e
d ny
Ġsu cho
Ġvyhra zuje
mo sti
Ġkolo bÄĽ
ĠpÃ¸edmÃ¬ ty
stav te
Ġnesk on
ĠP hoto
lov anÃ½ch
Ġpravidel nÃ½ch
Ġfa rÃ¡
g l
Ġnev zni
ĠnÃ¡ro Äįnosti
ĠM iss
Ġsamostat nou
ĠS ka
Ġplat nÃ½ch
ĠnÃ¡kup em
ĠÅĻÃŃ jen
Ġkon vice
per to
Ġbl bÄĽ
dr Å¾i
luje te
ĠzÃ¡ pÄĽ
ĠF is
il d
lÃ¡ no
Ġvedou cÃŃch
ÅĻe te
ĠsbÄĽ ru
Ġhoriz on
P er
Ġvy tÃŃ
Ġde skou
do s
Ġvo ÅĪ
Ġmod rou
ĠsezÃ³ na
Ġv klad
Ġ10 6
Ġsam Ã©ho
ĠmÄĽ stu
Ġta Å¡ka
Ġvy ta
ĠdozvÄĽ dÄĽli
re y
Ġneut rÃ¡lnÃŃ
Ġvo lant
Ġdlu hy
Ġv aku
ĠO pak
Ġpoliti k
ĠneurÄįit ou
ĠBÃŃ lÃ©
Ġla min
ĠpÅĻ Ã¡t
ze li
ĠRozhod nutÃŃ
Ġpropa gace
ji tel
Ġe kvi
ĠÄįel nÃŃ
ĠZ V
ĠT it
Ã¡n Å¯
ĠÄįe kalo
Ġ10 8
Ġma Å¡
Ġop en
ĠSmlou va
Ġexklu zi
li vnÃŃ
P ÃŃ
ĠR am
ĠnechtÄĽ li
" ).
ma tem
gra my
Ġpot kat
D en
Ġdetail nÃŃ
Ġho lo
ĠAle na
Ġtrval Ã½
Ġzvo lil
Ġle sÃŃch
ĠnÃ¡hra dnÃŃch
tor em
ĠN ÃŃz
Ġ- >
por uje
ĠmÃ³ dy
ĠAsi i
ĠÅ¾ivo tÅ¯
Ġhor nÃŃm
ĠpÅĻev zÃŃt
Ġkontra st
Ġob ran
Ġelektro techni
Ġvystup uje
ena ger
Ġbyzny s
Ġko lÃŃ
ĠÅĺe Å¡enÃŃ
pu t
ĠbÄĽ hat
j skÃ½
Ġfaktor em
S la
ĠVi ktor
ĠN OV
Ġdia log
ĠumÄĽle ckÃ½ch
ĠV V
ob i
ĠDi vÃ¡
ĠÃºÅĻa dem
Ġvi ze
Ġsr dÃŃ
Ġdo hodou
lov anÃ¡
Ġu drÅ¾ÃŃ
Ġair ba
il ler
ĠZastupitel stvo
kla dech
ĠzahÃ¡j il
Ġpros per
ĠNe bude
Ġpar nÃŃ
Ori ginÃ¡lnÃŃ
Ġhost Å¯m
J ste
Ġz dÃŃ
ĠB ill
Ġhrub Ã©
Ġnez dÃ¡
ĠMast er
Ġplat ba
ĠBabi Å¡e
ale rii
ĠHra dce
Ġsly Å¡ela
ĠpÅĻe stala
ĠF ore
ĠloÅ¾ nici
Ġmo ÅĻskÃ©
ÅĻ iny
Ġdopl nÃŃ
Ġkrou Å¾ek
Ġdi v
au to
ĠdÃ½ch Ã¡nÃŃ
Ġslu Å¡nÃ½
ĠmontÃ¡ Å¾nÃŃ
ma jÃŃ
Ġbakteri ÃŃ
Ġjakou koli
ĠS mo
Ġw hi
Ġp ovÃ¡
Ġpoku ty
Ġlo pat
Ġroz bit
Ġs vet
ĠzÃ¡kon nÃ©
Ġlicen ci
ĠzÃ¡bra dlÃŃ
ti kÃ¡lnÃŃ
Ġjak koliv
Å¾e ly
Ġgra mÅ¯
Ġobra nÄĽ
ĠB razÃŃ
st Ã©ho
Nak onec
ĠsbÃŃ rku
ĠÃºÄįa stÃŃ
Ġelektroni cky
Ġod chod
Ġbo hu
ovo sti
Ġpo pra
matu ju
Ġple chu
Ġzv anÃ©
ĠvÄĽdo m
ĠÅĺ ez
ĠZ prac
ĠzamÄĽÅĻ enÃ½
s nu
d lÃ¡
Ġjab lka
ĠYou Tube
j ovÃ©
Ġnedo t
Ġpsa li
ĠspoleÄį nÃ¡
Ġtrest nÃ©ho
ĠLi bor
ĠbezpeÄį nÃ½
Ġkre vnÃŃho
ĠM lÃ½
ĠvÃ½pla ty
P en
ĠjakÃ©ho koli
ti fi
Ġsou pravy
to ky
ĠO N
Ġnevy padÃ¡
Ġreali tu
Ġpaci enti
ĠÅ½ a
ÅĪ o
Ġhra ny
ĠpÅĻÃŃ kladu
Ġno Å¾i
Ġhor skÃ½ch
ĠzasÃŃ lÃ¡nÃŃ
kovÃ¡ na
Ġc an
stro jÃŃ
teri Ã¡lnÃŃ
ĠZuz ana
P ane
Po Äįet
ovo d
mec ko
Ġm ati
ĠS SSR
Ġvla ky
ĠvyÅ¾Ã¡ dÃ¡nÃŃ
Ġnedo jde
ĠÄĮ tvr
ĠpÅĻes ou
ĠSÃ½ rii
ĠMa ch
Ġinovat ivnÃŃ
ĠkuchyÅĪ skÃ©
Ġboho slu
Ġse ster
Ġinvesti ÄįnÃŃch
ĠpodÃŃle l
ĠTwit teru
Ġzv ra
ĠBy stÅĻi
Ġkan Ã¡lÅ¯
forma ci
Ġve dli
j sou
Ġbezpro stÅĻednÃŃ
Ġastro nomi
Ġâ Ļ¥
C S
ĠE ng
ĠsprÃ¡v nÃ½m
Ġuzav ÅĻel
ĠprohlÃŃ dce
Ġzni ÄįenÃŃ
ĠH vÄĽz
Ġnena Å¡el
ĠzÃºÄįast nil
ĠLinu x
Ġdemo krat
di Äįka
ĠveÅĻej nÃ½
Ġbrat ÅĻi
ĠbÄĽ Å¾nÃ¡
Ġfrancouz skÃ©ho
Ġsou hrn
Ġzele nÃ½ch
ĠAn aly
pro sto
Ġne hrozÃŃ
Ġpotvr dila
ĠCh eb
Ġm is
ĠsloÅ¾ ka
Ġrelevan tnÃŃ
Ġchla pe
ĠnejkrÃ¡ s
P av
Ġtre zor
Ġchy trÃ©
Ġkomunika cÃŃch
rg en
jat Ã©
an tÅ¯
ĠPÅĻÃŃ pad
ĠzahÃ¡j ena
ĠI vo
ĠÅ½ ÄıÃ¡r
ĠZ mÄĽ
ĠS eri
ce ss
ĠvÄĽn ovali
Ġnej pro
ĠE rotickÃ©
ĠpÅĻed klÃ¡dÃ¡
ĠmÃŃ nÄĽnÃŃ
le nÃ©m
pozi ÄįnÃŃ
Ġtvr dÃ½
Ġre li
Ġvyp nout
ĠpÃ¡ sek
Ġnena jdete
ĠvojÃ¡ ky
ĠrukÃ¡ vy
Ġko pii
ĠK ut
ĠlÃ¡ znÃŃ
ĠdÃ¡l kovÃ©
Ġvy pÃ¡
ĠF ilo
ĠAÄį koli
Ġsy mp
Ġtou hu
Ġnechy bÄĽ
ĠpÅĻesvÄĽd Äįi
ĠNech te
ĠsloÅ¾ ku
AN O
ĠÃº niku
{ "
ĠWe st
Ġne k
ĠzÃ¡vis lÃ©
Ġko stky
ĠE mi
Ġso chy
ĠpÅĻekva pÃŃ
ĠPala ckÃ©ho
ĠnÃ¡jem nÃŃ
ĠBru selu
Ġusna dnÃŃ
ĠO lympi
Ã³ ze
ĠUkraj inÄĽ
ĠCha rakteri
Ġscho dech
Ġsou prava
Ġsk en
Ġode hrÃ¡l
Ġles nÃŃch
P etr
Ġsta bil
ĠObrÃ¡ zek
ĠV Äįera
ĠOlomou ce
S i
ĠZdar ma
nÃ¡ t
Ġsamostat nost
ĠsvÄĽt lÃ©
rÃ¡t orÅ¯
Ġneo ÄįekÃ¡
Ġsk an
Ġvojen skÃ½ch
ĠÅ¾Ã¡n ru
Ġk Ã¡d
ĠK lad
ĠHav ÃŃ
Ġkdyby ste
P at
ĠI mp
ĠpÅĻemÃ½Å¡ lÃŃm
s ovÃ¡nÃŃ
ĠNej sou
Ġjog ur
Ġzdro ji
Z O
nÃŃ na
Ġpocti vÄĽ
Ġpoci Å¥
DÄĽ ti
Ġabs ence
co l
ĠpÅĻednÃ¡ Å¡ek
kupe ctvÃŃ
ĠK as
Ġvz orek
Ġinforma cÃŃm
ĠMe dia
ĠM us
ĠF A
he im
ĠmÃŃstopÅĻed seda
ĠpÅĻed Å¡kol
Ġply ne
Ġmechanis mus
Äį kovou
ĠMa re
Ġreklama ci
ĠÅ¡ ve
Ġpev nÃ½ch
ĠpeÄįi va
ĠSt rÃ¡Å¾
ĠpoloÅ¾ ku
ĠLu xusnÃŃ
v ily
ĠstÅĻe chou
ĠsouÄįas nÃ©m
ĠkÅ¯ ÅĪ
ĠG olf
ĠÃºÄįin nÃ½
ĠH od
Ġmezi roÄįnÄĽ
Ġmajet kem
Ġpapr sky
Ġzpo chyb
nese nÃŃm
Le tos
Ġan ato
ĠpoÅĻÃ¡d nÃ½
Ġdole va
ĠpotÅĻeba mi
C R
ĠPri ma
ĠÃºkon y
ĠdÃ¡ val
Ġnahra zuje
Ġlist iny
Ġvyjad ÅĻ
Ġs Ã¡lu
ĠVÃ½ zkum
ĠtÅĻÃŃ dÄĽnÃŃ
Ġkomo ra
Nav ÃŃc
ĠC lub
lÃ¡ nky
ĠproblÃ© mech
Ġhra no
Ġse v
Ġroz svÃŃ
Ġh edvÃ¡
Ġobo ÄįÃŃ
stan t
ÅĪ ovali
ĠL ove
ĠÄĮ l
ĠprofesionÃ¡lnÃŃ ch
L Y
ov nÃ¡
Ġakti vnÃŃch
Ġpoho du
Ġposel stvÃŃ
ĠnÄĽjak ej
ĠobÄĽ dÄĽ
Å¾ emi
K up
Äį skÃ©
Ġza sta
ou s
Ġdu sÃŃ
len ku
Ġkou pÃŃte
Ġkou ÅĻ
Ġbonb oni
Ġjem nÃ¡
ĠzmÃŃ nka
T ro
ho p
ĠvÄĽ tu
mÄĽsÃŃ ÄįnÃŃ
ĠpÅĻiz nal
ĠÅ¡ ly
ĠKo mpletnÃŃ
ĠMimo chodem
Ġdie ta
ĠmlÃ¡ Äı
ĠpouÅ¾it Ã½ch
ĠsvÄĽ dky
Ġingredi ence
Ġkr va
Ġstav bou
Ġpi lu
ĠW olf
Ġlov u
Ġhmy zu
Ġbra nek
at ÄĽ
is en
ĠdÃ¡v kovÃ¡nÃŃ
z ve
ĠM ÄĮ
Ġstaro stÃŃ
Ġg ar
Ġm ni
ĠzaloÅ¾ enÃ½
Ġpo pel
Ġnedo stal
ku ren
Ġkou skÅ¯
Ġmechani ckÃ©
Ġloka lit
ĠK in
Ġko len
Ġobje ktivnÃŃ
ĠobtÃŃ Å¾nÄĽ
F T
ĠchrÃ¡ nÄĽnÃ©
Ġza ob
Ġre Ã¡lnÄĽ
Ġjednoduch Ã½m
ĠpÅĻekva penÃŃm
Ġzatep lenÃŃ
Ġpod krov
ĠD onal
Ġemi se
ĠdÃŃ t
Ġdo tÃ½
Ġza haj
Ġzlo m
Ġodol nÃ¡
Ġok nÄĽ
ĠpÅĻÃŃzni vÃ©
Ġkan Ã¡ly
ĠniÅ¾Å¡ÃŃ ch
Ġpovrch ovÃ©
nÄĽ ni
ĠkÅĻe sla
ĠG ran
ĠVÃ½ stup
Ġdo hledu
ĠhÅĻbit ov
Ġvol nÃ¡
Ġnez kla
Ġsr pen
sÃ¡ ch
ĠdaÅĪ ovÃ½ch
Ġmoti vaci
ĠpÅĻes nou
Ġne ru
ĠschÅ¯ zky
Ġnej tÄĽÅ¾Å¡ÃŃ
ĠZna Äįka
ĠnejdÅ¯leÅ¾itÄĽ jÅ¡ÃŃch
lo ck
Ġre vize
Ġspl ÅĪovat
ĠAustrÃ¡ lie
Ġsk lou
Ġskry tÃ©
ĠSlu ne
Ġsan kce
Ġasf al
1 10
ĠplÃ¡ Å¡Å¥
v ci
Ġorigin Ã¡lnÃŃm
Ġpojist eni
Ġocho tnÄĽ
Ġ19 20
Ġmlad Å¡ÃŃch
ĠodrÅ¯ dy
ĠsmÃŃ ch
Ġsou dnÃŃho
Q L
ĠjakÃ½ koli
ĠSpoleÄį nosti
Ġv stoupÃŃ
Ġstav itel
ĠNejvyÅ¡Å¡ÃŃ ho
ĠZa hradnÃŃ
ĠvzpomÃŃ nÃ¡
ĠnapÃŃ Å¡u
ĠsbÃŃ rka
ĠdÄĽ lenÃŃ
Ġstan ou
star Å¡ÃŃ
ĠI m
S to
Ġztra tila
Äį ou
ĠOb vykle
ĠÄįas ovÃ½
ĠB L
Ġnad Å¡enÃ¡
Äįer ven
Ġjezd ce
ĠL G
Ġmno Å¾
ĠzajÃŃmav Ã½m
ĠvÃ½po ÄįetnÃŃ
Ġpa dne
gi o
Ġkomi k
Ġhodin ek
li nky
ĠV R
Å¡ lÃ¡
ĠH asi
ĠschÅ¯ zku
ĠpÅĻe dÃ¡vÃ¡
Ġ13 5
ĠM anu
ĠpoÅ¡ko zenÃ©
Ġstro ji
Ġch e
Ġpostav ou
bi Äįka
di vÃ©
ĠNemusÃŃ te
Ġslou Äįen
Ġbydle t
Ġimunit nÃŃ
ĠPÅĻed mÄĽt
Ġadap tÃ©r
Ġdlouhodob ou
d Ã¡l
Ġzane chÃ¡
Ġdo c
Ġnor mali
Ġra s
Ġa te
Ġzvu kovÃ©
ĠlyÅ¾a ÅĻskÃ©
B i
sta jÃŃ
Ġekonomi cky
Ġztra tÃŃ
ĠÅ¾en skÃ¡
Ġspolu hrÃ¡
Å¾it Ã¡
Ġ6 50
Ġcho dila
Ġvytvo ÅĻenÃ©
Ġkonf ron
raz ily
ĠzÃ¡jem cÅ¯
Ġpr su
Ġen do
ĠChru dim
le v
Ġtrans akce
ĠvÃ½t va
ĠvÃ½ch ovu
Ġpono Å¾ky
ĠNa ÅĻÃŃzenÃŃ
Ġargu menty
ĠÅĻ asy
ĠSou Äįas
ĠdÅĻevÄĽ nÃ¡
Ġna stat
ĠÄįÃŃ sli
ĠtÃ¡bo ÅĻe
Ġpoz n
ĠpÅĻeprav nÃŃ
hl Ã©ho
ĠnÃ¡ pisem
Ġizo laÄįnÃŃ
ĠpoÄį ty
Dne ska
Ġru skÃ½
) ?
Ġma sky
ĠvÅ¡ emo
Ġkraj inu
Ġrozhov ory
ĠzÃ¡tÄĽ Å¾e
ĠkrÃ¡t kÃ½m
w oo
Ġne pa
Ġpole dne
Ġu leh
st Ã¡m
Ġli ga
sud ky
an ci
ĠLi d
ĠF ry
ta ge
ĠudÄĽla jÃŃ
ĠmoÅ¾ nou
Ġposkyt nutÃ©
ĠNi zozem
ĠbÃŃlkov iny
ĠmuÅ¾ stvo
Ġhistori ckÃ½
ĠLondÃ½ na
ĠpÅĻij me
ĠprÃ¡zdn inÃ¡ch
Ġna padne
Ġzahra dou
ĠMno zÃŃ
ĠstÅĻe dnÃŃm
Ġnavr Å¾en
ĠnÃ¡pa dÅ¯
ĠPÅĻÃŃ rodnÃŃ
S lov
Ġta xi
mÃŃn kou
Ġutr pÄĽ
2 50
dlou ho
ok ie
Hle dÃ¡te
Ġl ho
Ġtole ran
ĠN as
Ġneob e
ĠbrÃ¡ na
Ġbe se
Ġmysle li
ĠNe lze
Ġpla n
Ġneza jÃŃmÃ¡
ĠÄĮÃŃ st
c ovÃ©ho
Ġpravi dly
ĠmÄĽste Äįko
ĠnahrÃ¡ vÃ¡nÃŃ
ER V
Å¡tÄĽ nÃ½
Ġpat ÅĻit
ĠvÄĽn ovala
ĠpÅĻed vo
Ġvyso kÃ©m
Ġzp Ã¡
ĠO ÄįekÃ¡
ĠDne Å¡nÃŃ
ĠzkuÅ¡enost mi
Ġtri ko
Ġi sla
å ®
Ġposu nout
ĠposÃŃ lat
ĠKo le
ĠVÃŃ dni
Ġkosme tiky
Ġtera su
Ġpr del
ĠOb jednÃ¡
Ġsr st
spo leÄį
o ff
Å¾ mo
Po stup
Ġkompeten ce
Ġus mÄĽ
Ġ2 80
ĠÄįe lit
Ġposte lÃŃ
ĠPla tÃŃ
ĠrovnovÃ¡ hu
Ġneza po
Ob je
ĠvÃ½no sy
Ġvych lad
Ġovlada Äįe
Ġu moc
ĠC li
ĠO zna
ĠstÃ¡ li
Ġvstup uje
ĠnÃ¡ lada
Ġtra p
Ġmimo zem
Ġzlat Ã½
Ġzem ÅĻela
Ġza hrÃ¡l
Ġsp ory
bÄĽ ji
Ġtypi cky
Ġdo chÃ¡zet
ĠMuze um
Va Å¡e
van Ã©m
ĠLe on
Ġkraj ina
ord s
Ġtro chou
Ġvytvo ÅĻen
ĠpenÄĽ Å¾nÃŃ
Ġl Å¯Å¾ek
nost ech
Ġz kvalit
Ġinforma ÄįnÃŃho
Ġpodla ze
Ġmno h
Ġsrde ÄįnÄĽ
Ġ ent
ra nu
ĠK ad
ĠJablo nec
Å¾i jete
bu ji
ĠMar s
sti ckÃ½mi
Äįe Å¾
Ġblo ky
Ġsez Ã³n
Ġpsychi cky
ĠÅ¡ampi onÃ¡tu
Ġs hlÃ©dnutÃŃ
00 1
Ġprofe so
ĠjmÃ© nu
ĠGym nÃ¡zi
Ġvyhov ovat
ĠÅłpanÄĽl sku
Ġomy lem
Ãģ Åĺ
Ġky ber
Ġkosme tika
Ġkuli Äįky
se c
Ġregu lÃ¡tor
ĠG r
ĠTechnologi e
Ã¨ ÃŃ
Ġdro gy
mÄĽ li
ĠpÅĻÃŃprav ou
Ġteore ticky
g ly
Ġrelati vnÃŃ
Ġpo slechu
vy u
ĠHo t
ĠH lou
Ġzmi zel
h alÃŃ
f la
ĠnechÃ¡ vÃ¡
Ġhra ni
ro zenÃŃ
ĠpÅĻe kladatel
Ġbe jt
ĠkyslÃŃ ku
cen Ã½m
Ġob chÅ¯
p hy
Ġko Å¾enÃ©
Ġvina ÅĻstvÃŃ
Ġdoprav nÃŃho
ĠÄĮV UT
Ġdigit Ã¡lnÃŃch
Ġen viron
ĠudrÅ¾ ovÃ¡nÃŃ
t rans
Ġkonfli kt
ĠnejnÃ¡ roÄįnÄĽ
ĠsvÄĽt ovÃ¡
ĠodmÃŃt nout
Ġbo jÅ¯
ĠÃļ Äįin
st re
Ġobjekti vu
ra da
alu pa
for d
ĠvÃ½hod nÄĽjÅ¡ÃŃ
ĠdÃ© lkou
Ġrekre a
Ġod em
Ġprovo zem
Ġten kÃ©
h armoni
Ġse dÃ¡
rÃ¡ nu
Äį oval
ĠK P
fe tu
ĠÅ¾i vou
Ġode vzd
Ġpohodl nÃ½
EC T
Ġpoliti ckÃ½
Ġtr vala
Ġpla z
ĠzÃŃsk anÃ½ch
F O
ĠvÃ½raz nÄĽjÅ¡ÃŃ
ĠprÅ¯mÄĽr nÃ½
n Å¯m
Ġse dacÃŃ
ĠJaro mÃŃr
ĠK OM
spÃŃ Å¡
ĠskvÄĽ lÃ½ch
Ġspl ÅĪujÃŃ
ĠP ÅĻÃŃklad
ĠnezÃ¡vis le
Ġ10 2
fer enci
Ġsa mÃ½
ĠotÃ¡ Äįek
Ġnedo chÃ¡zÃŃ
t aly
Ġnech ut
\\\\\\\\\\\\\\\\\\\\\\\\\\\\\\\\ \\\\\\\\\\\\\\\\\\\\\\\\\\\\\\\\
Ġnemo hlo
Ġvybav enÃ½
Ġsu Å¡enÃ©
cvi k
ĠÅ¾ivotnÃŃ mu
Ġspal ovÃ¡nÃŃ
ĠnemusÃŃ me
ĠvzÃ¡c nÃ©
o f
ÄįnÄĽ te
sty le
ĠT Ã½m
Ġvy zdvi
ĠMar y
ĠPoslane ckÃ©
F A
Ġpo hroma
ĠvÃ½stup nÃŃ
ĠÃºÄįastnÃŃ ka
Ġst rÃ½
ĠÃºhra dy
tÄĽ t
ĠuskuteÄį nit
ĠslouÅ¾ÃŃ cÃŃ
ĠdÅ¯raz em
p g
ak tivnÃŃ
ĠodmÄĽ na
Ġpod nÄĽt
teÄį nost
U Å½
Pro du
Ġnad Äįas
ĠvÄĽd cÅ¯
va je
ĠdÄĽ kuju
ĠpÅĻe tÃŃ
Ġku dy
li ty
ĠJu ni
Ġuchaze ÄįÅ¯
ra jÃŃcÃŃ
Ġpav ilo
ĠtÃ¡ hne
Ġse tu
Ġjimi Å¾
ĠneÄįisto ty
Ġhorm onÃ¡lnÃŃ
lÃ¡ rnÃŃho
Ġzaznamen al
hra dy
Ġjednotliv cÅ¯
ĠoblÃŃb enÃ©ho
cent nÄĽ
ĠtrÃ©n ovat
Ġnemoc nÃ©
ĠvÃ½ pravy
Vy u
Ġnech ceme
Ġhou pa
Ġne stÃ¡
Ġz klid
ck s
Ġpokro k
Ġot ci
Ã «
Ġpoku t
Ġdo pÅĻÃ¡t
Ġkomi si
Ġpodrob nÃ©
Ġdo pole
Ġop lÃ¡
dÃŃ ky
Ġna hlÃ©dnout
Ġvylou Äįit
de t
ĠzÃ¡ li
ĠobdrÅ¾ÃŃ te
Ġsly Å¡eli
bo d
ĠjejÃŃ mi
ĠzpracovÃ¡ vat
Ġseg mentu
c c
ĠMÄĽst skÃ½
ĠMi ke
ĠkÅ¯ Å¾ÃŃ
Ġvita mÃŃn
ĠÅ¾i vÃŃ
ĠH il
lÃŃ ci
ie ra
ĠzÃ¡chra nÃ¡
B ER
H istori
Ġroz sudku
ĠplÃ¡n ovanÃ©
Ġdo Å¡la
Ġvstup y
Ġne kvali
ĠB B
Ġsau na
ĠpÅĻi danÃ©
Mno ho
Ġparti e
Ġste zky
Ġrecep ci
Ġra dnÃŃ
kon e
Ġle Å¾et
zÃ¡ ÅĻÃŃ
ĠdostÃ¡ vÃ¡me
Ġle zenÃŃ
novÄĽ jÅ¡ÃŃ
dÄĽla jÃŃ
raz y
Ġgym na
Ġryb nÃŃk
ĠkandidÃ¡ tÅ¯
Ġroman tickÃ©
Ã³ zou
Ġpenis u
Ġmi zÃŃ
man u
ĠpÅĻÃŃÄį inu
Ġd anÃ½ch
mÃŃ nek
ĠdodÃ¡ vajÃŃ
ĠtvÅ¯r ce
Je dnÃŃm
Ġne sla
P Å¯
Ġpoz dnÃŃ
Ġzhot ovi
RO N
ĠhypotÃ© ky
Ġfrancouz skÃ½
Ġne dÄĽlnÃŃ
ĠprohlÃŃÅ¾e Äį
zu m
ĠÄį alou
Ġna se
Ġro dnÃ©
Ġuchy cenÃŃ
vi Äįka
fi sti
Ġindividu Ã¡lnÃŃch
dem o
ĠIn dii
liÅ¡ ti
ĠvyuÅ¾i jete
ĠvÃ½ hÅĻe
Ġko pci
ĠTÄĽ ch
st eni
Ġdlouh Ã©m
ĠvÃ½ letu
Ġneva dilo
Ġnazna Äįuje
Ġtri um
ÅĪ ovÃ½
F e
ĠF an
Ġsever ovÃ½ch
Äį no
Ġdosa hu
Ġdove de
ĠzamÄĽ ÅĻen
li ght
p df
ho nu
ĠPÅĻÃŃ prav
Ġposta ÄįÃŃ
ĠvÃ½ hry
ĠtÅĻÃŃ dnÃŃ
lÃ¡ z
Ġvit am
ĠpÃ¸ Ã¡nÃŃ
ĠBi ble
je Å¡tÄĽ
ĠspoÅĻitel ny
ĠnedokÃ¡ Å¾u
Å¾i va
Ġla i
Ġpo tah
nu tou
Ġm anÃ©
Ġmam ka
Ġka no
Ġanti konce
Ġpalu bÄĽ
re Ã¡l
ĠneÄįisto t
Ġodbor nÃŃk
ĠVÃ¡no c
ĠpÅĻÃŃm Ã©m
ĠbÃ½val Ã½ch
ĠCel kovÃ½
Ġobsa dil
Ġjas nou
do mov
Äį kov
Ġs h
ĠZa dnÃŃ
ĠstÃ¡l Ã©
k tÃ¡
Ġhmo ta
Ġnedostat kem
ĠMana gement
er em
ĠtakovÃ© mu
Ġb onu
ĠrybnÃŃ ka
Ġrozpo znÃ¡
Ġdo zadu
Ġstra Å¡i
ĠprÅ¯ s
ĠStav ba
Ġnemu sela
ĠD ro
Ġchat ÄĽ
ĠvyÅ¡Å¡ÃŃ ho
Z ku
bu rku
Ho dno
C A
ĠIn teg
Ġtru b
Ġkap ky
Ġzvo lenÃ©
ĠÅ¡le ha
Ġzvy k
Ġpodla hovÃ©
ĠTe st
ĠpoznÃ¡ vÃ¡nÃŃ
ĠÂ ´
Ġd anÃ¡
for t
ĠvlastnÃŃ k
Ġna vy
Ġod tr
ri o
K S
ĠhÅĻ be
vo la
ĠZ av
ĠpohledÃ¡ vek
Ġtru bky
k vÄĽt
Jak mile
ĠvÃ½sled cÃŃch
ĠZvlÃ¡ Å¡tÄĽ
Ġslav nosti
ĠobÄĽ hu
Ġuvede nÃŃm
ĠMiku lÃ¡Å¡
M usÃŃm
ĠpÅĻedve dl
Ġ11 1
ÅĻÃ¡d at
Ġre vit
ÄĮ SL
Ġpod Å¡ÃŃ
Ġkatastro f
ĠU NESCO
Ġhli nÃŃku
Ġjed ovat
ĠpÅĻi dali
ĠZ da
ĠPut in
ĠvlÃ¡ dnou
ĠmÃŃ Äįe
ĠHe lena
ĠobvinÄĽ nÃŃ
Ġple s
ĠvÃ¡no ÄįnÃŃch
ĠP ob
ĠzÃ¡kaznÃŃ kem
ub lik
Ġpo stu
Ġsr d
Ġher ce
ĠPardubi cÃŃch
ĠMe di
ci s
Ġtechnologi ckÃ©
ĠzÃ¡ chod
Ġru skÃ½ch
ĠpÅĻesnÄĽ ji
oni ce
ĠpÅĻÃŃro dovÄĽ
ĠzÃ¡vaz nÃ©
Ġse pa
Ġsv or
Ġpropaga ci
ĠH igh
Ġvzdu chem
Ġrov nÃ©
ĠnahrÃ¡ vky
T M
Ġnebo jte
Ġr tÄĽ
Ġzkou Å¡et
Ġnem a
Ġk vÃŃ
Ġnez vy
ĠcÃŃsa ÅĻe
le te
DÅ¯ leÅ¾it
Ġobdob ÃŃm
Ġtera pii
V last
Ġlou t
Z em
Ġpart neÅĻi
Ġkoupel nu
Ġvyzve dnout
Ġelektroni ckÃ©ho
Ġvy tÄĽ
ĠMi kro
ĠPO D
H u
d anÃ©ho
VÃ¡ Å¾enÃŃ
ĠspeciÃ¡lnÃŃ ho
ĠotevÅĻ enÄĽ
IN A
Ġv inu
Ġzku sÃŃm
Ġdistribu ci
ĠscÃ©nÃ¡ ÅĻe
ĠzpÅ¯sobi lost
ĠhÅĻe ben
ĠpalÃ¡ ce
let Ã½m
Ġno ze
ĠÅĻeme s
Ġste zka
Ã¡t oru
E vrop
ĠÃº chvat
Ã¡n skÃ½
up u
ĠblÃ¡ zni
men o
ĠÄįin it
Ġkonkuren ÄįnÃŃ
Ġzab il
ĠPrav da
Ġna padÃ¡
ĠM Ã¼
be ce
ĠsvÄĽ telnÃ©
Ġneza Äį
ĠÃºÄįin nostÃŃ
ĠnepÅ¯j de
Pro sÃŃm
Ġu bo
ĠdÃ¡l ky
Ġnev Å¡e
Ġtypi ckÃ½
Ġak nÃ©
ĠÃļ P
ÄįÃŃ nÄĽ
Ġoce Ã¡nu
ĠpÅĻe Å¡el
Ġre perto
Ġpomoc nÃŃkem
Ġnevy hnu
Ġst or
ĠH un
ĠMusÃŃ te
Ġprou dem
Ġdce rou
Ġtlu mo
d t
d rost
ĠtrÃ¡ vy
stat nÃŃ
Ġvy kÃ¡
Å¡eno sti
ĠJan u
OT O
Ġprav dÄĽ
ĠK lik
ĠpÅĻÃŃ chodem
ĠprostÅĻed kem
Ġnou ze
ĠobÄĽ t
Ġpr ova
Ġvy m
ĠÃºspÄĽÅ¡ nÃ¡
Ġnefun g
ĠprostÅĻed ku
ĠbrnÄĽ nskÃ©
Ġseni orÅ¯
ĠMa teÅĻskÃ¡
ĠtrÃ¡ vi
ĠZa ji
ĠvÃ½ dej
Ġla sk
ÄįÃŃ na
ĠÅ¾ivot nosti
ĠLe tnÃŃ
Ġvliv Å¯
ologi ckÃ¡
ĠNÃ¡sle dujÃŃcÃŃ
ĠhrÃ¡ lo
ĠzemÄĽdÄĽl skÃ½ch
Ù Ī
Po znÃ¡mka
Ġpro Å¾ÃŃt
ĠtÅĻet ina
ĠpÅĻi lÃ¡
ĠoÄįi vi
Ġkombin uje
ĠL or
ÅĪ at
Ġdru Å¾i
ĠKonkrÃ© tnÄĽ
ĠÅ¡ krÃ¡
Nej lepÅ¡ÃŃ
Ġnoteboo kÅ¯
ĠpÃ¡ sy
Ġabsolv ent
Ġu h
ĠzvÃ½ hod
ku rze
ĠvÄĽt ve
Ġkultu rnÃŃm
o mi
s mÄĽr
ĠpÅĻÃŃ snÄĽ
ĠÅĻÃ¡d em
ĠvÃ½bÄĽr ovÃ©ho
Ġpenzi on
ri ckÃ¡
ĠzÃ¡pa du
ob r
Ġ5 50
Ġslav nÃ½
ĠnenÃ¡vi st
ĠpÅĻedstavi telÃ©
% ),
Ġvy pra
skÃ¡ nÃŃ
Ġop on
li vostÃŃ
ĠvlastnÃŃ ka
ĠPro stor
Ġje vy
Ġsa zeb
ĠvÃ¡l kou
ĠAf ghÃ¡
ĠÅĻÃ¡d ky
Ġdove dnost
ĠzajÃŃma vÄĽjÅ¡ÃŃ
ĠT ito
Ġle Å¾
poÄį t
ĠKa be
ĠtÅĻet inu
Ġbl b
dl ovÃ©
ĠnenÃ¡ pad
povÃŃ dat
Ġdo hledem
Ġkam eru
ĠzamÄĽÅĻ ena
ĠnÃ¡ uÅ¡
ĠpovÃŃ dat
ĠÅ¡et ÅĻÃŃ
lÃ¡ da
ĠVy padÃ¡
ur l
a wei
Ġâ ĸ
Ġklasi ckÃ½m
Ġpora nÄĽnÃŃ
ĠbalÃŃ k
Ġsu Å¡i
ge ra
ĠvÃŃ ÅĻe
ĠL am
Ġpro mo
Ġbo jÃŃm
pÅĻÃŃ tom
ĠVyu Å¾ijte
Ñ ħ
Ġobje vilo
Ġlokali ta
sti an
Ġs nou
ĠvytÃ¡ hl
ĠMilo Å¡e
vodnÄĽ nÃŃ
Ġar m
Ġfanta zii
Ġvz dal
st kÅ¯
Ġema ilem
ĠzajÃŃma vostÃŃ
f fer
ing s
Ġekonomi ckÃ©ho
va Äįka
ĠÄįtyÅĻi cet
Ġu dÃ¡vÃ¡
ĠV it
Ġno su
ĠP ovo
ĠotevÅĻ eno
Ġaktuali zaci
Ġo ÅĻech
eni ce
ck on
Ġkonci p
ĠD L
Ġbit vÄĽ
Ã©r ovÃ©
la ÄįnÃŃch
ĠJaku ba
ji lo
Ġsamostat nÃ¡
Ġse stÅĻe
Ġpub er
Ġv ini
ĠZ novu
ÅĻe d
Ġzvy Å¡ovat
Ġna tr
ĠÅĺ ek
Ġzvo lÃŃte
Ġod vod
se a
Ġkde Å¾to
Ġdo kazuje
ÅĻÃŃ n
Ġod pu
Ġtrans form
ĠnÃ¡boÅ¾en skÃ©
Ãį L
mlu vy
fi eld
ĠÄįerven ec
ĠpoloÄįas u
Ġsebevra Å¾
ĠV E
Ġko efici
ĠdÃŃ vku
Ġsran da
Ø ±
ĠOrgani zace
Ġnut ri
Ġpozdrav em
Ãº Äįe
ĠPÅĻÃŃ bram
Ġbankov nictvÃŃ
Ġh ran
ĠC M
c any
Ġne opak
ĠK O
Ġpr k
Ġplynu le
ta lo
ĠÃºpl nÃ½
Ġsto lek
Ġsil nicÃŃch
ĠzÃ¡vis lÃ¡
Ġuvol nit
Ġpoje de
Ġpou Å¥
Ġaktu Ã¡lnÃŃho
Ġnebo jÃŃ
ĠStra te
ĠR um
Ġdra ho
ĠA ut
Ġoslov it
Ġrozhod lo
Ġmi sky
va nÄĽ
Ġprof ily
m Ã¡lnÃŃm
ĠP lu
Ġspole hnout
lnÃŃ ku
Ġkomi sÃŃ
dÄĽ k
Ġvy dÄĽlat
Ġzdra vÄĽ
fi ÃŃ
Ġni ÄįÃŃ
ĠTex t
ont ent
mÄĽ le
ĠzÃ³ nÄĽ
Ġk var
Ġfilm ovÃ½ch
ĠNok ia
Ġkli nickÃ©
ĠTÅĻÃŃ da
Ġchalup y
Ġfarma ceu
ç ī
Ġvyt la
V I
ĠdÅ¯sto jnÃŃ
ĠnÃ¡ro dy
ĠÅ¡at Å¯
re c
ĠpÃ¡ teÅĻ
ĠohÅĻe v
Ġvy danÃ©
Ġneu vÄĽdo
S E
ĠS ur
Ġrozto k
ĠZajÃŃmav Ã©
Ġpau Å¡
Ġdozor ÄįÃŃ
Ġpra se
r nÃ¡ch
Ġpy Å¡nÃŃ
ĠkrÃ¡tkodob Ã©
ĠvÃ½stav nÃŃ
Ġsto pa
Ġteku tin
ĠkrÃ¡t kÃ½ch
Ġkon zist
chla zenÃŃ
nÃ¡ nÃŃm
Ġstro pu
VÃ½ robce
ho ÅĻe
Ġfil mech
ĠnemÃ¡ Å¡
ĠÃļ vodnÃŃ
sto pad
mati zace
ĠW ord
hla vÃŃ
Ã½ vajÃŃ
Ġkomunika ÄįnÃŃch
ĠA ch
j mout
Ġsp Ã¡ch
ĠpotÅĻeb ovali
Ġin ova
hli Äįit
Ġ æ
Ġvo sk
ĠprospÄĽ Å¡nÃ©
ĠLa dy
prÃ¡ vÄĽ
Ġpozem nÃŃ
Ġodkaz Å¯
EN A
ĠbÃŃ lÃ½m
ĠzaÄįÃŃ nÃ¡m
Ġprodlou Å¾it
Ġpixel Å¯
1 01
bo t
ÄĮe skÃ©
ĠS A
Ġjmen ovat
Ġkdyby chom
ĠVla sti
Ġpoza stav
ĠÄĮ tyÅĻi
\ "
ly n
mÃ¡ k
Ġobdob nÄĽ
Ġkou Äį
ĠzÃ¡ bÄĽr
Ġhlu k
Ġfung ujÃŃcÃŃ
Ġnou zi
Ġfot balu
Ġva du
ĠE s
ĠzÃ¡pÄĽ stÃŃ
ĠRa j
ĠMo d
Ġdivo kÃ©
ĠNovo tnÃ½
vat o
Ġhra Äįek
Ð° Ð½
ï¿½ï¿½ ï¿½ï¿½
Ġpro Å¡li
ĠvÄĽ ÅĻte
D O
Ġpe Äįe
Ġserver Å¯
ĠMoni ka
ĠvÃ½ hledy
ĠTÅĻebÃŃ Äį
N ad
co lor
de ÄįnÃŃ
ĠpÃ¡ na
Å½ Ã¡
ĠP ÅĻÃ¡
ĠzÃ¡ Å¡t
ĠrozdÃŃ lem
ĠDigit Ã¡lnÃŃ
Ġpov y
ĠudÄĽlÃ¡ te
Ġrych lÃ©ho
ĠC ru
ĠdoporuÄį enÃ©
ĠTÄĽ lo
ĠvÃ½ kladu
ĠT on
Ġzvy Å¡
ĠdÅĻe vin
9 00
ĠN y
Ġne al
Ġjezd ci
rÃ¡ bÃŃ
rÃ¡Å¾ ka
Ġsouse dnÃŃ
ĠSch vÃ¡
Ġtak ovej
ĠpÅĻinÃ¡Å¡ÃŃ me
ĠpÅĻe jmen
Ġvy nikÃ¡
Ġmy Å¡ÃŃ
Ġpen al
ĠdokÃ¡ Å¾eme
Nic mÃ©nÄĽ
ĠO sla
ĠzmÄĽ nami
Ġnejmoder nÄĽjÅ¡ÃŃ
lez l
Ġmi lo
mÃŃ chÃ¡me
ĠstatutÃ¡ rnÃŃho
mat ur
Ġdoda teÄįnÄĽ
Ġpo rovnat
Ġexist ujÃŃcÃŃ
ĠpovÃŃ dÃ¡nÃŃ
Ġnekon ÄįÃŃ
Ġdestina ce
ĠÄįer pat
Ġpun Äįo
ktu ra
Ġpi v
Ġvtip nÃ©
ĠDe tail
I Åł
hle dnÃ¡
lÃŃ cÃŃ
ĠumÄĽ lce
Ġvy pr
Ġmalin ko
da j
Ġs dÄĽlÃŃ
Ġplo dÅ¯
Ġkr b
Ġpoku sÃŃ
ĠMo hu
ĠPrÃ¡ vo
ĠÅ¡ampi on
ĠmuÅ¾ stva
Ġch ovajÃŃ
Ġvra ta
Ġnepo Å¡ko
ĠÅĻeme sl
v ena
Ġza pÅĻÃŃ
Ġrozu mÄĽt
Ġkomplika cÃŃ
logi cky
å Ľ
Ġspoj eny
ĠSil ve
ĠÅ½ ena
Ġzna Äįce
Ġvyj men
li kÃ¡
Ġrozu mu
ĠnÃ¡rodnÃŃ m
ĠvÄĽÅĻÃŃ cÃŃ
tera peu
ĠZ mÄĽny
bÃ½ t
li vÃŃ
ĠprostÅĻe dnÃŃ
Ġry sy
Ġt my
lo me
Ġindi kÃ¡tor
Ġnovo dob
Ġkonstat ovat
Ġlet nÃŃm
ĠÅ¡ÃŃÅĻ ku
ĠZ vo
ĠpodÃŃ vala
Ġbudou cÃŃch
ĠstÃŃ ny
b ry
Ġzku Å¡enÃ½
ĠStar Ã½
Ġprodu cen
Ġï ģ
ĠP H
ĠJedna lo
Ġbudou cÃŃho
Ġh alu
ĠumÄĽl ci
nat Ã¡
ĠN er
Ġsamostat nÃ½ch
nÄĽ nÃ©m
Ġbyli nky
ĠstÃ¡ nku
ĠKrÃ¡ snÃ©
Ġneban kov
Ġpot kal
Ġply nÅ¯
Ġza bere
Ġcho dili
ĠDlou hÃ¡
ku ÅĻÃ¡
ĠcÃŃrk vi
Ġpr sou
ĠvlÃ¡ dne
ĠÐ ½
G E
Ġva ÅĻÃŃ
ĠmlÃ© ÄįnÃ©
ĠMiro slava
ĠrozÅ¡ÃŃ ÅĻenÃ©
ĠmÄĽ ny
Ġpre s
ĠmÄĽ jte
ĠÅ¾Ã¡ r
Ġvy kÅĻi
Ġnavr hnout
Ġveget ari
ĠpÅĻij ali
Ġau stral
ĠMÄĽst skÃ©ho
Ġga rÃ¡Å¾e
ĠÃºÄįin nÃ¡
ĠodstÃŃ nÅ¯
ĠS vÃ¡
bu m
ĠÃ ĺ
ĠÐ ¸
ĠchybÄĽ jÃŃcÃŃ
ĠkavÃ¡r ny
Ġin ven
Ġpol skÃ©
ĠÅ¾i vÃ¡
Ġdokon Äįit
ĠPo Å¡t
Ġpro tÃ©
ĠrÃ¡ j
Ðµ ÑĢ
ĠpÅĻÃŃm Ã½m
ĠuÄįin il
za ÄįnÃŃho
ĠcÃŃ tÃŃte
ĠÅ¾ivoÄįi chÅ¯
c Ã©
Ġo kÃ©
Ġpo Å¡krÃ¡
ÄĮ as
s is
Ġpo rost
Ġvyrob enÃ¡
Ġnez as
svÄĽt lenÃŃ
Ġz lepÅ¡ÃŃ
Ġroz bor
Ġho lt
Ġjapon skÃ©
Ġpou Å¡tÃŃ
Ġtou hy
Ġzneu Å¾itÃŃ
my sly
Ġkame rou
din ky
ĠU N
ĠKdyby ch
Ġstisk nÄĽte
ĠbazÃ© ny
ĠS el
Ġjednot livÃ¡
ho dÃŃ
Ġhroma dnÃ©
ĠpÅĻe hlednÄĽ
Ġodbor nÄĽ
Ġjedna tel
M usÃŃ
ĠzamÄĽstna nosti
ĠKon ec
ent Ã¡lnÃŃ
Ġaktivit Ã¡ch
Ġ ???
lov ky
Ġlitera tuÅĻe
lÃ© my
Ġk w
ra ft
ĠmanÅ¾el ky
al ovÃ¡
Ġleh kou
Ġsmut nÃ©
ĠnebezpeÄį nÃ½
ĠjÃŃz dnÃŃch
ĠAp artmÃ¡
Ġza sko
Ġna no
ĠsprÃ¡v ci
ĠÅ¾Ã¡d oucÃŃ
ĠpÅĻe pÃ¡
pa dalo
zna men
Ġhra Äįka
Ġoce lovÃ©
ĠzÃŃsk aly
ĠMez itÃŃm
ĠJ anÃ¡
Ġelast an
ĠnÃ¡ plnÄĽ
ĠN O
b uje
Ġza dnÃŃch
ĠNAT UR
ĠzaÄį neme
vej me
Ġcha o
Ġnad Å¡en
ĠpÅĻipo jen
Ġnahra dÃŃ
St an
Ġu st
ĠtlaÄįÃŃ tek
Ġdo Å¡el
ĠdÅ¯kaz em
ĠÅ¾i vÃ½ch
ĠmyÅ¡len kou
Ġposkyt l
Ġostra va
Ġbi lan
ĠÃºro ky
my slÃŃm
Ġlo ndÃ½
ĠVolkswa gen
Ġhlubo kÃ½
Ġvz kaz
f lo
ĠK ance
ÅĻ enÃ½mi
ĠPe dago
ĠurÄįit Ã½m
ĠpÅĻi dÃ¡m
pr vnÃŃ
ĠsvÃŃti dla
Ġsportov ce
ĠpoÄįÃŃtaÄį ovÃ½ch
ĠzprostÅĻed kovÃ¡nÃŃ
rÃ¡ nÃŃm
Ġpa dla
ĠvÄĽ ÅĻÃŃme
stav y
ĠneznÃ¡ mÃ©
Ġlokali tu
mu jÃŃcÃŃ
Ġo stu
ati vnÄĽ
ĠDe j
Ġposla ncÅ¯
ĠdÅ¯cho dce
S O
Ma x
Ġpravidel nÃ½
ĠJ or
Ġsnad nÃ½
ĠzajÃŃma vÄĽ
ĠukÃ¡ zka
men u
Ġna hÃ¡
Ġnor ma
ĠvÃ½kon Å¯
Å¡ enÃ½mi
k ÄįnÃŃho
Ġm er
pla cenÃŃ
Ġag ent
Ġpanel Å¯
E le
Ġsem ÃŃnka
Ġpotvr dÃŃ
Ġbl bost
mÄĽ tem
Ġle sem
ĠvÃ½bav y
ĠD rÃ¡
Ġtranspar ent
hot ovostnÃŃ
ni Äįek
ĠzpÅ¯sob ujÃŃ
Le toÅ¡nÃŃ
ĠnÄĽme ckÃ¡
ĠtÅĻet inÄĽ
Ġnej zÃ¡
ĠPra ch
Ġ27 0
pi c
ĠM E
ĠÅ¡iro ko
ĠP il
å¤© å¤©
ovnÃŃ ka
Ġskon Äįili
ĠRoz dÃŃl
ĠDÄĽt skÃ©
Ġpochyb nosti
Ġovlada Äį
ĠkonÄįet in
M on
Ġskle nÄĽnÃ©
moÅ¾ nÃ¡
ĠS mr
ĠzvÄĽt Å¡enÃŃ
ope rati
sto letÃŃ
Ġex pozici
Ġvideo kli
ĠneÅĻe Å¡ÃŃ
ĠpÅĻÃŃ Äįku
Ġvhod nÄĽjÅ¡ÃŃ
t Ã½m
Ġzap nutÃŃ
ĠpamÄĽ tnÃŃ
krÃ¡ te
ĠstÅĻe cha
Ġstav em
ckon cÅ¯
Ġuc tÃŃ
ĠhlÃŃ dat
Ġcel kovÃ½ch
ĠBe Äį
ĠvÃ½ dÄĽl
Ġma gie
Ġzpo mal
nost mi
Ġnaf uk
Ġd B
Ġtvo ÅĻenÃŃ
Ġoprav dovÃ©
Ġci zÃŃm
Ġpoku sit
dl Å¯m
ĠvloÅ¾ ky
C ent
Ġnapro stou
Ġk v
ĠpÅĻekva pit
Ġposti Å¾enÃ½ch
Ù Ĩ
gi a
g ol
ĠRych le
Ä ±
ck rÃ¡t
... ]
hle jÅ¡ÃŃ
Ġle dÄĽ
ĠjÃŃdelnÃŃ Äįek
Ġ( "
ĠÄĮ L
teÄį nÃŃm
Ġevrop skÃ½
ĠblÃŃz kÃ©m
Ġneb rÃ¡nÃŃ
Ġkoncent raci
Ġklasi ka
Ġcelo roÄįnÃŃ
D va
ĠÃºc ty
pomÃŃ nÃ¡
Ġren ovace
e dli
Ġkucha ÅĻ
Z ÃŃ
n en
Ġvr chu
Äįi Å¡tÄĽ
Ġmodu ly
Ġmastu r
ĠodstÃŃ nu
ĠV O
Ġtr Å¾eb
Ġsna hou
ĠÄįer nÃ½ch
ĠÃºÅ¾as nÄĽ
ĠÅ¡e stÃ©
Ġpra por
Ġblo kÅ¯
Ġno hav
ĠstÃ¡vajÃŃcÃŃ ho
Ġodha lenÃŃ
Ġtroji ce
ÅĻi cÃŃ
Ġ( -
Ġd bÃ¡t
ĠpÅĻÃŃ to
V O
ĠDob rÃ¡
Ġjisto tou
Ġgril ovÃ¡nÃŃ
Ġsm Ã¡t
ĠPa ÅĻÃŃÅ¾
ĠnepÅĻi jde
Ġle as
Å¡ ovacÃŃ
vzd or
Ġho dil
g Å¯
Ġza lÃ©
hod nÃ½m
Ġmotor ku
Ġobnov y
Ġma sku
ĠVÃ½ rob
hla v
Ġnut nÃ½
Ġm razu
Ġpo lnÃŃ
Ġz pevnÄĽ
Ġvy pÅ¯j
ĠmÄĽsÃŃ cem
Ġpro sla
ĠzpÃŃ vÃ¡
L ÃŃ
J EN
Å¡e jÃŃcÃŃ
Ġtrest nÃ©
TÅĻe tÃŃ
ov nÃŃch
ĠdodÃ¡ vek
ĠÃ¨okolÃ¡ dy
ĠÅ¾ up
ĠPoj Äıme
Ġ* ***
ĠD ali
ĠIn spi
ĠnepÅĻe kva
Ġpoznamen al
Ġd inosau
ĠpÅĻedpo klad
ĠmÃ³ du
klo n
ĠAndre a
ĠpoloÅ¾ il
Ġstu doval
ĠRe gu
Sy stÃ©m
Ġza dlu
ĠtÄĽle so
Ġfede race
ĠÄĮeskosloven sku
ĠnÃ¡dher nou
ï ¼
nej vÃ½
ĠD em
Ġekvi va
Ġ q
Ġnetu Å¡ÃŃ
Ġkyta ru
ĠpÃ¡ rÅ¯
Ġho lku
ĠZnoj mo
ĠkÅĻe slo
Ġob race
Ġnad ÅĻÃŃ
ĠpÅ¯sob nostÃŃ
Ġzouf al
ĠpÅĻednÃ¡ Å¡ka
Ġdom ku
ĠIzra ele
ĠkÅĻesÅ¥an skÃ©
Ġtot Ã¡lnÃŃ
ĠpÃŃ sek
ĠTa bulka
Ġkle sa
Ġenerge tickÃ½ch
Ġmo Äįi
ĠCent ra
ĠpÅĻij ala
Ġvy ÃºÄįtovÃ¡nÃŃ
ĠM em
ĠpÅĻes Ã¡
kov skÃ©
Ġrespon dentÅ¯
t ry
[...]
