{
  "version": "1.0",
  "truncation": {
    "direction": "Right",
    "max_length": 512,
    "strategy": "LongestFirst",
    "stride": 0
  },
  "padding": {
    "strategy": {
      "Fixed": 512
    },
    "direction": "Right",
    "pad_to_multiple_of": null,
    "pad_id": 0,
    "pad_type_id": 0,
    "pad_token": "<|endoftext|>"
  },
  "added_tokens": [
    {
      "id": 0,
      "content": "<|endoftext|>",
      "single_word": false,
      "lstrip": false,
      "rstrip": false,
      "normalized": true,
      "special": true
    }
  ],
  "normalizer": null,
  "pre_tokenizer": {
    "type": "ByteLevel",
    "add_prefix_space": false,
    "trim_offsets": true,
    "use_regex": true
  },
  "post_processor": {
    "type": "ByteLevel",
    "add_prefix_space": true,
    "trim_offsets": false,
    "use_regex": true
  },
  "decoder": {
    "type": "ByteLevel",
    "add_prefix_space": true,
    "trim_offsets": true,
    "use_regex": true
  },
  "model": {
    "type": "BPE",
    "dropout": null,
    "unk_token": null,
    "continuing_subword_prefix": "",
    "end_of_word_suffix": "",
    "fuse_unk": false,
    "byte_fallback": false,
    "ignore_merges": false,
    "vocab": {
      "<|endoftext|>": 0,
      "!": 1,
      "\"": 2,
      "#": 3,
      "$": 4,
      "%": 5,
      "&": 6,
      "'": 7,
      "(": 8,
      ")": 9,
      "*": 10,
      "+": 11,
      ",": 12,
      "-": 13,
      ".": 14,
      "/": 15,
      "0": 16,
      "1": 17,
      "2": 18,
      "3": 19,
      "4": 20,
      "5": 21,
      "6": 22,
      "7": 23,
      "8": 24,
      "9": 25,
      ":": 26,
      ";": 27,
      "<": 28,
      "=": 29,
      ">": 30,
      "?": 31,
      "@": 32,
      "A": 33,
      "B": 34,
      "C": 35,
      "D": 36,
      "E": 37,
      "F": 38,
      "G": 39,
      "H": 40,
      "I": 41,
      "J": 42,
      "K": 43,
      "L": 44,
      "M": 45,
      "N": 46,
      "O": 47,
      "P": 48,
      "Q": 49,
      "R": 50,
      "S": 51,
      "T": 52,
      "U": 53,
      "V": 54,
      "W": 55,
      "X": 56,
      "Y": 57,
      "Z": 58,
      "[": 59,
      "\\": 60,
      "]": 61,
      "^": 62,
      "_": 63,
      "`": 64,
      "a": 65,
      "b": 66,
      "c": 67,
      "d": 68,
      "e": 69,
      "f": 70,
      "g": 71,
      "h": 72,
      "i": 73,
      "j": 74,
      "k": 75,
      "l": 76,
      "m": 77,
      "n": 78,
      "o": 79,
      "p": 80,
      "q": 81,
      "r": 82,
      "s": 83,
      "t": 84,
      "u": 85,
      "v": 86,
      "w": 87,
      "x": 88,
      "y": 89,
      "z": 90,
      "{": 91,
      "|": 92,
      "}": 93,
      "~": 94,
      "¡": 95,
      "¢": 96,
      "£": 97,
      "¤": 98,
      "¥": 99,
      "¦": 100,
      "§": 101,
      "¨": 102,
      "©": 103,
      "ª": 104,
      "«": 105,
      "¬": 106,
      "®": 107,
      "¯": 108,
      "°": 109,
      "±": 110,
      "²": 111,
      "³": 112,
      "´": 113,
      "µ": 114,
      "¶": 115,
      "·": 116,
      "¸": 117,
      "¹": 118,
      "º": 119,
      "»": 120,
      "¼": 121,
      "½": 122,
      "¾": 123,
      "¿": 124,
      "À": 125,
      "Á": 126,
      "Â": 127,
      "Ã": 128,
      "Ä": 129,
      "Å": 130,
      "Æ": 131,
      "Ç": 132,
      "È": 133,
      "É": 134,
      "Ê": 135,
      "Ë": 136,
      "Ì": 137,
      "Í": 138,
      "Î": 139,
      "Ï": 140,
      "Ð": 141,
      "Ñ": 142,
      "Ò": 143,
      "Ó": 144,
      "Ô": 145,
      "Õ": 146,
      "Ö": 147,
      "×": 148,
      "Ø": 149,
      "Ù": 150,
      "Ú": 151,
      "Û": 152,
      "Ü": 153,
      "Ý": 154,
      "Þ": 155,
      "ß": 156,
      "à": 157,
      "á": 158,
      "â": 159,
      "ã": 160,
      "ä": 161,
      "å": 162,
      "æ": 163,
      "ç": 164,
      "è": 165,
      "é": 166,
      "ê": 167,
      "ë": 168,
      "ì": 169,
      "í": 170,
      "î": 171,
      "ï": 172,
      "ð": 173,
      "ñ": 174,
      "ò": 175,
      "ó": 176,
      "ô": 177,
      "õ": 178,
      "ö": 179,
      "÷": 180,
      "ø": 181,
      "ù": 182,
      "ú": 183,
      "û": 184,
      "ü": 185,
      "ý": 186,
      "þ": 187,
      "ÿ": 188,
      "Ā": 189,
      "ā": 190,
      "Ă": 191,
      "ă": 192,
      "Ą": 193,
      "ą": 194,
      "Ć": 195,
      "ć": 196,
      "Ĉ": 197,
      "ĉ": 198,
      "Ċ": 199,
      "ċ": 200,
      "Č": 201,
      "č": 202,
      "Ď": 203,
      "ď": 204,
      "Đ": 205,
      "đ": 206,
      "Ē": 207,
      "ē": 208,
      "Ĕ": 209,
      "ĕ": 210,
      "Ė": 211,
      "ė": 212,
      "Ę": 213,
      "ę": 214,
      "Ě": 215,
      "ě": 216,
      "Ĝ": 217,
      "ĝ": 218,
      "Ğ": 219,
      "ğ": 220,
      "Ġ": 221,
      "ġ": 222,
      "Ģ": 223,
      "ģ": 224,
      "Ĥ": 225,
      "ĥ": 226,
      "Ħ": 227,
      "ħ": 228,
      "Ĩ": 229,
      "ĩ": 230,
      "Ī": 231,
      "ī": 232,
      "Ĭ": 233,
      "ĭ": 234,
      "Į": 235,
      "į": 236,
      "İ": 237,
      "ı": 238,
      "Ĳ": 239,
      "ĳ": 240,
      "Ĵ": 241,
      "ĵ": 242,
      "Ķ": 243,
      "ķ": 244,
      "ĸ": 245,
      "Ĺ": 246,
      "ĺ": 247,
      "Ļ": 248,
      "ļ": 249,
      "Ľ": 250,
      "ľ": 251,
      "Ŀ": 252,
      "ŀ": 253,
      "Ł": 254,
      "ł": 255,
      "Ń": 256,
      "ÃŃ": 257,
      "Ã¡": 258,
      "Ġp": 259,
      "Ġs": 260,
      "ÄĽ": 261,
      "Ġn": 262,
      "Ġv": 263,
      "Ã©": 264,
      "nÃŃ": 265,
      "ÅĻ": 266,
      "st": 267,
      "Å¾": 268,
      "ov": 269,
      "Ġa": 270,
      "Äį": 271,
      "Ġj": 272,
      "ch": 273,
      "Ġz": 274,
      "Ġt": 275,
      "Ã½": 276,
      "Ġd": 277,
      "Ġk": 278,
      "ro": 279,
      "Å¡": 280,
      "le": 281,
      "Ġm": 282,
      "ou": 283,
      "Ġo": 284,
      "en": 285,
      "te": 286,
      "ra": 287,
      "la": 288,
      "Ġpo": 289,
      "Ġna": 290,
      "li": 291,
      "ho": 292,
      "Å¯": 293,
      "Ġb": 294,
      "em": 295,
      "Ġse": 296,
      "Ġje": 297,
      "ce": 298,
      "ÅĻe": 299,
      "Ġne": 300,
      "in": 301,
      "ak": 302,
      "nÄĽ": 303,
      "Ġdo": 304,
      "Ġpro": 305,
      "at": 306,
      "lo": 307,
      "rÃ¡": 308,
      "sk": 309,
      "no": 310,
      "it": 311,
      "an": 312,
      "Å¾e": 313,
      "Ġu": 314,
      "ÅĻÃŃ": 315,
      "or": 316,
      "ku": 317,
      "de": 318,
      "ĠP": 319,
      "Ġza": 320,
      "ka": 321,
      "ky": 322,
      "on": 323,
      "Ġto": 324,
      "Ġst": 325,
      "je": 326,
      "nÃ©": 327,
      "al": 328,
      "Ġvy": 329,
      "ĠÄį": 330,
      "ni": 331,
      "jÃŃ": 332,
      "ci": 333,
      "to": 334,
      "Ã½ch": 335,
      "er": 336,
      "ÅĻi": 337,
      "cÃŃ": 338,
      "po": 339,
      "Å¡ÃŃ": 340,
      "na": 341,
      "ti": 342,
      "dy": 343,
      "re": 344,
      "Ġh": 345,
      "va": 346,
      "ĠV": 347,
      "ko": 348,
      "Ġby": 349,
      "Ġjs": 350,
      "ĠS": 351,
      "Ġve": 352,
      "ĠpÅĻe": 353,
      "Ġro": 354,
      "ru": 355,
      "ter": 356,
      "Ġob": 357,
      "lÃ¡": 358,
      "mi": 359,
      "âĢ": 360,
      "lu": 361,
      "vo": 362,
      "me": 363,
      "ar": 364,
      "Ġ1": 365,
      "Å¡e": 366,
      "nÃ¡": 367,
      "ck": 368,
      "ovÃ¡": 369,
      "ne": 370,
      "sti": 371,
      "vÄĽ": 372,
      "ĠM": 373,
      "Ġod": 374,
      "du": 375,
      "ze": 376,
      "ĠÅ¾e": 377,
      "tÄĽ": 378,
      "Ġtak": 379,
      "Ġ(": 380,
      "ĠN": 381,
      "ĠnÃ¡": 382,
      "dÄĽ": 383,
      "av": 384,
      "ob": 385,
      "Ġf": 386,
      "ĠK": 387,
      "Ġi": 388,
      "ĠÃ": 389,
      "..": 390,
      "mÄĽ": 391,
      "ĠzÃ¡": 392,
      "ĠvÃ½": 393,
      "ĠT": 394,
      "mu": 395,
      "ovÃ©": 396,
      "da": 397,
      "il": 398,
      "ĠA": 399,
      "Ġ2": 400,
      "bo": 401,
      "Ġc": 402,
      "ĠJ": 403,
      "ĠÃº": 404,
      "Ġmo": 405,
      "tu": 406,
      "ĠpÅĻÃŃ": 407,
      "by": 408,
      "vÃ¡": 409,
      "Ġjak": 410,
      "Ġpod": 411,
      "Äįe": 412,
      "ĠpÅĻi": 413,
      "Ġsi": 414,
      "ĠD": 415,
      "Ã¡l": 416,
      "nÃ½": 417,
      "ji": 418,
      "ĠB": 419,
      "Ġkter": 420,
      "ta": 421,
      "di": 422,
      "vÃŃ": 423,
      "Ã©ho": 424,
      "dÃ¡": 425,
      "Ġko": 426,
      "dnÃŃ": 427,
      "Ġ-": 428,
      "ĠnÄĽ": 429,
      "Ġho": 430,
      "pa": 431,
      "ma": 432,
      "lÃŃ": 433,
      "Ġpr": 434,
      "ĠmÄĽ": 435,
      "kÃ¡": 436,
      "rav": 437,
      "mo": 438,
      "Ġch": 439,
      "ez": 440,
      "tÃŃ": 441,
      "Ġte": 442,
      "se": 443,
      "nou": 444,
      "Ġale": 445,
      "lÃ©": 446,
      "Ġle": 447,
      "ova": 448,
      "nu": 449,
      "nÃŃm": 450,
      "ly": 451,
      "ĠâĢ": 452,
      "ĠZ": 453,
      "Å¾ÃŃ": 454,
      "ny": 455,
      "pe": 456,
      "00": 457,
      "Ġre": 458,
      "Ġroz": 459,
      "nost": 460,
      "Ġjed": 461,
      "ĠC": 462,
      "Å¾i": 463,
      "ĠO": 464,
      "ĠÅ¡": 465,
      "as": 466,
      "uje": 467,
      "Ġbu": 468,
      "ve": 469,
      "ty": 470,
      "Ġjsem": 471,
      "Ã½m": 472,
      "do": 473,
      "dÃŃ": 474,
      "ri": 475,
      "ÄįnÃŃ": 476,
      "Ġnej": 477,
      "ÅĪ": 478,
      "Ġe": 479,
      "is": 480,
      "Ġin": 481,
      "Ġnebo": 482,
      "Ġka": 483,
      "Ġsv": 484,
      "skÃ©": 485,
      "ry": 486,
      "ĠH": 487,
      "kla": 488,
      "ĠR": 489,
      "ĠpÅĻed": 490,
      "vnÃŃ": 491,
      "tel": 492,
      "ĠPo": 493,
      "Å¡tÄĽ": 494,
      "up": 495,
      "ovat": 496,
      "Ġspo": 497,
      "lou": 498,
      "bu": 499,
      "ÃŃm": 500,
      "Ġkon": 501,
      "kon": 502,
      "ÄĮ": 503,
      "ĠL": 504,
      "ĠvÄĽ": 505,
      "rov": 506,
      "mÃŃ": 507,
      "ÄįÃŃ": 508,
      "Ġjsou": 509,
      "sa": 510,
      "ĠmÃ¡": 511,
      "Ġjako": 512,
      "cho": 513,
      "ovÃ¡nÃŃ": 514,
      "Ġce": 515,
      "Ġsou": 516,
      "Ġma": 517,
      "Ġli": 518,
      "zi": 519,
      "jÃŃcÃŃ": 520,
      "ĠkterÃ©": 521,
      "men": 522,
      "si": 523,
      "Ġmi": 524,
      "ĠmÃŃ": 525,
      "Ġsp": 526,
      "sta": 527,
      "tnÃŃ": 528,
      "hod": 529,
      "vi": 530,
      "lov": 531,
      "kou": 532,
      "Ġco": 533,
      "Ġji": 534,
      "Ġvz": 535,
      "ba": 536,
      "Ġmu": 537,
      "nosti": 538,
      "vy": 539,
      "sob": 540,
      "Ġkte": 541,
      "sle": 542,
      "Ġ3": 543,
      "kÅ¯": 544,
      "Ã¡lnÃŃ": 545,
      "stav": 546,
      "Ġni": 547,
      "tÃ¡": 548,
      "ĠÄĮ": 549,
      "bÃŃ": 550,
      "Ġvo": 551,
      "bÄĽ": 552,
      "ckÃ©": 553,
      "Ġkdy": 554,
      "...": 555,
      "ĠI": 556,
      "sÃŃ": 557,
      "prav": 558,
      "za": 559,
      "sto": 560,
      "hu": 561,
      "kov": 562,
      "gi": 563,
      "jÅ¡ÃŃ": 564,
      "jem": 565,
      "ĠE": 566,
      "pÄĽ": 567,
      "nÃ½ch": 568,
      "den": 569,
      "zÃŃ": 570,
      "ĠprÃ¡": 571,
      "Ã©m": 572,
      "Å¯Å¾e": 573,
      "ste": 574,
      "Ã¡m": 575,
      "Å¥": 576,
      "ĠdÄĽ": 577,
      "hle": 578,
      "01": 579,
      "ĠF": 580,
      "ha": 581,
      "Å¾it": 582,
      "Ġze": 583,
      "Ġnem": 584,
      "Ġde": 585,
      "ĠtÄĽ": 586,
      "ĠÅ¾": 587,
      "Ġpou": 588,
      "stup": 589,
      "Ġta": 590,
      "Ã¡d": 591,
      "ĠvÃŃ": 592,
      "âĢľ": 593,
      "my": 594,
      "Ġjen": 595,
      "Ã¡t": 596,
      "Ġpra": 597,
      "kt": 598,
      "ĠvÅ¡e": 599,
      "Äįi": 600,
      "ĠkterÃ½": 601,
      "ĠJe": 602,
      "rÅ¯": 603,
      "Ġvel": 604,
      "pu": 605,
      "Ġbude": 606,
      "oru": 607,
      "be": 608,
      "Å¡i": 609,
      "ĠU": 610,
      "ĠuÅ¾": 611,
      "ĠÅ": 612,
      "stÃŃ": 613,
      "ĠâĢĵ": 614,
      "mÃ¡": 615,
      "Ġjsme": 616,
      "dou": 617,
      "ovan": 618,
      "ovÄĽ": 619,
      "din": 620,
      "Ġbez": 621,
      "alÅ¡ÃŃ": 622,
      "ĠâĢŀ": 623,
      "vÄĽt": 624,
      "ĠNa": 625,
      "ran": 626,
      "Ġg": 627,
      "Ġ4": 628,
      "Ġpa": 629,
      "Ġbo": 630,
      "enÃ©": 631,
      "Ġtu": 632,
      "chÃ¡": 633,
      "ĠNe": 634,
      "Ġpot": 635,
      "lat": 636,
      "ut": 637,
      "lem": 638,
      "hy": 639,
      "ovÃ½": 640,
      "nÃŃch": 641,
      "su": 642,
      "ĠmÅ¯Å¾e": 643,
      "ovo": 644,
      "Ġ5": 645,
      "Ġaby": 646,
      "ĠpÅ¯": 647,
      "Ġsa": 648,
      "kem": 649,
      ").": 650,
      "stÄĽ": 651,
      "nÃ©ho": 652,
      "pi": 653,
      "el": 654,
      "zenÃŃ": 655,
      "kud": 656,
      "ĠÅ¾i": 657,
      "Ġjedno": 658,
      "leÄį": 659,
      "Ġzp": 660,
      "ĠtakÃ©": 661,
      "Ġjin": 662,
      "dem": 663,
      "ĠbÃ½": 664,
      "fi": 665,
      "ati": 666,
      "ĠG": 667,
      "ĠÄįi": 668,
      "Ġjeho": 669,
      "ĠÅĻe": 670,
      "ena": 671,
      "ĠÄįe": 672,
      "rÃ¡t": 673,
      "dnÄĽ": 674,
      "ent": 675,
      "last": 676,
      "Ġhla": 677,
      "ĠmoÅ¾": 678,
      "ĠdalÅ¡ÃŃ": 679,
      "stvÃŃ": 680,
      "rou": 681,
      "skÃ¡": 682,
      "liv": 683,
      "Ġty": 684,
      "vr": 685,
      "Ġbyl": 686,
      "Ġpoz": 687,
      "skÃ½": 688,
      "ĠPro": 689,
      "ali": 690,
      "ĠdÃŃ": 691,
      "Ġnap": 692,
      "ĠaÅ¾": 693,
      "ĠvÅ¡ech": 694,
      "zu": 695,
      "),": 696,
      "ina": 697,
      "zna": 698,
      "ĠtÃ©": 699,
      "ĠkdyÅ¾": 700,
      "Ġdi": 701,
      "hra": 702,
      "ĠvÃ¡": 703,
      "ĠkterÃ¡": 704,
      "Äįka": 705,
      "for": 706,
      "Ġ\"": 707,
      "tek": 708,
      "Ġak": 709,
      "ÅĻa": 710,
      "co": 711,
      "Ġproto": 712,
      "Ġdob": 713,
      "sky": 714,
      "Ġmin": 715,
      "Ã³": 716,
      "Ġzd": 717,
      "et": 718,
      "eno": 719,
      "Ġvi": 720,
      "Äı": 721,
      "ec": 722,
      "Ġ201": 723,
      "Äįky": 724,
      "gra": 725,
      "ĠÅĻÃŃ": 726,
      "ĠbÃ½t": 727,
      "ist": 728,
      "so": 729,
      "pl": 730,
      "nit": 731,
      "ĠneÅ¾": 732,
      "Ġten": 733,
      "Ġtoho": 734,
      "stat": 735,
      "ĠdÅ¯": 736,
      "stÅĻe": 737,
      "Ġku": 738,
      "ĠstÃ¡": 739,
      "ruh": 740,
      "ĠÅ¡ko": 741,
      "ĠnÄĽj": 742,
      "ĠrÃ¡": 743,
      "Ġra": 744,
      "ovÃ½ch": 745,
      "vnÄĽ": 746,
      "Ġbyla": 747,
      "Ġsk": 748,
      "bi": 749,
      "ĠdÃ¡": 750,
      "Ġsy": 751,
      "Ġ6": 752,
      "mÃ©": 753,
      "ĠnenÃŃ": 754,
      "Ġbylo": 755,
      "vu": 756,
      "ani": 757,
      "len": 758,
      "ĠvÅ¡": 759,
      "cÃŃch": 760,
      "ĠspoleÄį": 761,
      "jich": 762,
      "raz": 763,
      "ÄįnÄĽ": 764,
      "ÅĻej": 765,
      "Ġmoh": 766,
      "vat": 767,
      "nÃŃho": 768,
      "skÃ©ho": 769,
      "iny": 770,
      "un": 771,
      "ĠnÄĽk": 772,
      "ĠpÅĻ": 773,
      "Å¯m": 774,
      "lik": 775,
      "ÄįenÃŃ": 776,
      "pÃŃ": 777,
      "ĠkaÅ¾": 778,
      "Ġtr": 779,
      "Ġmez": 780,
      "klad": 781,
      "oval": 782,
      "enÃ¡": 783,
      "rob": 784,
      "Ġ19": 785,
      "Ġnep": 786,
      "ovÃ©ho": 787,
      "nÃ½m": 788,
      "ckÃ½": 789,
      "ĠpÅĻÃŃpa": 790,
      "Ġvlast": 791,
      "Ġjejich": 792,
      "sy": 793,
      "Ġtom": 794,
      "kÃ©": 795,
      "ĠjeÅ¡tÄĽ": 796,
      "ĠÅ¾ivo": 797,
      "pis": 798,
      "Ġdne": 799,
      "Ġslu": 800,
      "Å¡enÃŃ": 801,
      "Ġpe": 802,
      "Ġosob": 803,
      "bor": 804,
      "Ġnad": 805,
      "ĠjÃŃ": 806,
      "Ġmno": 807,
      "Äįit": 808,
      "ct": 809,
      "Ġpak": 810,
      "ovi": 811,
      "Ġkde": 812,
      "Ġani": 813,
      "jte": 814,
      "ĠTo": 815,
      "Ġno": 816,
      "ĠsvÃ©": 817,
      "Ġsta": 818,
      "ĠpÅĻes": 819,
      "ĠpÃ¡": 820,
      "ĠÄĮe": 821,
      "Ġop": 822,
      "Po": 823,
      "ĠÄįÃ¡": 824,
      "ĠDo": 825,
      "dno": 826,
      "dr": 827,
      "hÃ¡": 828,
      "Äįet": 829,
      "ĠtÅĻe": 830,
      "mp": 831,
      "Ġva": 832,
      "ĠnabÃŃ": 833,
      "skÃ½ch": 834,
      "ÅĻenÃŃ": 835,
      "sku": 836,
      "ove": 837,
      "Ġau": 838,
      "vali": 839,
      "chu": 840,
      "Ġru": 841,
      "eny": 842,
      "enÃ½": 843,
      "nout": 844,
      "ĠlÃ©": 845,
      "nÄĽjÅ¡ÃŃ": 846,
      "chy": 847,
      "sla": 848,
      "Ġ7": 849,
      "ir": 850,
      "itu": 851,
      "ĠtÃŃm": 852,
      "spÄĽ": 853,
      "teri": 854,
      "Ġstra": 855,
      "ĠPra": 856,
      "tem": 857,
      "Ġry": 858,
      "lenÃŃ": 859,
      "lnÃŃ": 860,
      "ĠprÅ¯": 861,
      "Äįas": 862,
      "Ġdruh": 863,
      "emi": 864,
      "cky": 865,
      "Ġmy": 866,
      "ĠÅł": 867,
      "ĠW": 868,
      "sko": 869,
      "tej": 870,
      "Ġcel": 871,
      "Ġsku": 872,
      "dob": 873,
      "Ġba": 874,
      "Å¡ÃŃm": 875,
      "val": 876,
      "Ġprac": 877,
      "Ġ8": 878,
      "ori": 879,
      "Ġpodle": 880,
      "ĠvÄĽt": 881,
      "Ġlet": 882,
      "loÅ¾": 883,
      "stÃ¡": 884,
      "rg": 885,
      "ĠnÃ¡s": 886,
      "Ġsna": 887,
      "Ġmezi": 888,
      "Ġstav": 889,
      "Ġfo": 890,
      "logi": 891,
      "Ġex": 892,
      "dit": 893,
      "dla": 894,
      "ĠprvnÃŃ": 895,
      "Ġkou": 896,
      "ujÃŃ": 897,
      "ckÃ½ch": 898,
      "hla": 899,
      "Ġ:": 900,
      "ovou": 901,
      "eme": 902,
      "zy": 903,
      "ĠzaÄį": 904,
      "Ġprav": 905,
      "Ġke": 906,
      "Å¾enÃŃ": 907,
      "ĠnÄĽjak": 908,
      "Å¯j": 909,
      "ĠvÃŃce": 910,
      "ĠÄįer": 911,
      "ĠjiÅ¾": 912,
      "nÄĽnÃŃ": 913,
      "ad": 914,
      "fe": 915,
      "inÃ¡": 916,
      "Ġzna": 917,
      "mÄĽr": 918,
      "Ġobje": 919,
      "Ġvelmi": 920,
      "Ġsto": 921,
      "Ġur": 922,
      "ĠkaÅ¾d": 923,
      "Ġl": 924,
      "forma": 925,
      "lep": 926,
      "vÃ½": 927,
      "tr": 928,
      "ska": 929,
      "kti": 930,
      "art": 931,
      "vÃ¡nÃŃ": 932,
      "Å¯sob": 933,
      "spo": 934,
      "ovnÃŃ": 935,
      "vou": 936,
      "ĠpotÅĻe": 937,
      "nostÃŃ": 938,
      "Ġme": 939,
      "chni": 940,
      "ckÃ¡": 941,
      "pra": 942,
      "ast": 943,
      "bli": 944,
      "ĠnÄĽko": 945,
      "ĠSt": 946,
      "sou": 947,
      "anÃ©": 948,
      "ĠÄįas": 949,
      "Ġsm": 950,
      "del": 951,
      "ĠMo": 952,
      "ĠVy": 953,
      "Ġtam": 954,
      "um": 955,
      "hem": 956,
      "ĠstÅĻe": 957,
      "ĠbÄĽ": 958,
      "Ġden": 959,
      "zen": 960,
      "ĠZa": 961,
      "Ġ9": 962,
      "ver": 963,
      "kaz": 964,
      "dÅ¯": 965,
      "ĠRo": 966,
      "jeme": 967,
      "ĠtÃ½": 968,
      "Ġproje": 969,
      "ĠvÅ¡ak": 970,
      "Ġnez": 971,
      "im": 972,
      "kovÃ©": 973,
      "ĠjejÃŃ": 974,
      "dle": 975,
      "ÄĽk": 976,
      "Ġsamo": 977,
      "Ġpov": 978,
      "Ġrozhod": 979,
      "Ġ,": 980,
      "Ġtomu": 981,
      "nice": 982,
      "Ġhra": 983,
      "Ġso": 984,
      "ĠnÃŃ": 985,
      "Ġ10": 986,
      "ĠsvÄĽ": 987,
      "stu": 988,
      "nutÃŃ": 989,
      "ĠprotoÅ¾e": 990,
      "ing": 991,
      "tom": 992,
      "Äįek": 993,
      "nÃ©m": 994,
      "rat": 995,
      "ĠrÅ¯": 996,
      "âĢ¦": 997,
      "ĠÃºÄį": 998,
      "Ġbudou": 999,
      "stou": 1000,
      "Ġw": 1001,
      "sled": 1002,
      "Ġstej": 1003,
      "Ġroce": 1004,
      "rnÃŃ": 1005,
      "ĠkrÃ¡": 1006,
      "ory": 1007,
      "Ġdlou": 1008,
      "Ġprob": 1009,
      "cÅ¯": 1010,
      "ĠKo": 1011,
      "Ġsyst": 1012,
      "cha": 1013,
      "Ġpomo": 1014,
      "ane": 1015,
      "ato": 1016,
      "Ġtedy": 1017,
      "Ġasi": 1018,
      "Ġan": 1019,
      "Ġ200": 1020,
      "Ġti": 1021,
      "vÃ©": 1022,
      "Ġstu": 1023,
      "Ġlo": 1024,
      "ÅĻÃ¡d": 1025,
      "Ġvyu": 1026,
      "teÄį": 1027,
      "ĠprostÅĻe": 1028,
      "mÅ¯": 1029,
      "ĠKÄį": 1030,
      "inu": 1031,
      "nky": 1032,
      "Ġinforma": 1033,
      "ene": 1034,
      "ĠvÃ¡m": 1035,
      "jde": 1036,
      "pad": 1037,
      "slu": 1038,
      "Ġroku": 1039,
      "let": 1040,
      "nek": 1041,
      "ĠMa": 1042,
      "eb": 1043,
      "leÅ¾it": 1044,
      "Ġpla": 1045,
      "ĠmusÃŃ": 1046,
      "Ġkli": 1047,
      "ĠvÅ¯": 1048,
      "Ã½mi": 1049,
      "ktu": 1050,
      "ckÃ©ho": 1051,
      "ĠkteÅĻÃŃ": 1052,
      "cen": 1053,
      "ĠPÅĻe": 1054,
      "ĠKa": 1055,
      "sÃ¡": 1056,
      "pro": 1057,
      "ĠzpÅ¯sob": 1058,
      "Ġfun": 1059,
      "ĠnÃ¡m": 1060,
      "pr": 1061,
      "ujÃŃcÃŃ": 1062,
      "ĠIn": 1063,
      "ĠcÃŃ": 1064,
      "ĠmÅ¯Å¾ete": 1065,
      "Ġfor": 1066,
      "ub": 1067,
      "tele": 1068,
      "Ġhodin": 1069,
      "Ġrych": 1070,
      "Ġmal": 1071,
      "slednÃŃ": 1072,
      "Ġov": 1073,
      "ĠpÃŃ": 1074,
      "Ġkvali": 1075,
      "dÃ¡nÃŃ": 1076,
      "ĠzÃ¡kla": 1077,
      "ol": 1078,
      "ĠsÃŃ": 1079,
      "zd": 1080,
      "ana": 1081,
      "Ġvyb": 1082,
      "kce": 1083,
      "Å¾dy": 1084,
      "Ġorg": 1085,
      "ĠVe": 1086,
      "kra": 1087,
      "Ġproti": 1088,
      "ven": 1089,
      "Ġpouze": 1090,
      "Ġpl": 1091,
      "ĠzmÄĽ": 1092,
      "Ġpat": 1093,
      "tra": 1094,
      "ĠstrÃ¡": 1095,
      "Ġzem": 1096,
      "dÃ©": 1097,
      "ĠmajÃŃ": 1098,
      "Ġ0": 1099,
      "Ġtra": 1100,
      "cz": 1101,
      "Ġkra": 1102,
      "Ġla": 1103,
      "stli": 1104,
      "roj": 1105,
      "ĠMi": 1106,
      "ĠnÄĽco": 1107,
      "poru": 1108,
      "Ġmoc": 1109,
      "min": 1110,
      "od": 1111,
      "us": 1112,
      "Ġbych": 1113,
      "Ãº": 1114,
      "ari": 1115,
      "vit": 1116,
      "eri": 1117,
      "Ġzde": 1118,
      "chÃ¡zÃŃ": 1119,
      "pla": 1120,
      "zem": 1121,
      "ĠpouÅ¾ÃŃ": 1122,
      "Ġon": 1123,
      "enÃŃ": 1124,
      "ale": 1125,
      "Å¡Å¥": 1126,
      "Ġobsa": 1127,
      "rÃ©": 1128,
      "ĠtÅĻeba": 1129,
      "om": 1130,
      "rodnÃŃ": 1131,
      "dnÃ¡": 1132,
      "ovala": 1133,
      "povÄĽ": 1134,
      "Ġoprav": 1135,
      "vajÃŃ": 1136,
      "tÅ¯": 1137,
      "stra": 1138,
      "Ġspolu": 1139,
      "lekt": 1140,
      "ĠzamÄĽ": 1141,
      "pÄĽt": 1142,
      "ĠTak": 1143,
      "am": 1144,
      "Ġnic": 1145,
      "ĠplÃ¡": 1146,
      "Ġuve": 1147,
      "stru": 1148,
      "Ġpokud": 1149,
      "ĠzÃŃ": 1150,
      "ĠproblÃ©": 1151,
      "ĠlÃ¡": 1152,
      "ĠÄįa": 1153,
      "Ġpoli": 1154,
      "Ã¡lnÄĽ": 1155,
      "ĠsprÃ¡": 1156,
      "201": 1157,
      "znÃ¡": 1158,
      "skou": 1159,
      "Ġfir": 1160,
      "ĠpÅĻedstav": 1161,
      "rÃ½": 1162,
      "tech": 1163,
      "ĠBo": 1164,
      "es": 1165,
      "nika": 1166,
      "lika": 1167,
      "prÃ¡": 1168,
      "Å¯Å¾": 1169,
      "ĠpÅĻÃŃpadÄĽ": 1170,
      "ur": 1171,
      "Ġdost": 1172,
      "ata": 1173,
      "Na": 1174,
      "kÃ½": 1175,
      "por": 1176,
      "ĠtÄĽch": 1177,
      "ĠAle": 1178,
      "ĠÅ¾Ã¡d": 1179,
      "ul": 1180,
      "rch": 1181,
      "ĠJak": 1182,
      "Ã¡n": 1183,
      "ĠpÅ¯j": 1184,
      "ĠvÅ¡echny": 1185,
      "Ġ15": 1186,
      "ĠtÃ©to": 1187,
      "vis": 1188,
      "Ġ12": 1189,
      "ciÃ¡lnÃŃ": 1190,
      "sem": 1191,
      "Ġpre": 1192,
      "Ġ/": 1193,
      "Ġja": 1194,
      "ĠsvÄĽt": 1195,
      "ĠVÃ¡": 1196,
      "sty": 1197,
      "kovÃ¡": 1198,
      "ĠprÃ¡ce": 1199,
      "tÃ©": 1200,
      "Ġkont": 1201,
      "ĠÅĻa": 1202,
      "ĠvÃ¡s": 1203,
      "ĠzÃ¡kon": 1204,
      "vlÃ¡": 1205,
      "ĠmÃŃt": 1206,
      "tÅĻe": 1207,
      "byt": 1208,
      "Ġ|": 1209,
      "ĠPokud": 1210,
      "vro": 1211,
      "ĠjÃ¡": 1212,
      "Ġpodob": 1213,
      "py": 1214,
      "van": 1215,
      "ovanÃ©": 1216,
      "ĠZÃ¡": 1217,
      "Ġhodno": 1218,
      "Äįku": 1219,
      "ĠÃļ": 1220,
      "vod": 1221,
      "hrÃ¡": 1222,
      "Ġprogra": 1223,
      "kÃ¡ch": 1224,
      "ge": 1225,
      "dÄĽlÃ¡": 1226,
      "Ġneby": 1227,
      "Ġkr": 1228,
      "Å¡em": 1229,
      "lit": 1230,
      "Ġnedo": 1231,
      "bou": 1232,
      "Ġnes": 1233,
      "Ġobcho": 1234,
      "Ġstan": 1235,
      "ĠznÃ¡": 1236,
      "dlo": 1237,
      "Ġtele": 1238,
      "Ġbyly": 1239,
      "aly": 1240,
      "ĠposlednÃŃ": 1241,
      "ke": 1242,
      "Ġjednot": 1243,
      "pit": 1244,
      "Ġvyt": 1245,
      "he": 1246,
      "000": 1247,
      "Ġvyso": 1248,
      "cenÃŃ": 1249,
      "ĠPÅĻi": 1250,
      "Å¡tÄĽnÃŃ": 1251,
      "Ġchy": 1252,
      "hled": 1253,
      "ÅĻit": 1254,
      "Ġos": 1255,
      "Ġtro": 1256,
      "Ġnemo": 1257,
      "Å¾el": 1258,
      "ĠrÅ¯z": 1259,
      "Ġfil": 1260,
      "Ġkni": 1261,
      "ĠVÃ½": 1262,
      "Ġnepo": 1263,
      "kro": 1264,
      "ĠvÅ¾dy": 1265,
      "Ġnech": 1266,
      "ĠmÄĽsÃŃ": 1267,
      "ĠHo": 1268,
      "Ġveli": 1269,
      "ovali": 1270,
      "Ġtento": 1271,
      "ĠmÃŃst": 1272,
      "Ġneu": 1273,
      "Ġzak": 1274,
      "Ġpar": 1275,
      "ÅĻÃŃzenÃŃ": 1276,
      "hlÃ¡": 1277,
      "zÃ¡": 1278,
      "ca": 1279,
      "ckou": 1280,
      "Ġspe": 1281,
      "ga": 1282,
      "ĠnaÅ¡e": 1283,
      "Ġdokon": 1284,
      "ĠÅ¾Ã¡": 1285,
      "Ãį": 1286,
      "Ġelekt": 1287,
      "ovacÃŃ": 1288,
      "dÄĽl": 1289,
      "Ġnich": 1290,
      "Å¡tÃŃ": 1291,
      "ĠmÄĽl": 1292,
      "Ġnik": 1293,
      "Ġposky": 1294,
      "Ġ20": 1295,
      "inÄĽ": 1296,
      "ĠÅ½": 1297,
      "eni": 1298,
      "ala": 1299,
      "nat": 1300,
      "Ġsil": 1301,
      "Ġjste": 1302,
      "Ġcen": 1303,
      "ÅĻÃ¡": 1304,
      "dat": 1305,
      "ÄįÃ¡": 1306,
      "ĠTe": 1307,
      "Ġ...": 1308,
      "vky": 1309,
      "klÃ¡": 1310,
      "Ġzdra": 1311,
      "ĠmÃŃsto": 1312,
      "zace": 1313,
      "ĠCh": 1314,
      "ĠNÃ¡": 1315,
      "losti": 1316,
      "zku": 1317,
      "ĠÄįÃŃ": 1318,
      "Ġprost": 1319,
      "gu": 1320,
      "dyÅ¾": 1321,
      "Ġ18": 1322,
      "peÄį": 1323,
      "zor": 1324,
      "bec": 1325,
      "ĠÄįin": 1326,
      "Å¡et": 1327,
      "ctvÃŃ": 1328,
      "kl": 1329,
      "ĠpÄĽ": 1330,
      "slÃŃ": 1331,
      ".,": 1332,
      "sl": 1333,
      "Ġdva": 1334,
      "nov": 1335,
      "Ġzku": 1336,
      "jenÃŃ": 1337,
      "Ġkom": 1338,
      "Ġvol": 1339,
      "Ġkterou": 1340,
      "ĠRe": 1341,
      "nÃ½mi": 1342,
      "Ġoko": 1343,
      "Ġoch": 1344,
      "ÄįnÃŃch": 1345,
      "enÃ½ch": 1346,
      "Ġprodu": 1347,
      "Ġinter": 1348,
      "dÄĽt": 1349,
      "znam": 1350,
      "ĠOb": 1351,
      "ĠpoÅ¾": 1352,
      "pat": 1353,
      "Ġen": 1354,
      "ned": 1355,
      "Ġrodin": 1356,
      "Ġlze": 1357,
      "cela": 1358,
      "Ġprovo": 1359,
      "Ġskup": 1360,
      "ĠLi": 1361,
      "ÅĻÃŃklad": 1362,
      "cit": 1363,
      "tor": 1364,
      "Ã©mu": 1365,
      "dl": 1366,
      "chop": 1367,
      "ĠvlastnÃŃ": 1368,
      "10": 1369,
      "ber": 1370,
      "nÅ¯": 1371,
      "ĠcoÅ¾": 1372,
      "Ġkomp": 1373,
      "ww": 1374,
      "ily": 1375,
      "Ġobla": 1376,
      "ĠsluÅ¾": 1377,
      "tky": 1378,
      "ĠnovÃ©": 1379,
      "ine": 1380,
      "lan": 1381,
      "ĠÄįlov": 1382,
      "nÃ¡nÃŃ": 1383,
      "rt": 1384,
      "lad": 1385,
      "Ġote": 1386,
      "Je": 1387,
      "ĠtakÅ¾e": 1388,
      "Äįer": 1389,
      "dne": 1390,
      "Ġhle": 1391,
      "ĠsystÃ©m": 1392,
      "nÃŃk": 1393,
      "ĠvÃ½rob": 1394,
      "ĠmÃ¡m": 1395,
      "Å¾itÃŃ": 1396,
      "skÃ©m": 1397,
      "Ġdis": 1398,
      "Ġbar": 1399,
      "Ġzahra": 1400,
      "Ġzat": 1401,
      "ĠzajÃŃ": 1402,
      "vatel": 1403,
      ",âĢľ": 1404,
      "ĠdobÄĽ": 1405,
      "ĠurÄįit": 1406,
      "ĠpÅĻede": 1407,
      "ĠJi": 1408,
      "Ġmohou": 1409,
      "Pro": 1410,
      "nem": 1411,
      "vÅ¯": 1412,
      "ĠnÄĽkolik": 1413,
      "ovÃŃ": 1414,
      "race": 1415,
      "dÄĽla": 1416,
      "inan": 1417,
      "Å¡Å¡ÃŃ": 1418,
      "Ġmateri": 1419,
      "ĠpodmÃŃ": 1420,
      "man": 1421,
      "plnÄĽ": 1422,
      "Ġode": 1423,
      "mou": 1424,
      "dnÃŃch": 1425,
      "ÅĪuje": 1426,
      "Å¡t": 1427,
      "inou": 1428,
      "ÅĻejmÄĽ": 1429,
      "ĠtÅĻÃŃ": 1430,
      "ĠnÄĽkter": 1431,
      "Ġakti": 1432,
      "pÃ¡": 1433,
      "Ġdu": 1434,
      "ĠÂ": 1435,
      "Ġstar": 1436,
      "ĠdvÄĽ": 1437,
      "Ãģ": 1438,
      "hl": 1439,
      "Ġzaji": 1440,
      "ĠvÃ½kon": 1441,
      "voj": 1442,
      "fon": 1443,
      "ĠÄįÃ¡st": 1444,
      "hou": 1445,
      "Ġnebu": 1446,
      "Ġsob": 1447,
      "enÄĽ": 1448,
      "ace": 1449,
      "ĠchtÄĽ": 1450,
      "Ġsebe": 1451,
      "ĠAn": 1452,
      "ĠpÅĻipo": 1453,
      "Ġpi": 1454,
      "dnÃŃm": 1455,
      "dek": 1456,
      "ĠÃºda": 1457,
      "ĠVa": 1458,
      "line": 1459,
      "roz": 1460,
      "iti": 1461,
      "Ġkomu": 1462,
      "Ġrov": 1463,
      "vajÃŃcÃŃ": 1464,
      "ĠvÄĽtÅ¡": 1465,
      "gen": 1466,
      "koliv": 1467,
      "ĠOd": 1468,
      "Åł": 1469,
      "Ġpoji": 1470,
      "ĠdobÅĻe": 1471,
      "ĠÅ¡e": 1472,
      "ĠlÃŃ": 1473,
      "ĠÄįlÃ¡": 1474,
      "rnÄĽ": 1475,
      "Ġtohoto": 1476,
      "denÃŃ": 1477,
      "19": 1478,
      "Ġpostup": 1479,
      "publi": 1480,
      "ĠprÃ¡vÄĽ": 1481,
      "Ne": 1482,
      "Ġfoto": 1483,
      "emo": 1484,
      "ĠdÃŃky": 1485,
      "ĠpÅĻiprav": 1486,
      "Ġopravdu": 1487,
      "Ġsmlou": 1488,
      "ĠnabÃŃd": 1489,
      "Ġostat": 1490,
      "Ġdvou": 1491,
      "Ġhu": 1492,
      "bÃ¡": 1493,
      "chÃ¡ze": 1494,
      "Ġda": 1495,
      "ĠdÄĽti": 1496,
      "plat": 1497,
      "res": 1498,
      "Ġjeden": 1499,
      "Ġsvo": 1500,
      "Å¡it": 1501,
      "Ġplo": 1502,
      "ĠmoÅ¾nÃ©": 1503,
      "kÃ¡nÃŃ": 1504,
      "vnÃŃm": 1505,
      "Ġmode": 1506,
      "Ġr": 1507,
      "Ġkla": 1508,
      "Ġ14": 1509,
      "Ġ.": 1510,
      "ovÃ½m": 1511,
      "ĠCo": 1512,
      "lÃ½": 1513,
      "cem": 1514,
      "ĠsouÄįas": 1515,
      "dÄĽji": 1516,
      "ĠlidÃŃ": 1517,
      "ĠveÅĻej": 1518,
      "ĠÄįt": 1519,
      "Ġjim": 1520,
      "Ġvhod": 1521,
      "ĠhrÃ¡": 1522,
      "plo": 1523,
      "Ġ%": 1524,
      "âĢŀ": 1525,
      "hlÃŃ": 1526,
      "dej": 1527,
      "Ġtechni": 1528,
      "rove": 1529,
      "mÄĽÅĻ": 1530,
      "ĠstÃ¡le": 1531,
      "Ġkole": 1532,
      "ĠpotÅĻeb": 1533,
      "met": 1534,
      "ment": 1535,
      "ĠNej": 1536,
      "ĠspoleÄįnosti": 1537,
      "Ġsu": 1538,
      "Ġnevy": 1539,
      "rac": 1540,
      "ĠmÃ©": 1541,
      "Ġrok": 1542,
      "Ġvzni": 1543,
      "op": 1544,
      "lost": 1545,
      "Ġ16": 1546,
      "Ġad": 1547,
      "Ġfak": 1548,
      "Ġpu": 1549,
      "nictvÃŃ": 1550,
      "ĠtÅĻi": 1551,
      "lÅ¯": 1552,
      "ĠBy": 1553,
      "Ġorgani": 1554,
      "Ġx": 1555,
      "Ġkdo": 1556,
      "Ġzase": 1557,
      "ĠzvlÃ¡": 1558,
      "dech": 1559,
      "ĠmÄĽla": 1560,
      "Ġsle": 1561,
      "Ġslov": 1562,
      "ĠkaÅ¾dÃ½": 1563,
      "Ġ11": 1564,
      "ĠLe": 1565,
      "ĠcelÃ©": 1566,
      "tiÅ¾": 1567,
      "bra": 1568,
      "Ġok": 1569,
      "Ġat": 1570,
      "xi": 1571,
      "Ġpoko": 1572,
      "ĠuÅ¾i": 1573,
      "hov": 1574,
      "vÅ¡ÃŃm": 1575,
      "lepÅ¡ÃŃ": 1576,
      "mÃ©na": 1577,
      "Ġbyli": 1578,
      "ĠpÃ¡r": 1579,
      "ĠkrÃ¡s": 1580,
      "ĠnaÅ¡i": 1581,
      "ĠzamÄĽst": 1582,
      "Ġrepubli": 1583,
      "Ġspor": 1584,
      "Ġci": 1585,
      "ĠTen": 1586,
      "Ġsvou": 1587,
      "ĠtotiÅ¾": 1588,
      "Å¾nÄĽ": 1589,
      "liÅ¡": 1590,
      "ĠvyuÅ¾ÃŃ": 1591,
      "ĠmoÅ¾nost": 1592,
      "ner": 1593,
      "ĠpodÃŃ": 1594,
      "mat": 1595,
      "Ġcent": 1596,
      "Ġmuse": 1597,
      "Ġap": 1598,
      "ĠvlÃ¡": 1599,
      "Ġkan": 1600,
      "Ġdnes": 1601,
      "Ġposkyt": 1602,
      "ĠvÃ½ro": 1603,
      "vÃŃc": 1604,
      "ĠÄįÃ¡sti": 1605,
      "Ġfinan": 1606,
      "50": 1607,
      "Ġvr": 1608,
      "!!": 1609,
      "Ġlid": 1610,
      "huje": 1611,
      "mav": 1612,
      "kli": 1613,
      "\\\\": 1614,
      "Ġplat": 1615,
      "ĠpoÅĻÃ¡d": 1616,
      "zo": 1617,
      "Ġauto": 1618,
      "Ġdosta": 1619,
      "krÃ¡t": 1620,
      "Ġnut": 1621,
      "Ġ13": 1622,
      "Ġkro": 1623,
      "ĠrÃ¡m": 1624,
      "Ġener": 1625,
      "ĠnapÅĻÃŃklad": 1626,
      "ĠumÃŃ": 1627,
      "Ġdr": 1628,
      "ĠSe": 1629,
      "ĠJa": 1630,
      "Ġchce": 1631,
      "ÄįetnÄĽ": 1632,
      "Ġuveden": 1633,
      "Ġsitu": 1634,
      "Ġ30": 1635,
      "ĠEvro": 1636,
      "ĠvÅ¯bec": 1637,
      "Ġpravi": 1638,
      "deme": 1639,
      "moÅ¾": 1640,
      "ĠnÃ¡v": 1641,
      "ĠBu": 1642,
      "ĠotÃ¡": 1643,
      "enou": 1644,
      "ps": 1645,
      "bnÃŃ": 1646,
      "Ġpostav": 1647,
      "Å¡el": 1648,
      "istori": 1649,
      "Ġsla": 1650,
      "ĠprostÅĻed": 1651,
      "jÃŃt": 1652,
      "boÅ¾ÃŃ": 1653,
      "Ġmas": 1654,
      "Ġcm": 1655,
      "Ġtaky": 1656,
      "Ġsch": 1657,
      "lez": 1658,
      "ĠPÅĻÃŃ": 1659,
      "Ã¬": 1660,
      "Ġvla": 1661,
      "sil": 1662,
      "Ġal": 1663,
      "Ġpovin": 1664,
      "ĠdomÃ¡": 1665,
      "ĠzaÅĻÃŃzenÃŃ": 1666,
      "ĠjinÃ©": 1667,
      "Ã¡lu": 1668,
      "Ġoblasti": 1669,
      "ĠÅĺ": 1670,
      "ĠpracovnÃŃ": 1671,
      "roveÅĪ": 1672,
      "ĠsvÃ©ho": 1673,
      "Ġzab": 1674,
      "Ġsr": 1675,
      "ĠÅ¾ivot": 1676,
      "Äįil": 1677,
      "Ġnejen": 1678,
      "ĠstejnÄĽ": 1679,
      "ore": 1680,
      "Ġschop": 1681,
      "zv": 1682,
      "teli": 1683,
      "Ġinformace": 1684,
      "Ġkar": 1685,
      "ĠhlavnÃŃ": 1686,
      "ĠpÅĻedevÅ¡ÃŃm": 1687,
      "Ġman": 1688,
      "Ġtrochu": 1689,
      "nitÅĻ": 1690,
      "ĠPraha": 1691,
      "ĠtÄĽchto": 1692,
      "Å¡ko": 1693,
      "20": 1694,
      "....": 1695,
      "lka": 1696,
      "ĠÄįlen": 1697,
      "Ġodbor": 1698,
      "Ġ17": 1699,
      "hat": 1700,
      "Ġmimo": 1701,
      "Å¡nÃŃ": 1702,
      "nku": 1703,
      "ĠnÃ¡ro": 1704,
      "teg": 1705,
      "teÄįnÄĽ": 1706,
      "Ġkonce": 1707,
      "Ġzda": 1708,
      "ĠvÄĽtÅ¡ÃŃ": 1709,
      "Ġsem": 1710,
      "ĠdÃ¡l": 1711,
      "ĠmÄĽsta": 1712,
      "ito": 1713,
      "ĠÄĮeskÃ©": 1714,
      "ĠumÄĽ": 1715,
      "Ġkolem": 1716,
      "200": 1717,
      "ĠÄįty": 1718,
      "ĠsoutÄĽ": 1719,
      "ĠopÄĽt": 1720,
      "alu": 1721,
      "vodu": 1722,
      "drÅ¾": 1723,
      "letÃŃ": 1724,
      "Ġvzta": 1725,
      "go": 1726,
      "sÃŃm": 1727,
      "her": 1728,
      "ĠteÄı": 1729,
      "ĠsnÃŃ": 1730,
      "ĠspÃŃ": 1731,
      "chno": 1732,
      "kci": 1733,
      "Ġjednodu": 1734,
      "Å¡ka": 1735,
      "Ġdobu": 1736,
      "tickÃ©": 1737,
      "jÅ¯": 1738,
      "Ġdle": 1739,
      "ĠdalÅ¡ÃŃch": 1740,
      "penÃŃ": 1741,
      "anou": 1742,
      "ĠpÅĻÃŃmo": 1743,
      "ĠpoÄįÃŃ": 1744,
      "ĠSa": 1745,
      "ÄįnÃŃho": 1746,
      "Ġtomto": 1747,
      "Ġklu": 1748,
      "Ġ100": 1749,
      "Ġneza": 1750,
      "Ġuni": 1751,
      "Ġobdob": 1752,
      "ten": 1753,
      "ĠsvÅ¯j": 1754,
      "hro": 1755,
      "vnÃ©": 1756,
      "lin": 1757,
      "ĠMÄĽ": 1758,
      "ĠzÃ¡pa": 1759,
      "lky": 1760,
      "zÅĻejmÄĽ": 1761,
      "net": 1762,
      "ĠÄĮR": 1763,
      "ĠnÃ¡sle": 1764,
      "stÃ©": 1765,
      "Ġter": 1766,
      "grafi": 1767,
      "ĠNi": 1768,
      "bav": 1769,
      "Å¡eno": 1770,
      "Ġjednotliv": 1771,
      "Ġbi": 1772,
      "Ġsnad": 1773,
      "rem": 1774,
      "Ġprove": 1775,
      "tace": 1776,
      "ĠurÄį": 1777,
      "Ġmili": 1778,
      "pozi": 1779,
      "Ġvytvo": 1780,
      "kat": 1781,
      "bÄĽh": 1782,
      "Ġaut": 1783,
      "ĠvÄįetnÄĽ": 1784,
      "kÅ¯m": 1785,
      "ĠvzdÄĽlÃ¡": 1786,
      "Ġotev": 1787,
      "nici": 1788,
      "ĠnabÃŃzÃŃ": 1789,
      "ĠpÅ¯sob": 1790,
      "Å¡ky": 1791,
      "ĠmÄĽli": 1792,
      "pÅĻe": 1793,
      "Ġuz": 1794,
      "ĠprÃ¡ci": 1795,
      "ovÃ©m": 1796,
      "Ġspoj": 1797,
      "Ġstudi": 1798,
      "zky": 1799,
      "meri": 1800,
      "Å¡lo": 1801,
      "dÃ¡vÃ¡": 1802,
      "Ġzji": 1803,
      "ÄįÅ¯": 1804,
      "ĠhodnÄĽ": 1805,
      "vodnÃŃ": 1806,
      "fer": 1807,
      "ĠrÃ¡mci": 1808,
      "ĠRoz": 1809,
      "klady": 1810,
      "dÃ¡le": 1811,
      "jmÃ©na": 1812,
      "ĠKdyÅ¾": 1813,
      "Ġjde": 1814,
      "Ġminu": 1815,
      "ĠnemÃ¡": 1816,
      "chom": 1817,
      "ovatel": 1818,
      "ÄįnÃ©": 1819,
      "Ġhor": 1820,
      "tka": 1821,
      "Ġcho": 1822,
      "ĠÄįasto": 1823,
      "Ġregi": 1824,
      "Ġpohy": 1825,
      "Ġhistori": 1826,
      "ĠvÃ½sled": 1827,
      "ynÃŃ": 1828,
      "Ġpolo": 1829,
      "cÃŃm": 1830,
      "til": 1831,
      "Ġdoporu": 1832,
      "ĠpoÄį": 1833,
      "kam": 1834,
      "nan": 1835,
      "Ġtla": 1836,
      "ĠnejlepÅ¡ÃŃ": 1837,
      "log": 1838,
      "ĠTy": 1839,
      "sÅ¯": 1840,
      "ĠprostÅĻedÃŃ": 1841,
      "Å¡ichni": 1842,
      "Å¾stvÃŃ": 1843,
      "Ġjestli": 1844,
      "Ġdom": 1845,
      "Ġlep": 1846,
      "ĠbÄĽhem": 1847,
      "ĠVÃ¡m": 1848,
      "ĠzaÄįÃŃ": 1849,
      "Ġzprac": 1850,
      "dil": 1851,
      "kono": 1852,
      "dÄĽli": 1853,
      "ĠzboÅ¾ÃŃ": 1854,
      "ĠLu": 1855,
      "ĠzÅ¯": 1856,
      "sek": 1857,
      "Ġtelefon": 1858,
      "Ġdru": 1859,
      "ĠÃºspÄĽ": 1860,
      "skÃ½m": 1861,
      "nil": 1862,
      "ili": 1863,
      "ĠodpovÄĽ": 1864,
      "hledem": 1865,
      "dar": 1866,
      "ĠpÅĻÃŃjem": 1867,
      "ĠdÅ¯leÅ¾it": 1868,
      "Ġ+": 1869,
      "11": 1870,
      "ĠpatÅĻÃŃ": 1871,
      "ĠmÅ¯Å¾": 1872,
      "Ġkup": 1873,
      "ĠdÄĽt": 1874,
      "tnÃŃho": 1875,
      "Äįan": 1876,
      "30": 1877,
      "ĠchvÃŃ": 1878,
      "Ġautom": 1879,
      "Ġsty": 1880,
      "ckÃ½m": 1881,
      "Ġstro": 1882,
      "Ġtex": 1883,
      "ĠzÃ¡kaz": 1884,
      "ĠBa": 1885,
      "Ġvys": 1886,
      "ĠBr": 1887,
      "stit": 1888,
      "Ã¡tku": 1889,
      "Ġletech": 1890,
      "oni": 1891,
      "ÃŃc": 1892,
      "zuje": 1893,
      "ok": 1894,
      "Ġban": 1895,
      "ĠRa": 1896,
      "Ġleto": 1897,
      "Ġreali": 1898,
      "ilo": 1899,
      "Ġochra": 1900,
      "poÄį": 1901,
      "telÃ©": 1902,
      "ĠbÃŃ": 1903,
      "zkou": 1904,
      "Ã¸": 1905,
      "Ġven": 1906,
      "spoÅĪ": 1907,
      "koli": 1908,
      "ĠsmÄĽ": 1909,
      "pt": 1910,
      "nka": 1911,
      "ĠproblÃ©m": 1912,
      "Ġper": 1913,
      "ĠÅ¡i": 1914,
      "Ġkraj": 1915,
      "ĠobÄĽ": 1916,
      "Ġzdravo": 1917,
      "ence": 1918,
      "ĠTa": 1919,
      "Ġmnoho": 1920,
      "ĠvÃŃc": 1921,
      "ĠPa": 1922,
      "hr": 1923,
      "12": 1924,
      "tt": 1925,
      "onu": 1926,
      "ovÃ¡n": 1927,
      "fo": 1928,
      "ĠpoÅ¾ad": 1929,
      "kovÃ½": 1930,
      "Ġvide": 1931,
      "Ġtyto": 1932,
      "Äįem": 1933,
      "ĠsvÃ½ch": 1934,
      "ĠSpo": 1935,
      "dce": 1936,
      "ĠzemÄĽ": 1937,
      "ĠumoÅ¾": 1938,
      "Ġmen": 1939,
      "Ã¡nÃŃ": 1940,
      "ĠskvÄĽ": 1941,
      "ĠnaÅ¡ÃŃ": 1942,
      "Å¾Å¡ÃŃ": 1943,
      "Ġkam": 1944,
      "zer": 1945,
      "Ġtis": 1946,
      "kovi": 1947,
      "lek": 1948,
      "ujeme": 1949,
      "Ġelektro": 1950,
      "nes": 1951,
      "ĠnavÃŃc": 1952,
      "ĠhlavnÄĽ": 1953,
      "ĠblÃŃ": 1954,
      "Ġspeci": 1955,
      "ĠnemÄĽ": 1956,
      "stro": 1957,
      "ĠprostÄĽ": 1958,
      "vil": 1959,
      "ĠnÄĽm": 1960,
      "ĠÃºÄįe": 1961,
      "ĠvÅ¡echno": 1962,
      ".âĢľ": 1963,
      "EN": 1964,
      "Ġpan": 1965,
      "Ġkontro": 1966,
      "ĠÅ¡koly": 1967,
      "gie": 1968,
      "ĠdokÃ¡": 1969,
      "znÃŃ": 1970,
      "povÃŃ": 1971,
      "Ġmm": 1972,
      "Ġnastav": 1973,
      "ĠpomocÃŃ": 1974,
      "zemÃŃ": 1975,
      "tnÃŃch": 1976,
      "ĠbezpeÄį": 1977,
      "Ġoby": 1978,
      "dli": 1979,
      "ovanÃ½": 1980,
      "ĠdÃŃtÄĽ": 1981,
      "ĠzejmÃ©na": 1982,
      "Ġhy": 1983,
      "ĠzatÃŃm": 1984,
      "Ġvybav": 1985,
      "hlÃ©": 1986,
      "dra": 1987,
      "Ġnebude": 1988,
      "ita": 1989,
      "ju": 1990,
      "dÃ½": 1991,
      "Ġver": 1992,
      "Ġjinak": 1993,
      "Å¾nÃŃ": 1994,
      "ĠsluÅ¾by": 1995,
      "Ġrychle": 1996,
      "Ġvody": 1997,
      "Ġkul": 1998,
      "ĠpÅĻÃŃstup": 1999,
      "Ġproce": 2000,
      "chnologi": 2001,
      "der": 2002,
      "dÄĽnÃŃ": 2003,
      "ity": 2004,
      "Ġdopl": 2005,
      "lÃŃb": 2006,
      "ĠsvÃ½m": 2007,
      "rek": 2008,
      "Ġtady": 2009,
      "Ġdra": 2010,
      "ĠÃºÄįin": 2011,
      "ST": 2012,
      "vÄĽd": 2013,
      "Ġpoliti": 2014,
      "ĠLa": 2015,
      "ĠskuteÄį": 2016,
      "obil": 2017,
      "dÃŃl": 2018,
      "ĠzÃ¡kona": 2019,
      "Ġ50": 2020,
      "Ġ25": 2021,
      "Ġdovo": 2022,
      "Ġjas": 2023,
      "ĠmÃ¡te": 2024,
      "stech": 2025,
      "Ġtvo": 2026,
      "ĠstÃ¡t": 2027,
      "Ġbr": 2028,
      "vÄĽtÅ¡ÃŃ": 2029,
      "Ġdoprav": 2030,
      "ĠzÃŃsk": 2031,
      "mysl": 2032,
      "kraÄį": 2033,
      "ĠlidÃ©": 2034,
      "Ġnav": 2035,
      "ĠzkuÅ¡eno": 2036,
      "stan": 2037,
      "Ġneb": 2038,
      "vÃŃm": 2039,
      "Ġnikdy": 2040,
      "prac": 2041,
      "Ġpora": 2042,
      "//": 2043,
      "ĠmateriÃ¡l": 2044,
      "dal": 2045,
      "ĠJo": 2046,
      "Ġjej": 2047,
      "ĠvaÅ¡e": 2048,
      "ĠÃºplnÄĽ": 2049,
      "ovy": 2050,
      "ĠnÃ¡vÅ¡tÄĽ": 2051,
      "Ġser": 2052,
      "ĠdÅĻe": 2053,
      "hÅ¯": 2054,
      "Ġmet": 2055,
      "RO": 2056,
      "Ġzapo": 2057,
      "ĠNÄĽ": 2058,
      "Ġonline": 2059,
      "ĠzvÃ½": 2060,
      "ĠobdobÃŃ": 2061,
      "ĠvelkÃ©": 2062,
      "ĠDe": 2063,
      "ĠmÃ¡me": 2064,
      "ĠlepÅ¡ÃŃ": 2065,
      "hnout": 2066,
      "ĠKon": 2067,
      "Ġzkou": 2068,
      "Ġzcela": 2069,
      "jÃŃcÃŃch": 2070,
      "nce": 2071,
      "ĠcelÃ½": 2072,
      "ĠdÃ¡le": 2073,
      "Å¡la": 2074,
      "ĠnÄĽkdo": 2075,
      "ĠmÃŃstÄĽ": 2076,
      "Ġpozor": 2077,
      "Ġsice": 2078,
      "menÃ¡": 2079,
      "Ġsex": 2080,
      "vÃ¡m": 2081,
      "ĠvÄĽci": 2082,
      "Ġpos": 2083,
      "lej": 2084,
      "tou": 2085,
      "lace": 2086,
      "Ġbud": 2087,
      "Ã©n": 2088,
      "usÃŃ": 2089,
      "ĠzÃ¡kladnÃŃ": 2090,
      "ĠtÄĽÅ¾": 2091,
      "kÃ¡m": 2092,
      "Ġhned": 2093,
      "rÃ¡l": 2094,
      "opak": 2095,
      "ĠX": 2096,
      "sluÅ¡": 2097,
      "Ġteplo": 2098,
      "padÃ¡": 2099,
      "Å¾eb": 2100,
      "per": 2101,
      "kle": 2102,
      "Ġnejsou": 2103,
      "Ġsport": 2104,
      "Ġstuden": 2105,
      "Ġori": 2106,
      "Ġslou": 2107,
      "Ġtvr": 2108,
      "Ġple": 2109,
      "ÅĻskÃ©": 2110,
      "ĠvÃ½raz": 2111,
      "leÅ¾ito": 2112,
      "ĠvÃ½bÄĽ": 2113,
      "vor": 2114,
      "ĠProto": 2115,
      "vÅ¯li": 2116,
      "Ġab": 2117,
      "Å¾en": 2118,
      "Ġbudete": 2119,
      "Ġjednou": 2120,
      "ĠmnoÅ¾stvÃŃ": 2121,
      "Ġ[": 2122,
      "Ã©r": 2123,
      "fika": 2124,
      "lenÃ©": 2125,
      "tegori": 2126,
      "Ġsmlouvy": 2127,
      "telnÃ©": 2128,
      "Ġher": 2129,
      "Ġmat": 2130,
      "ĠzajÃŃmav": 2131,
      "ĠsociÃ¡lnÃŃ": 2132,
      "arma": 2133,
      "stva": 2134,
      "Ġprakti": 2135,
      "anÃ¡": 2136,
      "ĠdÃ©": 2137,
      "Ġtechnologi": 2138,
      "cie": 2139,
      "RA": 2140,
      "ĠÄįlovÄĽk": 2141,
      "Ġdat": 2142,
      "ĠÅĻÃŃzenÃŃ": 2143,
      "anÃ½": 2144,
      "ĠpÃŃs": 2145,
      "ĠmoÅ¾nÃ¡": 2146,
      "pon": 2147,
      "jet": 2148,
      "ĠdruhÃ©": 2149,
      "slov": 2150,
      "kty": 2151,
      "ÄįnÃŃm": 2152,
      "cent": 2153,
      "Ġdokonce": 2154,
      "ĠprovÃ¡": 2155,
      "ot": 2156,
      "Ġdoku": 2157,
      "ĠzprÃ¡": 2158,
      "pÅ¯j": 2159,
      "ĠÅĻeÅ¡enÃŃ": 2160,
      "ard": 2161,
      "ĠÄįtvr": 2162,
      "Ġpova": 2163,
      "tÃŃm": 2164,
      "dnou": 2165,
      "Å¡ek": 2166,
      "gy": 2167,
      "Ġ24": 2168,
      "ĠVel": 2169,
      "slo": 2170,
      "Ġky": 2171,
      "Ġtuto": 2172,
      "ĠPet": 2173,
      "ĠUS": 2174,
      "ĠsouÄįÃ¡": 2175,
      "jak": 2176,
      "Ã½vÃ¡": 2177,
      "Ġgra": 2178,
      "pel": 2179,
      "Ġslo": 2180,
      "ĠkrÃ¡t": 2181,
      "mot": 2182,
      "ĠsobÄĽ": 2183,
      "Ġzi": 2184,
      "zek": 2185,
      "uk": 2186,
      "stal": 2187,
      "ek": 2188,
      "ĠVi": 2189,
      "rak": 2190,
      "Ġkone": 2191,
      "dajÃŃ": 2192,
      "Ġaplika": 2193,
      "Ġvstup": 2194,
      "mati": 2195,
      "ĠproÄį": 2196,
      "Ġdlouho": 2197,
      "ĠPr": 2198,
      "hli": 2199,
      "rÃ¡nÃŃ": 2200,
      "slÃŃm": 2201,
      "ed": 2202,
      "vka": 2203,
      "Ġprogram": 2204,
      "ovÃ¡na": 2205,
      "ĠDi": 2206,
      "ĠÃºÄįast": 2207,
      "kovnÃŃ": 2208,
      "jen": 2209,
      "Ġstaveb": 2210,
      "ĠVÃŃ": 2211,
      "ĠPod": 2212,
      "ovanÃ½ch": 2213,
      "Ġus": 2214,
      "Ġprostor": 2215,
      "Ġspou": 2216,
      "Ġprodej": 2217,
      "ÅĻen": 2218,
      "Do": 2219,
      "Ġaktu": 2220,
      "Ġkoru": 2221,
      "Ġjazy": 2222,
      "ĠSou": 2223,
      "gli": 2224,
      "ĠFran": 2225,
      "Ġrodi": 2226,
      "ĠSb": 2227,
      "vek": 2228,
      "Ġklasi": 2229,
      "Ġprovoz": 2230,
      "chod": 2231,
      "ĠÅ¾ivota": 2232,
      "OV": 2233,
      "ron": 2234,
      "tuje": 2235,
      "Ġtou": 2236,
      "klo": 2237,
      "hi": 2238,
      "ag": 2239,
      "ĠDÄĽ": 2240,
      "Ġuzav": 2241,
      "Ġleh": 2242,
      "Ġpom": 2243,
      "Ġjedna": 2244,
      "Ġnor": 2245,
      "ĠvÅ¡ichni": 2246,
      "ĠsamozÅĻejmÄĽ": 2247,
      "ĠukÃ¡": 2248,
      "Ġkultu": 2249,
      "dost": 2250,
      "ĠvÃ½znam": 2251,
      "Å¾nÃ©": 2252,
      ",\"": 2253,
      "pÅĻÃŃ": 2254,
      "pÅĻ": 2255,
      "Ġvelk": 2256,
      "Ġkm": 2257,
      "jdete": 2258,
      "ĠMar": 2259,
      "ĠAl": 2260,
      "uji": 2261,
      "ĠsystÃ©mu": 2262,
      "ĠnÄĽkolika": 2263,
      "ĠNo": 2264,
      "ĠRu": 2265,
      "Ġobec": 2266,
      "yzi": 2267,
      "ĠlÃ©ka": 2268,
      "ĠMÃ¡": 2269,
      "lÃ¡nÃŃ": 2270,
      "Ġset": 2271,
      "ĠjakÃ©": 2272,
      "Ġtradi": 2273,
      "ĠnapÅĻ": 2274,
      "Ġpor": 2275,
      "ĠpÅĻÃŃprav": 2276,
      "tnÄĽ": 2277,
      "Ġprofe": 2278,
      "Ġjedin": 2279,
      "pre": 2280,
      "pou": 2281,
      "pod": 2282,
      "novu": 2283,
      "ÃŃky": 2284,
      "Ġnapro": 2285,
      "rie": 2286,
      "ĠnÃ¡vr": 2287,
      "Ġtre": 2288,
      "ĠzÃ¡vÄĽ": 2289,
      "zni": 2290,
      "Å¡k": 2291,
      "âĢľ.": 2292,
      "ĠÅ¡kol": 2293,
      "Tak": 2294,
      "Ġozna": 2295,
      "Ġodst": 2296,
      "kovÃ½ch": 2297,
      "Ġchu": 2298,
      "ĠostatnÃŃ": 2299,
      "duje": 2300,
      "ktÅ¯": 2301,
      "Ġtoto": 2302,
      "Ġkontak": 2303,
      "Ġled": 2304,
      "ĠtÃ©mÄĽÅĻ": 2305,
      "ĠvÃ½ch": 2306,
      "Ġnakon": 2307,
      "ĠnovÃ½": 2308,
      "Ġkur": 2309,
      "ĠobrÃ¡": 2310,
      "ĠpÅ¯jÄįka": 2311,
      "stÅ¯": 2312,
      "Ġmlu": 2313,
      "ĠchvÃŃli": 2314,
      "nd": 2315,
      "Za": 2316,
      "Åĺ": 2317,
      "ĠkvÄĽt": 2318,
      "ĠkvÅ¯li": 2319,
      "Ġinve": 2320,
      "ĠnynÃŃ": 2321,
      "ktor": 2322,
      "onÃ¡lnÃŃ": 2323,
      "Ġri": 2324,
      "Ġzas": 2325,
      "Ġakce": 2326,
      "Ġsko": 2327,
      "kup": 2328,
      "ĠsluÅ¾eb": 2329,
      "cti": 2330,
      "Ġnakonec": 2331,
      "alÃŃ": 2332,
      "slav": 2333,
      "Ġpodni": 2334,
      "ĠVÄĽ": 2335,
      "ĠsvÄĽta": 2336,
      "Ġdoby": 2337,
      "ĠurÄįitÄĽ": 2338,
      "hÃ©": 2339,
      "Ġveliko": 2340,
      "huÅ¾el": 2341,
      "sud": 2342,
      "Ġmax": 2343,
      "lze": 2344,
      "hledu": 2345,
      "ĠsÃ¡m": 2346,
      "ovÃ¡nÃŃm": 2347,
      "://": 2348,
      "krÃ©": 2349,
      "luje": 2350,
      "ĠuÅ¾ÃŃ": 2351,
      "ĠpokraÄį": 2352,
      "ÅĻil": 2353,
      "ĠPraze": 2354,
      "Ġome": 2355,
      "ĠzÃ¡sa": 2356,
      "ÅĻÃŃve": 2357,
      "strov": 2358,
      "ĠrÅ¯znÃ½ch": 2359,
      ".\"": 2360,
      "Ġfung": 2361,
      "ft": 2362,
      "Ġkategori": 2363,
      "Å¡ti": 2364,
      "Å¡le": 2365,
      "ĠstÄĽ": 2366,
      "Ġ=": 2367,
      "zaci": 2368,
      "ĠpÃ©": 2369,
      "Ġweb": 2370,
      "Ġ199": 2371,
      "ĠzvÃŃ": 2372,
      "Ġot": 2373,
      "ĠpÅĻek": 2374,
      "vala": 2375,
      "prava": 2376,
      "rev": 2377,
      "rum": 2378,
      "Äįin": 2379,
      "ĠmuÅ¾": 2380,
      "ĠÃºÅĻa": 2381,
      "ĠvÅ¡em": 2382,
      "ĠzÃ¡kaznÃŃ": 2383,
      "ĠVÃ¡s": 2384,
      "Ġope": 2385,
      "PÅĻe": 2386,
      "dÃŃm": 2387,
      "nak": 2388,
      "Ġminut": 2389,
      "Ġadre": 2390,
      "Ġ:)": 2391,
      "ĠÅ¡pat": 2392,
      "ĠspoleÄįnost": 2393,
      "ĠvÃ¡l": 2394,
      "Å¾a": 2395,
      "ĠPÅĻed": 2396,
      "spe": 2397,
      "Ġbe": 2398,
      "Ġpovo": 2399,
      "Ã¡lnÃŃm": 2400,
      "ER": 2401,
      "jmu": 2402,
      "ĠokolÃŃ": 2403,
      "ĠzÃ¡roveÅĪ": 2404,
      "ĠvlastnÄĽ": 2405,
      "ovÃ¡ny": 2406,
      "ĠnejvÄĽtÅ¡ÃŃ": 2407,
      "ĠspotÅĻe": 2408,
      "Ġexist": 2409,
      "Ġpravidel": 2410,
      "mÃ©nÄĽ": 2411,
      "ĠovÅ¡em": 2412,
      "ren": 2413,
      "Ġpart": 2414,
      "Ã¨": 2415,
      "15": 2416,
      "ĠJÃ¡": 2417,
      "rna": 2418,
      "ĠpoÄįÃŃta": 2419,
      "ĠudÄĽ": 2420,
      "nic": 2421,
      "sit": 2422,
      "kal": 2423,
      "Ġzvy": 2424,
      "gin": 2425,
      "To": 2426,
      "ĠvrÃ¡": 2427,
      "Ġopat": 2428,
      "pozici": 2429,
      "ĠsprÃ¡v": 2430,
      "ĠÅ¾en": 2431,
      "Å¡ku": 2432,
      "ĠvyÅ¡Å¡ÃŃ": 2433,
      "18": 2434,
      "Ġzdarma": 2435,
      "Ġ>": 2436,
      "ĠtakovÃ©": 2437,
      "ĠroÄįnÃŃ": 2438,
      "telem": 2439,
      "Pokud": 2440,
      "sig": 2441,
      "ĠVÅ¡e": 2442,
      "nÃ©mu": 2443,
      "ĠÄįerv": 2444,
      "nete": 2445,
      "Ġneo": 2446,
      "ĠKar": 2447,
      "ĠTento": 2448,
      "ĠpÅ¯l": 2449,
      "ĠzÃ¡kladÄĽ": 2450,
      "vnÃŃch": 2451,
      "ovanÃ¡": 2452,
      "Ġmohl": 2453,
      "rchi": 2454,
      "tÄĽz": 2455,
      "Ġ2018": 2456,
      "bal": 2457,
      "ĠpÅĻÃŃsluÅ¡": 2458,
      "ĠVo": 2459,
      "ĠÅĻÃŃkÃ¡": 2460,
      "ÅĻÅ¯": 2461,
      "ech": 2462,
      "cÃŃho": 2463,
      "ĠstÅĻÃŃ": 2464,
      "Ġkomb": 2465,
      "Ġformu": 2466,
      "aci": 2467,
      "ĠreÅ¾i": 2468,
      "atu": 2469,
      "ĠHra": 2470,
      "dala": 2471,
      "dnÃŃho": 2472,
      "Ġokam": 2473,
      "Ġpsy": 2474,
      "rÃ¡lnÃŃ": 2475,
      "ditel": 2476,
      "Ġdosa": 2477,
      "Ġnev": 2478,
      "ĠÅ¡ÃŃ": 2479,
      "Å¾il": 2480,
      "ĠzpÅ¯sobem": 2481,
      "ĠdobrÃ©": 2482,
      "Ġpoku": 2483,
      "dila": 2484,
      "ĠJan": 2485,
      "Ġkdyby": 2486,
      "Å½": 2487,
      "tera": 2488,
      "Ġvl": 2489,
      "les": 2490,
      "ĠpÅĻij": 2491,
      "str": 2492,
      "alo": 2493,
      "konomi": 2494,
      "\".": 2495,
      "ĠmÅ¯Å¾eme": 2496,
      "ĠnachÃ¡zÃŃ": 2497,
      "ÅĻilo": 2498,
      "Ġnov": 2499,
      "ĠobÄįan": 2500,
      "ĠjmÃ©": 2501,
      "uper": 2502,
      "ĠnÄĽkdy": 2503,
      "Ġceny": 2504,
      "Ġpen": 2505,
      "Ġgene": 2506,
      "Ġstrany": 2507,
      "ĠsvÄĽtÄĽ": 2508,
      "ĠdÄĽtÃŃ": 2509,
      "Ġcca": 2510,
      "tit": 2511,
      "Ġcelou": 2512,
      "Ġtato": 2513,
      "Ġide": 2514,
      "ĠpÄĽk": 2515,
      "Ġautor": 2516,
      "Ġkomunika": 2517,
      "ovalo": 2518,
      "IN": 2519,
      "Ġfyzi": 2520,
      "AT": 2521,
      "Ġlu": 2522,
      "ĠznÃ¡m": 2523,
      "Ġmon": 2524,
      "Ġpodstat": 2525,
      "nickÃ©": 2526,
      "ĠstoletÃŃ": 2527,
      "vku": 2528,
      "prve": 2529,
      "Ġzve": 2530,
      "vÄĽdo": 2531,
      "ĠnÄĽjakÃ©": 2532,
      "Ġzru": 2533,
      "Ġdokumen": 2534,
      "Ġzby": 2535,
      "Ġsva": 2536,
      "nÄĽÅ¾": 2537,
      "Ġzvo": 2538,
      "Ġcest": 2539,
      "Ġchla": 2540,
      "ĠpÅĻedmÄĽ": 2541,
      "ĠpouÅ¾itÃŃ": 2542,
      "imÃ¡lnÃŃ": 2543,
      "ĠÅĻekl": 2544,
      "Ġdoma": 2545,
      "ĠtÃ½m": 2546,
      "ĠstojÃŃ": 2547,
      "zal": 2548,
      "Ġcelkem": 2549,
      "wa": 2550,
      "ĠJen": 2551,
      "var": 2552,
      "Ġzt": 2553,
      "ĠTi": 2554,
      "ĠMy": 2555,
      "Ġ000": 2556,
      "Ġply": 2557,
      "koj": 2558,
      "Jak": 2559,
      "Ġpocit": 2560,
      "Ġuli": 2561,
      "kami": 2562,
      "Ġmeto": 2563,
      "id": 2564,
      "Ġdve": 2565,
      "itel": 2566,
      "ban": 2567,
      "Ġsebou": 2568,
      "ĠmÄĽst": 2569,
      "AN": 2570,
      ",-": 2571,
      "nÃ¡m": 2572,
      "Ġznovu": 2573,
      "ple": 2574,
      "Ġmil": 2575,
      "dÃ¡m": 2576,
      "ĠzÃ¡jem": 2577,
      "ĠII": 2578,
      "sÃ¡t": 2579,
      "ĠpÅĻÃ¡": 2580,
      "ĠpÅĻÃŃspÄĽ": 2581,
      "ÄįekÃ¡": 2582,
      "jÅ¡ÃŃch": 2583,
      "Ġ40": 2584,
      "Ġprojektu": 2585,
      "Ġnemoc": 2586,
      "stvo": 2587,
      "ologi": 2588,
      "Ġhtt": 2589,
      "ĠMe": 2590,
      "ĠkÃ¡": 2591,
      "kali": 2592,
      "Ġvelice": 2593,
      "ĠspoluprÃ¡": 2594,
      "liko": 2595,
      "Ġzahrani": 2596,
      "Ġinternet": 2597,
      "Ġfotografi": 2598,
      "dujÃŃcÃŃ": 2599,
      "Ġrekla": 2600,
      "lnÄĽ": 2601,
      "Ġsed": 2602,
      "âĢľ,": 2603,
      "ĠnÃŃm": 2604,
      "Ġvyj": 2605,
      "tÃ½": 2606,
      "Ġpri": 2607,
      "ĠnaÅ¡ich": 2608,
      "Ġzob": 2609,
      "ĠkterÃ½m": 2610,
      "ĠÄįlovÄĽ": 2611,
      "ĠpÅĻÃŃliÅ¡": 2612,
      "ĠsmÄĽr": 2613,
      "ĠnepÅĻe": 2614,
      "vÃ¡me": 2615,
      "âĢĿ": 2616,
      "Ve": 2617,
      "ĠÄįasu": 2618,
      "rti": 2619,
      "Ġ*": 2620,
      "ĠzpÄĽt": 2621,
      "vem": 2622,
      "Ġ22": 2623,
      "NÃį": 2624,
      "ĠÅ¡tÄĽ": 2625,
      "bit": 2626,
      "Ġdispozici": 2627,
      "ĠsvÃ©m": 2628,
      "ĠzamÄĽstnan": 2629,
      "ĠpoÄįet": 2630,
      "Ãļ": 2631,
      "ĠmÃŃsta": 2632,
      "Ġboj": 2633,
      "ĠvidÄĽt": 2634,
      "Ġobraz": 2635,
      "ĠdoporuÄį": 2636,
      "ĠSta": 2637,
      "tak": 2638,
      "Ġjednu": 2639,
      "racÃŃ": 2640,
      "Ġfilm": 2641,
      "mÄĽrnÄĽ": 2642,
      "krÃ¡": 2643,
      "ĠPe": 2644,
      "Ġjenom": 2645,
      "Ġvozi": 2646,
      "ĠAu": 2647,
      "sme": 2648,
      "Ġ60": 2649,
      "podob": 2650,
      "Ġsc": 2651,
      "Ġhro": 2652,
      "ĠuÄįi": 2653,
      "Ġskon": 2654,
      "ĠvÃ½stav": 2655,
      "Ã¡le": 2656,
      "hdy": 2657,
      "Ġsamot": 2658,
      "Ġpotvr": 2659,
      "Vy": 2660,
      "Ġpolov": 2661,
      "kovou": 2662,
      "ĠBe": 2663,
      "rovna": 2664,
      "Ġfirmy": 2665,
      "Å¾et": 2666,
      "ĠovlÃ¡": 2667,
      "mus": 2668,
      "dru": 2669,
      "ĠveÄįer": 2670,
      "Å¡li": 2671,
      "rÃ¡Å¾": 2672,
      "Ġbra": 2673,
      "ezi": 2674,
      "Ġzach": 2675,
      "Ġkorun": 2676,
      "Äįkou": 2677,
      "sli": 2678,
      "Ġjednoho": 2679,
      "Ġhospo": 2680,
      "anÃ½ch": 2681,
      "zovat": 2682,
      "ktivnÃŃ": 2683,
      "inÃ¡rodnÃŃ": 2684,
      "Ġnena": 2685,
      "Ġukon": 2686,
      "son": 2687,
      "ĠkonkrÃ©": 2688,
      "ĠblÃŃz": 2689,
      "ĠodpovÃŃ": 2690,
      "mit": 2691,
      "Ġ21": 2692,
      "ĠY": 2693,
      "ĠnÄĽkterÃ©": 2694,
      "Ġcy": 2695,
      "ĠjÃŃz": 2696,
      "rans": 2697,
      "ĠkvalitnÃŃ": 2698,
      "Ġpohyb": 2699,
      "ĠkterÃ½ch": 2700,
      "rozen": 2701,
      "ĠSo": 2702,
      "ĠÃºzemÃŃ": 2703,
      "ĠvnitÅĻ": 2704,
      "ĠnepÅĻÃŃ": 2705,
      "ÅĻem": 2706,
      "gan": 2707,
      "Ġ:-": 2708,
      "tro": 2709,
      "vÃŃce": 2710,
      "Ġefe": 2711,
      "ĠinformacÃŃ": 2712,
      "nal": 2713,
      "rky": 2714,
      "Äįila": 2715,
      "pole": 2716,
      "bÄĽhu": 2717,
      "snÄĽ": 2718,
      "ĠoÄįi": 2719,
      "Ġubyt": 2720,
      "ĠzÃŃskÃ¡": 2721,
      "Ġhr": 2722,
      "ĠpenÃŃ": 2723,
      "ĠaÅ¥": 2724,
      "ĠjednÃ©": 2725,
      "ĠalespoÅĪ": 2726,
      "ark": 2727,
      "Ġbav": 2728,
      "ĠpoÅ¾adav": 2729,
      "dÃŃme": 2730,
      "Ġdese": 2731,
      "\",": 2732,
      "verz": 2733,
      "bili": 2734,
      "dnÃ©": 2735,
      "Ġaktivit": 2736,
      "jez": 2737,
      "Ġstavu": 2738,
      "Ġtelevi": 2739,
      "ila": 2740,
      "ĠrozhodnutÃŃ": 2741,
      "Ġprogramu": 2742,
      "Ġmohli": 2743,
      "pÅ¯": 2744,
      "ovaly": 2745,
      "ĠjinÃ½ch": 2746,
      "ĠÅ¾Ã¡dnÃ©": 2747,
      "zat": 2748,
      "Äįen": 2749,
      "nkÃ¡ch": 2750,
      "ÅĻenÃ©": 2751,
      "ovÃ¡no": 2752,
      "ckÃ©m": 2753,
      "Ġpoho": 2754,
      "ujete": 2755,
      "ĠpozdÄĽji": 2756,
      "ĠpÅĻesnÄĽ": 2757,
      "Ġindi": 2758,
      "lÃ½ch": 2759,
      "Ġcena": 2760,
      "ĠpovaÅ¾": 2761,
      "ĠsouÄįÃ¡stÃŃ": 2762,
      "lÃ¡ÅĻ": 2763,
      "br": 2764,
      "Ġvzdu": 2765,
      "vrop": 2766,
      "Äįko": 2767,
      "Ġkomple": 2768,
      "ony": 2769,
      "Ġkuchy": 2770,
      "mÃ¡lnÃŃ": 2771,
      "ĠklÃŃ": 2772,
      "ovice": 2773,
      "Ġof": 2774,
      "ĠtrÃ¡": 2775,
      "14": 2776,
      "AR": 2777,
      "Ġcenu": 2778,
      "raci": 2779,
      "Ġcha": 2780,
      "ĠpenÃŃze": 2781,
      "Ġpracov": 2782,
      "Ġdota": 2783,
      "Ġpara": 2784,
      "Ġfakt": 2785,
      "vost": 2786,
      "Ġfunk": 2787,
      "ĠnÃ¡sled": 2788,
      "16": 2789,
      "bil": 2790,
      "ÄįnÃ½": 2791,
      "ĠpÅĻÃŃro": 2792,
      "\\\\\\\\": 2793,
      "fa": 2794,
      "Ġstanov": 2795,
      "Ġbudu": 2796,
      "ĠtÅĻetÃŃ": 2797,
      "ĠDÃŃky": 2798,
      "menÃŃ": 2799,
      "ĠKaÅ¾": 2800,
      "ĠprobÃŃ": 2801,
      "ĠoblÃŃb": 2802,
      "ster": 2803,
      "ĠzÃ¡va": 2804,
      "rost": 2805,
      "ziden": 2806,
      "ĠrÃ¡di": 2807,
      "rati": 2808,
      "ED": 2809,
      "datel": 2810,
      "Äįa": 2811,
      "enci": 2812,
      "stÅĻÃŃ": 2813,
      "hodno": 2814,
      "zka": 2815,
      "nictvÃŃm": 2816,
      "ÃŃch": 2817,
      "marÃ¡": 2818,
      "hodob": 2819,
      "ĠspÃŃÅ¡e": 2820,
      "dali": 2821,
      "Ġhlu": 2822,
      "ĠjednÃ¡": 2823,
      "Ġekonomi": 2824,
      "ĠzmÃŃ": 2825,
      "Ġut": 2826,
      "ĠobjednÃ¡": 2827,
      "stroj": 2828,
      "Ġmlad": 2829,
      "dky": 2830,
      "ĠstranÄĽ": 2831,
      "lova": 2832,
      "hor": 2833,
      "ĠdÄĽlat": 2834,
      "Å¾nÃ¡": 2835,
      "boru": 2836,
      "ĠosobnÃŃ": 2837,
      "Ġjednoduch": 2838,
      "ĠÄįinnosti": 2839,
      "ken": 2840,
      "mec": 2841,
      "lie": 2842,
      "ĠumÃŃstÄĽ": 2843,
      "asi": 2844,
      "Ġkry": 2845,
      "Äļ": 2846,
      "Äįce": 2847,
      "ĠmÃ©nÄĽ": 2848,
      "zev": 2849,
      "padu": 2850,
      "Ġameri": 2851,
      "ĠÅĻÃ¡d": 2852,
      "sel": 2853,
      "nila": 2854,
      "ĠpÅĻekva": 2855,
      "ÂŃ": 2856,
      "ĠmenÅ¡ÃŃ": 2857,
      "mek": 2858,
      "Ġkre": 2859,
      "ĠvysvÄĽt": 2860,
      "Ġtrhu": 2861,
      "ĠnemusÃŃ": 2862,
      "ĠpÅĻit": 2863,
      "chi": 2864,
      "qu": 2865,
      "Ġobsahuje": 2866,
      "ĠbÅĻe": 2867,
      "Ġdata": 2868,
      "Ġtzv": 2869,
      "Ġpozi": 2870,
      "Ġnikdo": 2871,
      "Ġpodpo": 2872,
      "ĠnÄĽjakÃ½": 2873,
      "vacÃŃ": 2874,
      "Ġhru": 2875,
      "ĠvÄĽc": 2876,
      "ej": 2877,
      "Ġatd": 2878,
      "Ġpomoc": 2879,
      "ĠtÄĽlo": 2880,
      "spÃŃ": 2881,
      "Ġcit": 2882,
      "Ġrepubliky": 2883,
      "ĠÄįeskÃ©": 2884,
      "Ġnimi": 2885,
      "nebo": 2886,
      "stau": 2887,
      "Ġjem": 2888,
      "Ġar": 2889,
      "Ġfot": 2890,
      "loÅ¾enÃŃ": 2891,
      "oo": 2892,
      "Ġnajdete": 2893,
      "Ġvyrob": 2894,
      "OR": 2895,
      "sf": 2896,
      "Ġlidi": 2897,
      "Ġminist": 2898,
      "ĠÃºrov": 2899,
      "ĠpodmÃŃnky": 2900,
      "cou": 2901,
      "any": 2902,
      "ĠNav": 2903,
      "ĠplÃ¡n": 2904,
      "CH": 2905,
      "ĠÃºto": 2906,
      "ĠBar": 2907,
      "aty": 2908,
      "ÃºÄį": 2909,
      "ĠvÃ½Å¡e": 2910,
      "ĠsnaÅ¾ÃŃ": 2911,
      "Ġvliv": 2912,
      "sin": 2913,
      "Ġblo": 2914,
      "Ġhry": 2915,
      "Ġnebylo": 2916,
      "lku": 2917,
      "fin": 2918,
      "ĠpÅĻedpis": 2919,
      "sho": 2920,
      "Ġpozem": 2921,
      "Ġnaopak": 2922,
      "Ġmnoha": 2923,
      "pen": 2924,
      "Ġpotom": 2925,
      "ĠvelkÃ½": 2926,
      "Ġfa": 2927,
      "ĠnÄĽkterÃ½ch": 2928,
      "Ġtri": 2929,
      "60": 2930,
      "Ġha": 2931,
      "ĠÃºspÄĽÅ¡": 2932,
      "ĠpÅĻÃŃrodnÃŃ": 2933,
      "Ġabso": 2934,
      "Ġdesig": 2935,
      "Ġcvi": 2936,
      "vnÃŃho": 2937,
      "Ġsami": 2938,
      "cemi": 2939,
      "nÄĽte": 2940,
      "ĠPak": 2941,
      "Ġkonstru": 2942,
      ".)": 2943,
      "Ã¡r": 2944,
      "80": 2945,
      "Ġcestu": 2946,
      "ĠvÃ½bor": 2947,
      "ĠCel": 2948,
      "Ġsouhla": 2949,
      "Ġsled": 2950,
      "Ã¡k": 2951,
      "ĠÅ¡iro": 2952,
      "Ġdomu": 2953,
      "ĠnutnÃ©": 2954,
      "ĠÃºdaje": 2955,
      "Ġvari": 2956,
      "Ġnavr": 2957,
      "ĠEx": 2958,
      "stÃ½": 2959,
      "Ġmodel": 2960,
      "Ġporu": 2961,
      "Ġsamostat": 2962,
      "ĠrÅ¯znÃ©": 2963,
      "ĠpojiÅ¡tÄĽnÃŃ": 2964,
      "ĠmÃ¡lo": 2965,
      "Ġkonci": 2966,
      "ĠmalÃ©": 2967,
      "13": 2968,
      "Ġbychom": 2969,
      "ĠdÄĽlÃ¡": 2970,
      "ĠDalÅ¡ÃŃ": 2971,
      "ĠÄįtyÅĻi": 2972,
      "Ġpok": 2973,
      "ĠnÃ¡d": 2974,
      "Ġpohod": 2975,
      "ĠtÃ½den": 2976,
      "Ġfe": 2977,
      "ig": 2978,
      "Ġarchi": 2979,
      "ĠÄįÃŃm": 2980,
      "ĠPav": 2981,
      "Ġnu": 2982,
      "Ġpartner": 2983,
      "ĠmyÅ¡": 2984,
      "form": 2985,
      "romÄĽ": 2986,
      "kovÄĽ": 2987,
      "ĠpapÃŃ": 2988,
      "Ġmotor": 2989,
      "ĠCe": 2990,
      "rych": 2991,
      "ĠEU": 2992,
      "ĠtÃ¡": 2993,
      "ĠpotÃ©": 2994,
      "40": 2995,
      "ĠznamenÃ¡": 2996,
      "vatele": 2997,
      "Ġmnohem": 2998,
      "ĠjednotlivÃ½ch": 2999,
      "ĠkamarÃ¡": 3000,
      "dÄĽpodob": 3001,
      "Ro": 3002,
      "Ġbyste": 3003,
      "PÅĻi": 3004,
      "Ġ23": 3005,
      "ĠprodÃ¡": 3006,
      "vnost": 3007,
      "mem": 3008,
      "hru": 3009,
      "Ġroky": 3010,
      "Å¡en": 3011,
      "ĠPodle": 3012,
      "25": 3013,
      "Ġkapit": 3014,
      "Ã¡ch": 3015,
      "Ġvybra": 3016,
      "Ġpotrav": 3017,
      "ĠnemÅ¯Å¾e": 3018,
      "ĠoÄįekÃ¡": 3019,
      "Ġfirem": 3020,
      "ĠpotÅĻeba": 3021,
      "ĠTato": 3022,
      "Ġbole": 3023,
      "stickÃ©": 3024,
      "snÃŃ": 3025,
      "ĠrÃ¡d": 3026,
      "Ġobra": 3027,
      "ES": 3028,
      "Ġpopis": 3029,
      "Ġakci": 3030,
      "ĠdomÃ¡cÃŃ": 3031,
      "www": 3032,
      "imÃ¡lnÄĽ": 3033,
      "ouf": 3034,
      "Ġprojekt": 3035,
      "Ġdostup": 3036,
      "ON": 3037,
      "ĠrÃ¡da": 3038,
      "vyÅ¡Å¡ÃŃ": 3039,
      "Ġskupiny": 3040,
      "Ġjsi": 3041,
      "ĠnÃ¡z": 3042,
      "ĠprostÅĻednictvÃŃm": 3043,
      "ĠzaÄįÃ¡tku": 3044,
      "kÃ½ch": 3045,
      "ĠÃºdajÅ¯": 3046,
      "Ġbudeme": 3047,
      "ĠMart": 3048,
      "jezd": 3049,
      "ĠÄįÃŃslo": 3050,
      "kladu": 3051,
      "ĠjinÃ©ho": 3052,
      "ĠÄįerven": 3053,
      "ĠplatÃŃ": 3054,
      "ĠpomÃ¡": 3055,
      "ĠEvrop": 3056,
      "Ã©ru": 3057,
      "ĠdomÅ¯": 3058,
      "prvÃ©": 3059,
      "ĠkÅĻe": 3060,
      "hledÃ¡": 3061,
      "Ġsouvis": 3062,
      "pomÃŃ": 3063,
      "Ġkolo": 3064,
      "ĠnovÃ©ho": 3065,
      "Ġsobo": 3066,
      "ĠtakovÃ½": 3067,
      "ĠpÅ¯jÄįky": 3068,
      "ant": 3069,
      "dro": 3070,
      "VÃ½": 3071,
      "ĠDu": 3072,
      "dka": 3073,
      "dÄĽlenÃŃ": 3074,
      "ĠzÃ¡stup": 3075,
      "ĠvÄĽn": 3076,
      "ary": 3077,
      "ĠskuteÄįnÄĽ": 3078,
      "Ġvedle": 3079,
      "ĠvÄĽtÅ¡inou": 3080,
      "orÅ¯": 3081,
      "ĠKu": 3082,
      "Ġenergie": 3083,
      "mm": 3084,
      "ĠtisÃŃc": 3085,
      "ĠÄĮer": 3086,
      "ÅĪujÃŃ": 3087,
      "ĠzakÃ¡": 3088,
      "ĠnaÅ¡eho": 3089,
      "zujÃŃ": 3090,
      "Å¾ila": 3091,
      "ĠpenÄĽ": 3092,
      "ie": 3093,
      "Ãī": 3094,
      "lil": 3095,
      "ĠTu": 3096,
      "Ġfon": 3097,
      "ezpeÄį": 3098,
      "stÃ¡vÃ¡": 3099,
      "Ġsez": 3100,
      "Ġnaprosto": 3101,
      "nÃŃku": 3102,
      "ĠudÃ¡": 3103,
      "zÃŃch": 3104,
      "ĠproblÃ©my": 3105,
      "Ġdlouhodob": 3106,
      "Ġrizi": 3107,
      "tila": 3108,
      "ĠtÃ½d": 3109,
      "alÃ½": 3110,
      "Ġves": 3111,
      "Ġrostli": 3112,
      "zenÃ©": 3113,
      "ĠnedÃ¡": 3114,
      "ĠsvÃ¡": 3115,
      "ĠpÅĻem": 3116,
      "ĠnovÃ½ch": 3117,
      "port": 3118,
      "Å¾enÃ©": 3119,
      "Mo": 3120,
      "Ġnebyl": 3121,
      "nuje": 3122,
      "ĠrozdÃŃl": 3123,
      "ĠbÃ¡": 3124,
      "Ġuprav": 3125,
      "ĠÅ¾eny": 3126,
      "Ġem": 3127,
      "ĠpÅĻesto": 3128,
      "hodou": 3129,
      "ĠvhodnÃ©": 3130,
      "Å¾ky": 3131,
      "ss": 3132,
      "ovenÃŃ": 3133,
      "Ġhttp": 3134,
      "ĠHla": 3135,
      "Ġstru": 3136,
      "ĠÃºko": 3137,
      "Ġ2017": 3138,
      "ĠobchodnÃŃ": 3139,
      "Ġvede": 3140,
      "--": 3141,
      "nul": 3142,
      "Ġpocho": 3143,
      "ĠkaÅ¾dÃ©": 3144,
      "pil": 3145,
      "ĠrozhodnÄĽ": 3146,
      "Ġrece": 3147,
      "Ġautomati": 3148,
      "ĠNÄĽk": 3149,
      "Ġopak": 3150,
      "Ġpoda": 3151,
      "ĠudÄĽlat": 3152,
      "Ġobce": 3153,
      "pozor": 3154,
      "Ġsituace": 3155,
      "Ġrestau": 3156,
      "Ġstandar": 3157,
      "spi": 3158,
      "ice": 3159,
      "ĠvzÃ¡": 3160,
      "ĠudÄĽla": 3161,
      "Ġoh": 3162,
      "ĠĠ": 3163,
      "Ġapod": 3164,
      "ĠkterÃ©m": 3165,
      "ĠzdravÃŃ": 3166,
      "ĠvytvÃ¡": 3167,
      "ĠuÅ¾ivatel": 3168,
      "Ġchcete": 3169,
      "mentÃ¡": 3170,
      "ĠdÃŃl": 3171,
      "Ġkap": 3172,
      "ĠKra": 3173,
      "ĠrozÅ¡ÃŃ": 3174,
      "17": 3175,
      "rk": 3176,
      "ĠÄįlÃ¡nek": 3177,
      "CE": 3178,
      "ĠMu": 3179,
      "ĠJeho": 3180,
      "ĠHa": 3181,
      "onÅ¯": 3182,
      "ĠspeciÃ¡lnÃŃ": 3183,
      "cla": 3184,
      "Ġstup": 3185,
      "ĠpoÅĻa": 3186,
      "stala": 3187,
      "jnÃŃ": 3188,
      "ĠMin": 3189,
      "Ġ27": 3190,
      "ÄįnÃ¡": 3191,
      "Ġhod": 3192,
      "myslu": 3193,
      "Ġzvu": 3194,
      "ĠTakÅ¾e": 3195,
      "Ġporo": 3196,
      "Ġzlo": 3197,
      "Ġsub": 3198,
      "ĠzÃ¡ÅĻÃŃ": 3199,
      "ĠtÄĽm": 3200,
      "ĠchrÃ¡": 3201,
      "Ġosoby": 3202,
      "ovky": 3203,
      "ativnÃŃ": 3204,
      "Ġzra": 3205,
      "Ġtvor": 3206,
      "Äıte": 3207,
      "Ġobou": 3208,
      "Å¡ker": 3209,
      "ĠpÅĻitom": 3210,
      "ĠjeÅ¾": 3211,
      "teÅĻ": 3212,
      "mÃ½": 3213,
      "ĠVaÅ¡e": 3214,
      "Ġdiva": 3215,
      "ĠbezpeÄįnost": 3216,
      "Ġ80": 3217,
      "Ġpohled": 3218,
      "ĠpÅĻev": 3219,
      "Ġhud": 3220,
      "Ġobvy": 3221,
      "ĠPrÃ¡": 3222,
      "Ġoce": 3223,
      "Ġmla": 3224,
      "ÅĻka": 3225,
      "Ġvedou": 3226,
      "Ġcharak": 3227,
      "Ġcuk": 3228,
      "Äįuje": 3229,
      "ĠvzdÃ¡le": 3230,
      "Ġ26": 3231,
      "nÃ¡ch": 3232,
      "ĠâĢľ": 3233,
      "ĠÐ": 3234,
      "Ġangli": 3235,
      "ĠjehoÅ¾": 3236,
      "Ġvyp": 3237,
      "znÄĽ": 3238,
      "ĠprÃ¡vo": 3239,
      "ovÃ½mi": 3240,
      "nej": 3241,
      "dna": 3242,
      "ĠpÅĻÃŃpadnÄĽ": 3243,
      "kovÃ¡nÃŃ": 3244,
      "ĠnÃ¡mÄĽ": 3245,
      "Ġtypu": 3246,
      "ÄįÃŃm": 3247,
      "ĠprohlÃŃ": 3248,
      "ĠjinÃ½": 3249,
      "ĠmÄĽlo": 3250,
      "Ġ28": 3251,
      "dnout": 3252,
      "ĠdodÃ¡": 3253,
      "Ġposu": 3254,
      "Ġano": 3255,
      "Ġdocela": 3256,
      "ino": 3257,
      "ĠpÅĻÃŃleÅ¾ito": 3258,
      "ĠdospÄĽ": 3259,
      "ĠmanÅ¾el": 3260,
      "Ġspole": 3261,
      "ĠpoÅ¡ko": 3262,
      "Ġevrop": 3263,
      "skem": 3264,
      "ĠpÅĻedpo": 3265,
      "Ġfunkce": 3266,
      "stnÃŃ": 3267,
      "ĠprvnÃŃm": 3268,
      "ĠÄįinnost": 3269,
      "roti": 3270,
      "ĠdnÃŃ": 3271,
      "enta": 3272,
      "Ġmobil": 3273,
      "kladÅ¯": 3274,
      "ĠstarÅ¡ÃŃ": 3275,
      "ĠCa": 3276,
      "Ġpsa": 3277,
      "ĠMÃŃ": 3278,
      "vin": 3279,
      "Ġobsahu": 3280,
      "Ġml": 3281,
      "cy": 3282,
      "Å¡enÃ©": 3283,
      "nami": 3284,
      "Ġcelo": 3285,
      "vol": 3286,
      "ĠmezinÃ¡rodnÃŃ": 3287,
      "mÄĽry": 3288,
      "Ġdisku": 3289,
      "lati": 3290,
      "ckÃ½mi": 3291,
      "com": 3292,
      "Ġzlep": 3293,
      "Ġpaci": 3294,
      "Ġkance": 3295,
      "Ġpode": 3296,
      "ĠkterÃ©ho": 3297,
      "zra": 3298,
      "mbo": 3299,
      "Ã©ri": 3300,
      "Ġmaji": 3301,
      "netu": 3302,
      "Ġanti": 3303,
      "mÃŃn": 3304,
      "ĠnepÅĻi": 3305,
      "ĠnÄĽme": 3306,
      "Ġmou": 3307,
      "ĠdÅ¯vo": 3308,
      "alÃ¡": 3309,
      "Ġturi": 3310,
      "eru": 3311,
      "ĠspoleÄįnÄĽ": 3312,
      "rech": 3313,
      "Ġtva": 3314,
      "ĠnÃ¡Å¡": 3315,
      "konstru": 3316,
      "ĠpouÅ¾it": 3317,
      "Ġzdroj": 3318,
      "vili": 3319,
      "Ġjmen": 3320,
      "nÄĽjÅ¡ÃŃch": 3321,
      "ĠvyhlÃ¡": 3322,
      "ladu": 3323,
      "lovÃ©": 3324,
      "Ġsoukro": 3325,
      "ZÃ¡": 3326,
      "ĠstÃŃ": 3327,
      "ĠdnÅ¯": 3328,
      "Ġsuper": 3329,
      "ĠvedenÃŃ": 3330,
      "Ġroze": 3331,
      "Ġtrans": 3332,
      "Ġly": 3333,
      "hned": 3334,
      "kre": 3335,
      "ĠrovnÄĽÅ¾": 3336,
      "ĠuvÃ¡": 3337,
      "Ġpoh": 3338,
      "kuji": 3339,
      "koho": 3340,
      "ĠJin": 3341,
      "Ġdoda": 3342,
      "Ġ2016": 3343,
      "Ġtolik": 3344,
      "uj": 3345,
      "ĠjednÃ¡nÃŃ": 3346,
      "Ġobsah": 3347,
      "Ġbarev": 3348,
      "90": 3349,
      "ere": 3350,
      "ance": 3351,
      "ĠdoplÅĪ": 3352,
      "ĠdosÃ¡": 3353,
      "stava": 3354,
      "mÄĽru": 3355,
      "Ġdny": 3356,
      "ĠfinanÄįnÃŃ": 3357,
      "Ġmne": 3358,
      "mÃ¡t": 3359,
      "ĠdÄĽla": 3360,
      "Ġbohat": 3361,
      "Ġpodporu": 3362,
      "Ġpomoci": 3363,
      "Ġmohla": 3364,
      "Å¡il": 3365,
      "jÃŃÅ¾": 3366,
      "dÃ¡me": 3367,
      "ĠZe": 3368,
      "Å¾ili": 3369,
      "ĠprovedenÃŃ": 3370,
      "dÃ¡ÅĻ": 3371,
      "ĠprÅ¯bÄĽhu": 3372,
      "SS": 3373,
      "Å¾ek": 3374,
      "24": 3375,
      "Ġopti": 3376,
      "ĠjistÄĽ": 3377,
      "ĠmÄĽsto": 3378,
      "Ġsama": 3379,
      "anta": 3380,
      "dili": 3381,
      "ĠscÃ©": 3382,
      "ĠDob": 3383,
      "ĠzahÃ¡": 3384,
      "ĠnechÃ¡": 3385,
      "ĠSlov": 3386,
      "ĠJiÅĻÃŃ": 3387,
      "ĠÂ§": 3388,
      "ĠÄįlovÄĽka": 3389,
      "ajÃŃ": 3390,
      "ĠtvÃ¡": 3391,
      "Ġkomi": 3392,
      "ĠÅĻi": 3393,
      "lt": 3394,
      "Ġhodiny": 3395,
      "Ġbran": 3396,
      "ĠkaÅ¾dÃ©ho": 3397,
      "ĠmoÅ¾nosti": 3398,
      "Ġkombina": 3399,
      "ĠpravdÄĽpodob": 3400,
      "ĠmÅ¯j": 3401,
      "ĠbÄĽÅ¾": 3402,
      "ĠpÅĻedcho": 3403,
      "ude": 3404,
      "Dob": 3405,
      "ĠspoleÄįen": 3406,
      "ĠÅ¡kola": 3407,
      "lÃ©m": 3408,
      "hody": 3409,
      "Ġpreziden": 3410,
      "ĠpamÄĽ": 3411,
      "Ġletos": 3412,
      "Ġnemov": 3413,
      "Ġabych": 3414,
      "Ġtem": 3415,
      "ĠÄįem": 3416,
      "dÄĽj": 3417,
      "chÅ¯": 3418,
      "Ġkamen": 3419,
      "Ġnaps": 3420,
      "mnÃŃ": 3421,
      "vÄĽz": 3422,
      "mÃŃt": 3423,
      "ĠvÄĽcÃŃ": 3424,
      "Ã¡ly": 3425,
      "âĢĵ": 3426,
      "Å¡uje": 3427,
      "ĠpouÅ¾ÃŃt": 3428,
      "ezpe": 3429,
      "stil": 3430,
      "ĠvÃ½zku": 3431,
      "ĠstrÃ¡nky": 3432,
      "Ġ2015": 3433,
      "ĠtÃ©m": 3434,
      "Ġpru": 3435,
      "KdyÅ¾": 3436,
      "stÅĻed": 3437,
      "ĠÄįtyÅĻ": 3438,
      "ĠzpracovÃ¡nÃŃ": 3439,
      "Ġ)": 3440,
      "Ġprou": 3441,
      "ĠdÅ¯leÅ¾itÃ©": 3442,
      "ĠvÃ½bÄĽr": 3443,
      "EL": 3444,
      "mr": 3445,
      "nÄĽl": 3446,
      "cet": 3447,
      "ĠpÅ¯sobÃŃ": 3448,
      "ĠtÃ©ma": 3449,
      "ĠRy": 3450,
      "ĠLo": 3451,
      "Ġtohle": 3452,
      "ĠzdÃ¡": 3453,
      "ĠzaÄįal": 3454,
      "**": 3455,
      "vno": 3456,
      "ĠpouÅ¾ÃŃvÃ¡": 3457,
      "dÄĽle": 3458,
      "venÃŃ": 3459,
      "ĠBÄĽ": 3460,
      "AL": 3461,
      "Ġnalez": 3462,
      "Ġtabu": 3463,
      "Ġspl": 3464,
      "ler": 3465,
      "Ġdub": 3466,
      "Ġsvobo": 3467,
      "ĠÃºÄįastnÃŃ": 3468,
      "ĠnÃŃz": 3469,
      "Ġtitu": 3470,
      "Ġhude": 3471,
      "ĠpomÄĽrnÄĽ": 3472,
      "ex": 3473,
      "Ġvideo": 3474,
      "rovnÃ¡nÃŃ": 3475,
      "ĠztrÃ¡": 3476,
      "Å¾enÃ½": 3477,
      "Ġnau": 3478,
      "anis": 3479,
      "hot": 3480,
      "emoc": 3481,
      "bÃ½": 3482,
      "ĠbohuÅ¾el": 3483,
      "leÄįenÃŃ": 3484,
      "pÅ¯sob": 3485,
      "ĠzaloÅ¾": 3486,
      "ĠvÃ½ji": 3487,
      "IT": 3488,
      "Ġstani": 3489,
      "Ġdel": 3490,
      "rovo": 3491,
      "poj": 3492,
      "vnÄĽjÅ¡ÃŃ": 3493,
      "ET": 3494,
      "teÄįnÃŃ": 3495,
      "kladnÃŃ": 3496,
      "Ġspokoj": 3497,
      "ĠnÃ¡hra": 3498,
      "inci": 3499,
      "lostÃŃ": 3500,
      "dia": 3501,
      "ĠubytovÃ¡nÃŃ": 3502,
      "ĠzkuÅ¡enosti": 3503,
      "ĠPar": 3504,
      "ĠpostupnÄĽ": 3505,
      "Ġzemi": 3506,
      "Ġbudouc": 3507,
      "Ġ2014": 3508,
      "Ġkabe": 3509,
      "ĠlÃ©pe": 3510,
      "Ġorigin": 3511,
      "jÃ¡": 3512,
      "Co": 3513,
      "Ġsoubor": 3514,
      "ĠvyrÃ¡": 3515,
      "ht": 3516,
      "git": 3517,
      "ĠnevÄĽ": 3518,
      "che": 3519,
      "ĠPrahy": 3520,
      "Ġprofesi": 3521,
      "likoÅ¾": 3522,
      "ĠkromÄĽ": 3523,
      "Od": 3524,
      "Ġskoro": 3525,
      "Ġstaro": 3526,
      "ĠsvÃŃ": 3527,
      "ĠmoÅ¾nostÃŃ": 3528,
      "ĠtvoÅĻÃŃ": 3529,
      "cm": 3530,
      "ĠpÄĽt": 3531,
      "ĠvÃ½mÄĽ": 3532,
      "Ġdale": 3533,
      "ĠÅĻÃŃct": 3534,
      "ĠâĢ¢": 3535,
      "ĠpovÄĽ": 3536,
      "sah": 3537,
      "ovanÃ©ho": 3538,
      "blÃŃ": 3539,
      "ÃĿ": 3540,
      "Ġodstra": 3541,
      "Ka": 3542,
      "dÃŃte": 3543,
      "Ġbyt": 3544,
      "Ġdoz": 3545,
      "telnÄĽ": 3546,
      "Ġhmot": 3547,
      "ĠbÃ½val": 3548,
      "kÃ½m": 3549,
      "ral": 3550,
      "Ġoz": 3551,
      "hÃ½": 3552,
      "ĠkÅĻÃŃ": 3553,
      "stavÄĽ": 3554,
      "jÃŃma": 3555,
      "ĠzÃ¡vis": 3556,
      "ĠneboÅ¥": 3557,
      "Ġhez": 3558,
      "Ġvelkou": 3559,
      "Ġpodla": 3560,
      "kovÃ©ho": 3561,
      "ĠnaÅ¡em": 3562,
      "ĠsloÅ¾": 3563,
      "Ġdruhou": 3564,
      "Ġpopu": 3565,
      "Ġga": 3566,
      "ĠposlednÃŃch": 3567,
      "ĠJako": 3568,
      "sp": 3569,
      "ĠtlaÄįÃŃ": 3570,
      "ĠmyslÃŃm": 3571,
      "ĠPou": 3572,
      "ble": 3573,
      "klu": 3574,
      "Å¡im": 3575,
      "Ġsti": 3576,
      "ĠnÄĽjakou": 3577,
      "ÃºÄįast": 3578,
      "Ġwww": 3579,
      "Ġzastav": 3580,
      "ĠjakÃ½": 3581,
      "voje": 3582,
      "ÅĻila": 3583,
      "ĠpodobÄĽ": 3584,
      "Ġelektri": 3585,
      "Ġihned": 3586,
      "ĠnÃ¡sledujÃŃcÃŃ": 3587,
      "Ġprovozu": 3588,
      "ÄįasÃŃ": 3589,
      "ĠSy": 3590,
      "Ġvzor": 3591,
      "ĠsouÄįasnÃ©": 3592,
      "ĠobÄįas": 3593,
      "kovat": 3594,
      "ĠvÃŃtÄĽz": 3595,
      "ĠVz": 3596,
      "ĠmÄĽsÃŃcÅ¯": 3597,
      "Ġkola": 3598,
      "ng": 3599,
      "NÃ¡": 3600,
      "Ġmoti": 3601,
      "ĠÅ¾Ã¡dnÃ½": 3602,
      "Ġinvesti": 3603,
      "sÅ¥": 3604,
      "Ġmoje": 3605,
      "ĠpoprvÃ©": 3606,
      "mlu": 3607,
      "voji": 3608,
      "Ġorganizace": 3609,
      "ĠTÄĽ": 3610,
      "ĠpÅĻedse": 3611,
      "ĠUÅ¾": 3612,
      "ĠvzdÄĽlÃ¡vÃ¡nÃŃ": 3613,
      "Ġzne": 3614,
      "kladem": 3615,
      "razi": 3616,
      "Ġhlas": 3617,
      "ĠvÃ½Å¡i": 3618,
      "nskÃ©": 3619,
      "Nej": 3620,
      "ĠHe": 3621,
      "ĠvÄĽku": 3622,
      "ĠdruÅ¾": 3623,
      "zenÃŃm": 3624,
      "nili": 3625,
      "vidu": 3626,
      "Ġnovou": 3627,
      "Ġsnadno": 3628,
      "Ã¡lnÃŃch": 3629,
      "cvi": 3630,
      "ĠpÅ¯vodnÃŃ": 3631,
      "ĠsoutÄĽÅ¾e": 3632,
      "ĠtÃŃmto": 3633,
      "ĠPO": 3634,
      "ĠzajiÅ¡Å¥": 3635,
      "Ġprostoru": 3636,
      "ĠvÃ½voj": 3637,
      "Ġstrav": 3638,
      "ĠprÃ¡va": 3639,
      "Ġneob": 3640,
      "ĠchtÄĽl": 3641,
      "ĠdruhÃ½": 3642,
      "Ġjich": 3643,
      "dlÃŃ": 3644,
      "Ġsvat": 3645,
      "Ġnaz": 3646,
      "out": 3647,
      "ĠdÃ¡m": 3648,
      "45": 3649,
      "Ġwe": 3650,
      "ĠprÃ¡vnÃŃ": 3651,
      "ĠbrÃ¡": 3652,
      "kajÃŃ": 3653,
      "jednÃ¡": 3654,
      "ĠzÃ¡vo": 3655,
      "ĠdÅ¯vodu": 3656,
      "Ġovliv": 3657,
      "ĠvyuÅ¾ÃŃt": 3658,
      "ĠnesmÃŃ": 3659,
      "pisu": 3660,
      "Ġnemovito": 3661,
      "ĠPi": 3662,
      "ĠmÃŃstnÃŃ": 3663,
      "ĠnovÃ¡": 3664,
      "ĠvypadÃ¡": 3665,
      "Ġusku": 3666,
      "Ġ2013": 3667,
      "ĠMÅ¯Å¾e": 3668,
      "ĉĊ": 3669,
      "ja": 3670,
      "xu": 3671,
      "anÃ©ho": 3672,
      "ĠznaÄįky": 3673,
      "Ġvyz": 3674,
      "Ġâ": 3675,
      "ĠJsou": 3676,
      "pravy": 3677,
      "Ġnaje": 3678,
      "Ġbaz": 3679,
      "Ġpop": 3680,
      "lech": 3681,
      "Ġvypl": 3682,
      "ĠlÃ©Äį": 3683,
      "ĠUSA": 3684,
      "ĠvÃŃken": 3685,
      "cka": 3686,
      "ĠtÄĽla": 3687,
      "ĠumoÅ¾ÅĪuje": 3688,
      "xe": 3689,
      "Ġkapa": 3690,
      "Ġfi": 3691,
      "Ġzdro": 3692,
      "taci": 3693,
      "Ġjez": 3694,
      "neme": 3695,
      "ĠZem": 3696,
      "Ġpole": 3697,
      "ĠdÅĻÃŃve": 3698,
      "Ġste": 3699,
      "Ġhote": 3700,
      "ovanou": 3701,
      "drÅ¾ÃŃ": 3702,
      "ĠjmÃ©no": 3703,
      "vejte": 3704,
      "pÅ¯jÄįka": 3705,
      "nÄĽnÃ©": 3706,
      "chny": 3707,
      "ĠmateriÃ¡lu": 3708,
      "22": 3709,
      "ĠvÃ½konu": 3710,
      "ĠÅĻadu": 3711,
      "ĠoprÃ¡": 3712,
      "Å¾itÄĽ": 3713,
      "ĠvÃ½cho": 3714,
      "ĠsÃ¡": 3715,
      "Ġlisto": 3716,
      "ĠpÅĻije": 3717,
      "Ġsituaci": 3718,
      "Ġuniverz": 3719,
      "Å¾uje": 3720,
      "ĠmlÃ¡": 3721,
      "Ġodha": 3722,
      "Ġdrob": 3723,
      "Ġzrovna": 3724,
      "ĠnevÃŃm": 3725,
      "Ġruce": 3726,
      "Å¾as": 3727,
      "dio": 3728,
      "Ġnebyla": 3729,
      "Ġtyp": 3730,
      "snÃ©": 3731,
      "??": 3732,
      "ĠÄįlÃ¡nku": 3733,
      "Ġpenzi": 3734,
      "Ġkoste": 3735,
      "Ġkape": 3736,
      "Ã¹": 3737,
      "kova": 3738,
      "Ġare": 3739,
      "dÄĽlÃŃ": 3740,
      "ĠÅĻidi": 3741,
      "ĠvÄĽdo": 3742,
      "ĠdoÅ¡lo": 3743,
      "Ġpovrch": 3744,
      "stÅĻi": 3745,
      "Å¡tnÃŃ": 3746,
      "Ġprod": 3747,
      "stoupenÃŃ": 3748,
      "Ġ:-)": 3749,
      "ĠMari": 3750,
      "teÅĻÃŃ": 3751,
      "ĠtrÃ©n": 3752,
      "fil": 3753,
      "razÃŃ": 3754,
      "Ġnevi": 3755,
      "kala": 3756,
      "Ġobyvatel": 3757,
      "ĠÅ¡kole": 3758,
      "cko": 3759,
      "kÃ©ho": 3760,
      "Ġtest": 3761,
      "ĠzvÃŃÅĻ": 3762,
      "entÅ¯": 3763,
      "ĠzmÄĽny": 3764,
      "kne": 3765,
      "ĠmÄĽly": 3766,
      "ĠNem": 3767,
      "ĠnejvÃŃce": 3768,
      "ĠÃºÄįet": 3769,
      "vodnÄĽ": 3770,
      "Ġvyzkou": 3771,
      "Å¾ÃŃt": 3772,
      "ĠpotÅĻebu": 3773,
      "):": 3774,
      "Ġslova": 3775,
      "ÅĻel": 3776,
      "ĠspoluprÃ¡ci": 3777,
      "ĠpotÅĻeby": 3778,
      "ĠdÃ¡t": 3779,
      "ĠnajÃŃt": 3780,
      "ĠsnÄĽ": 3781,
      "ĠotevÅĻ": 3782,
      "Ġ90": 3783,
      "ĠÄĮÃŃ": 3784,
      "ĠveÅ¡ker": 3785,
      "Ġ70": 3786,
      "lenÃ¡": 3787,
      "ĠkoneÄįnÄĽ": 3788,
      "Ġnepro": 3789,
      "Ġknihy": 3790,
      "ĠÅ¾ivotnÃŃ": 3791,
      "Ġradost": 3792,
      "ĠzaÄįÃŃnÃ¡": 3793,
      "novÃ©": 3794,
      "Ġkolik": 3795,
      "hruba": 3796,
      "Ġobrov": 3797,
      "ĠoznÃ¡": 3798,
      "Ġdostal": 3799,
      "ĠpÅĻesvÄĽd": 3800,
      "Å¡etÅĻenÃŃ": 3801,
      "lomou": 3802,
      "ĠvyuÅ¾itÃŃ": 3803,
      "dajÃŃcÃŃ": 3804,
      "stroje": 3805,
      "Ġtera": 3806,
      "ĠÅ¡Å¥": 3807,
      "ĠhÅĻe": 3808,
      "ĠNenÃŃ": 3809,
      "Å¡nÄĽ": 3810,
      "ĠnÃ¡rodnÃŃ": 3811,
      "stival": 3812,
      "LA": 3813,
      "telnÃ½": 3814,
      "stitu": 3815,
      "skÃ½mi": 3816,
      "Ġzahr": 3817,
      "ona": 3818,
      "mil": 3819,
      "ĠâĢ¦": 3820,
      "Ġsobotu": 3821,
      "lÃŃn": 3822,
      "Ġkilo": 3823,
      "Å¡enÃŃm": 3824,
      "Ġnelze": 3825,
      "Ġmoci": 3826,
      "ĠklÃ¡": 3827,
      "Ġsoud": 3828,
      "cÅ¯m": 3829,
      "Ġdaleko": 3830,
      "ĠdobrÃ½": 3831,
      "Ġ500": 3832,
      "ĠoprÃ¡vnÄĽ": 3833,
      "Ġnahra": 3834,
      "hne": 3835,
      "ĠpanÃŃ": 3836,
      "Ġkri": 3837,
      "ĠvÃ½sledky": 3838,
      "Ġuspo": 3839,
      "Ġmini": 3840,
      "Ġge": 3841,
      "Ġ29": 3842,
      "Ġprode": 3843,
      "zacÃŃ": 3844,
      "ĠvnitÅĻnÃŃ": 3845,
      "ĠprÅ¯mÄĽr": 3846,
      "ĠpÅĻece": 3847,
      "terÃ¡": 3848,
      "ĠpÃ¸": 3849,
      "ĠpÅĻinÃ¡": 3850,
      "diska": 3851,
      "mosf": 3852,
      "ĠTÅĻe": 3853,
      "Ġcesty": 3854,
      "ĠnejvyÅ¡Å¡ÃŃ": 3855,
      "vce": 3856,
      "loÅ¾it": 3857,
      "Ġpodpor": 3858,
      "ĠosobnÃŃch": 3859,
      "Ð¾": 3860,
      "ĠAmeri": 3861,
      "ĠnechtÄĽ": 3862,
      "ĠmnÄĽ": 3863,
      "telÅ¯": 3864,
      "Ġproces": 3865,
      "ĠcelÃ©ho": 3866,
      "ĠkomentÃ¡": 3867,
      "sen": 3868,
      "xus": 3869,
      "ĠstÃ¡tnÃŃ": 3870,
      "ĠPetr": 3871,
      "ĠjÃŃt": 3872,
      "stem": 3873,
      "ĠÅĻeditel": 3874,
      "vÃ½ch": 3875,
      "bÃŃzÃŃ": 3876,
      "tenÃŃ": 3877,
      "Ġzdravot": 3878,
      "Äįili": 3879,
      "gre": 3880,
      "ĠpraÅ¾": 3881,
      "ĠJednÃ¡": 3882,
      "ĠÄįekÃ¡": 3883,
      "ĠBrno": 3884,
      "ĠPrvnÃŃ": 3885,
      "ĠpoÄįasÃŃ": 3886,
      "ger": 3887,
      "ĠnÃ¡zor": 3888,
      "ĠpÅĻiz": 3889,
      "Ġ2012": 3890,
      "anu": 3891,
      "nie": 3892,
      "ĠÅĻÃŃj": 3893,
      "Ġstroj": 3894,
      "ĠzaÄįala": 3895,
      "Ko": 3896,
      "Ġlety": 3897,
      "Ġpoj": 3898,
      "valo": 3899,
      "Ġtehdy": 3900,
      "Ġaplikace": 3901,
      "OP": 3902,
      "Ġposti": 3903,
      "klÃ¡dÃ¡": 3904,
      "ĠkupujÃŃcÃŃ": 3905,
      "stane": 3906,
      "ĠÂ»": 3907,
      "ĠpÅĻihlÃ¡": 3908,
      "bankovnÃŃ": 3909,
      "razit": 3910,
      "ĠmodernÃŃ": 3911,
      "ĠJu": 3912,
      "ÅĻÃŃm": 3913,
      "Äįera": 3914,
      "ĠvÃ¡no": 3915,
      "ĠnÃ¡klady": 3916,
      "Ġ35": 3917,
      "Ġpev": 3918,
      "ĠschvÃ¡": 3919,
      "ĠstÅĻednÃŃ": 3920,
      "par": 3921,
      "Å¯l": 3922,
      "dnost": 3923,
      "ĠprÃ¡v": 3924,
      "Ġinternetu": 3925,
      "ĠnÄĽkde": 3926,
      "ĠnÃ¡dher": 3927,
      "mali": 3928,
      "sahu": 3929,
      "zovÃ¡nÃŃ": 3930,
      "ĠpeÄį": 3931,
      "ĠNÄĽmec": 3932,
      "70": 3933,
      "Ġspeciali": 3934,
      "ĠpÄĽti": 3935,
      "Ġpodnika": 3936,
      "lice": 3937,
      "pÄĽtÃŃ": 3938,
      "lce": 3939,
      "tko": 3940,
      "ĠpodmÃŃnek": 3941,
      "Ġupozor": 3942,
      "Äįej": 3943,
      "Ġseri": 3944,
      "chov": 3945,
      "Ġpy": 3946,
      "livÄĽ": 3947,
      "ĠÅ¾ivotÄĽ": 3948,
      "poz": 3949,
      "ĠnovÄĽ": 3950,
      "Ġthe": 3951,
      "Ġsklad": 3952,
      "ĠpÅĻÃŃj": 3953,
      "ĠnavÅ¡tÃŃ": 3954,
      "ĠstrÃ¡nkÃ¡ch": 3955,
      "mlou": 3956,
      "ĠÃºvÄĽ": 3957,
      "Ġserver": 3958,
      "ĠmyÅ¡len": 3959,
      "ĠnezÃ¡": 3960,
      "Ġohro": 3961,
      "ĠzdravotnÃŃ": 3962,
      "ĠjejÃŃm": 3963,
      "Ġrepublice": 3964,
      "Ġkg": 3965,
      "ĠdneÅ¡nÃŃ": 3966,
      "Ġuplat": 3967,
      "ĠrÃ¡no": 3968,
      "NO": 3969,
      "Ġseznam": 3970,
      "ĠÄįeskÃ½ch": 3971,
      "ĠvÄĽtÅ¡ina": 3972,
      "IS": 3973,
      "Ġhe": 3974,
      "ĠpÅĻipomÃŃ": 3975,
      "Ġmajet": 3976,
      "kÄįnÃŃ": 3977,
      "Ġzastup": 3978,
      "Ġhroz": 3979,
      "Ġkonku": 3980,
      "Ġpojist": 3981,
      "ĠjednÃŃm": 3982,
      "Ġonemoc": 3983,
      "Ġodol": 3984,
      "In": 3985,
      "pila": 3986,
      "tla": 3987,
      "ĠstaÄįÃŃ": 3988,
      "nech": 3989,
      "ĠKromÄĽ": 3990,
      "ĠStÅĻe": 3991,
      "tury": 3992,
      "Ġmech": 3993,
      "Ġkraje": 3994,
      "itÃ¡": 3995,
      "ĠmÄĽsÃŃce": 3996,
      "ĠvÃ¡Å¡": 3997,
      "23": 3998,
      "Ġservis": 3999,
      "ĠprÃ½": 4000,
      "dku": 4001,
      "ĠÅĻ": 4002,
      "Ġagen": 4003,
      "Å¾Ã¡": 4004,
      "Ã³n": 4005,
      "ĠÄĮeskÃ¡": 4006,
      "lovÃ¡": 4007,
      "Ġstranu": 4008,
      "Ġdostane": 4009,
      "ĠpÅĻÃŃÅ¡tÃŃ": 4010,
      "mentu": 4011,
      "ĠvysokÃ©": 4012,
      "ĠAr": 4013,
      "Ġstal": 4014,
      "Ġplast": 4015,
      "ĠMezi": 4016,
      "uro": 4017,
      "ĠJose": 4018,
      "couz": 4019,
      "ik": 4020,
      "KA": 4021,
      "ĠvaÅ¡i": 4022,
      "ĠmlÃ©": 4023,
      "ĠpodÃ¡": 4024,
      "ĠzaÅĻa": 4025,
      "Ġatmosf": 4026,
      "pal": 4027,
      "ĠzveÅĻej": 4028,
      "ĠpÃ©Äįe": 4029,
      "ĠNavÃŃc": 4030,
      "Ġkal": 4031,
      "pce": 4032,
      "ĠzÃ¡bav": 4033,
      "Ġovo": 4034,
      "Ġreak": 4035,
      "dlem": 4036,
      "Ġrad": 4037,
      "ÅĻili": 4038,
      "chodu": 4039,
      "ĠQ": 4040,
      "Ġkomuni": 4041,
      "Ġsly": 4042,
      "Ġjakou": 4043,
      "ĠnÃ¡mi": 4044,
      "ĠzÃŃskat": 4045,
      "ĠÅ¡pi": 4046,
      "ĠhodnocenÃŃ": 4047,
      "ĠpÅĻÃŃtom": 4048,
      "tku": 4049,
      "Ġosla": 4050,
      "IC": 4051,
      "Ġsen": 4052,
      "ĠSpoleÄį": 4053,
      "kazuje": 4054,
      "Ġdostat": 4055,
      "dosti": 4056,
      "Ġpodzi": 4057,
      "ĠMorav": 4058,
      "OD": 4059,
      "and": 4060,
      "ĠvyjÃ¡d": 4061,
      "ff": 4062,
      "vanÃ¡": 4063,
      "rka": 4064,
      "one": 4065,
      "rku": 4066,
      "Ġdeta": 4067,
      "ĠmusÃŃm": 4068,
      "Ġ2011": 4069,
      "dci": 4070,
      "kcÃŃ": 4071,
      "Ġup": 4072,
      "ĠmetrÅ¯": 4073,
      "ĠideÃ¡lnÃŃ": 4074,
      "Ġindividu": 4075,
      "Ġkonzu": 4076,
      "Ġsoci": 4077,
      "Ġsouladu": 4078,
      "poledne": 4079,
      "Ġlist": 4080,
      "¿½": 4081,
      "Ġsli": 4082,
      "ĠpÅĻÃŃbÄĽh": 4083,
      "Ġsyn": 4084,
      "ovu": 4085,
      "ï¿½": 4086,
      "Äįeno": 4087,
      "Ġpubli": 4088,
      "sledek": 4089,
      "oby": 4090,
      "Ġrezer": 4091,
      "Ġknihov": 4092,
      "ĠvÃ½z": 4093,
      "Ġhlou": 4094,
      "ont": 4095,
      "Ġbateri": 4096,
      "ĠmÄĽstÄĽ": 4097,
      "Ġrodiny": 4098,
      "sloven": 4099,
      "desÃ¡t": 4100,
      "stÄĽji": 4101,
      "Ġstruktu": 4102,
      "Ġabychom": 4103,
      "ĠstejnÃ©": 4104,
      "ĠpÅĻijde": 4105,
      "ĠVla": 4106,
      "ĠplnÄĽ": 4107,
      "Ob": 4108,
      "Ġroli": 4109,
      "Ġole": 4110,
      "ĠvelkÃ¡": 4111,
      "ĠÃºÅ¾as": 4112,
      "ĠdÅ¯m": 4113,
      "ĠspÃŃÅ¡": 4114,
      "ĠpoÄįtu": 4115,
      "lÃ¡n": 4116,
      "ĠnabÃŃdky": 4117,
      "ĠprÃ¡zd": 4118,
      "mb": 4119,
      "ĠkÅĻi": 4120,
      "ĠopatÅĻenÃŃ": 4121,
      "Ġvrcho": 4122,
      "ĠSna": 4123,
      "ĠnÃ¡vÅ¡tÄĽvnÃŃ": 4124,
      "ĠnÃŃÅ¾": 4125,
      "nebankovnÃŃ": 4126,
      "Ġpol": 4127,
      "ĠslouÅ¾ÃŃ": 4128,
      "99": 4129,
      "Ġnato": 4130,
      "ĠTyto": 4131,
      "ĠuvÄĽdo": 4132,
      "tern": 4133,
      "ĠnichÅ¾": 4134,
      "Ġpoziti": 4135,
      "ĠsmÄĽrem": 4136,
      "Ġdlu": 4137,
      "ĠdokÃ¡Å¾e": 4138,
      "lenou": 4139,
      "Ġzdrav": 4140,
      "die": 4141,
      "ĠprosÃŃm": 4142,
      "tili": 4143,
      "ĠhÅĻi": 4144,
      "Ġsever": 4145,
      "Ġdemo": 4146,
      "ĠvÃ½raznÄĽ": 4147,
      "Äįnou": 4148,
      "Ch": 4149,
      "ĠzÃºÄįast": 4150,
      "ÄįenÃŃm": 4151,
      "metrÅ¯": 4152,
      "Ġfran": 4153,
      "MA": 4154,
      "Ġkriti": 4155,
      "Ġfilmu": 4156,
      "mysle": 4157,
      "tÅ¡": 4158,
      "Ġstran": 4159,
      "Ġzhruba": 4160,
      "kosti": 4161,
      "Å¡ak": 4162,
      "ĠRi": 4163,
      "ĠdrÃ¡": 4164,
      "denti": 4165,
      "Ġsho": 4166,
      "tal": 4167,
      "vila": 4168,
      "ĠMartin": 4169,
      "rovnÃ¡": 4170,
      "No": 4171,
      "Ġdvoj": 4172,
      "Ġkor": 4173,
      "ĠmyslÃŃ": 4174,
      "Ġ2010": 4175,
      "Ġvidea": 4176,
      "ĠbuÄı": 4177,
      "hel": 4178,
      "Ġzmi": 4179,
      "ĠvÃ½povÄĽ": 4180,
      "Ġustan": 4181,
      "ĠtÃ½mu": 4182,
      "Ġdobr": 4183,
      "ĠsbÃŃ": 4184,
      "hodnÃ©": 4185,
      "Ġmana": 4186,
      "ĠST": 4187,
      "Ġautobu": 4188,
      "Ð°": 4189,
      "pÅĻi": 4190,
      "nilo": 4191,
      "jÅ¡ÃŃm": 4192,
      "Ã©ra": 4193,
      "ĠKri": 4194,
      "ĠdvÄĽma": 4195,
      "Ġkle": 4196,
      "Ġspa": 4197,
      "onÃ¡": 4198,
      "lon": 4199,
      "Ġhou": 4200,
      "35": 4201,
      "ĠvÅ¯Äįi": 4202,
      "ĠovÄĽ": 4203,
      "ĠchuÅ¥": 4204,
      "stri": 4205,
      "ĠnastavenÃŃ": 4206,
      "Ġrukou": 4207,
      "ĠvÃ½u": 4208,
      "kan": 4209,
      "ĠhrÃ¡t": 4210,
      "ab": 4211,
      "Ġnaro": 4212,
      "Ã¡lnÃŃho": 4213,
      "Ġzim": 4214,
      "Ġelektroni": 4215,
      "atÃŃm": 4216,
      "ĠThe": 4217,
      "2018": 4218,
      "St": 4219,
      "jedno": 4220,
      "ĠnevÃŃ": 4221,
      "ÄįenÃ©": 4222,
      "dalo": 4223,
      "Ġhodnoty": 4224,
      "PS": 4225,
      "Ġcentra": 4226,
      "OL": 4227,
      "ĠPla": 4228,
      "Ġabsol": 4229,
      "ceti": 4230,
      "tura": 4231,
      "Ġneod": 4232,
      "bem": 4233,
      "hÃ¡nÃŃ": 4234,
      "fikace": 4235,
      "ĠStra": 4236,
      "Ġbarvy": 4237,
      "ĠTomÃ¡": 4238,
      "21": 4239,
      "ĠÃºno": 4240,
      "Ġoba": 4241,
      "kor": 4242,
      "vaÅ¾": 4243,
      "Ġzv": 4244,
      "Ġdoba": 4245,
      "zÃŃm": 4246,
      "Ġposla": 4247,
      "ĠpÅĻÃŃpad": 4248,
      "ws": 4249,
      "ĠkaÅ¾do": 4250,
      "livÃ©": 4251,
      "ĠbalÃŃ": 4252,
      "rnÃ©": 4253,
      "teÄįnÃ©": 4254,
      "Ġobvykle": 4255,
      "ĠokamÅ¾i": 4256,
      "ĠsvÃ½mi": 4257,
      "Ġinspi": 4258,
      "Ġzapla": 4259,
      "ĠsmÃŃ": 4260,
      "Ġminul": 4261,
      "pravÄĽ": 4262,
      "ĠHor": 4263,
      "ĠÅ½i": 4264,
      "Äįt": 4265,
      "Ġmoder": 4266,
      "DobrÃ½": 4267,
      "ĠdelÅ¡ÃŃ": 4268,
      "Ġdefin": 4269,
      "enstvÃŃ": 4270,
      "mal": 4271,
      "ĠdennÄĽ": 4272,
      "kraj": 4273,
      "Ġpoly": 4274,
      "Ã¡tor": 4275,
      "znamu": 4276,
      "ĠUni": 4277,
      "ĠnÃ¡slednÄĽ": 4278,
      "Ġmikro": 4279,
      "Ġsoupe": 4280,
      "Ġtakto": 4281,
      "bud": 4282,
      "ĠÃºs": 4283,
      "ĠdaÅĪ": 4284,
      "tat": 4285,
      "chal": 4286,
      "ĠzemÃŃ": 4287,
      "ĠÅ¡est": 4288,
      "dovÃ©": 4289,
      "Ġposte": 4290,
      "ĠzÃ¡sob": 4291,
      "ĠspotÅĻebi": 4292,
      "ĠFo": 4293,
      "fu": 4294,
      "ĠStÃ¡": 4295,
      "ery": 4296,
      "Ġmohlo": 4297,
      "Ġhot": 4298,
      "Ġvelikosti": 4299,
      "Ġspoustu": 4300,
      "Ġlistopadu": 4301,
      "Ġ>>": 4302,
      "rom": 4303,
      "kr": 4304,
      "skosloven": 4305,
      "Ġsvoji": 4306,
      "ĠVÃ¡cla": 4307,
      "lÃ©pe": 4308,
      "zvem": 4309,
      "Ġobjem": 4310,
      "Ġtan": 4311,
      "smu": 4312,
      "ĠobleÄįenÃŃ": 4313,
      "Ġzbra": 4314,
      "ĠpodaÅĻilo": 4315,
      "ĠÅĻada": 4316,
      "nese": 4317,
      "Ġdove": 4318,
      "ĠÄįle": 4319,
      "knout": 4320,
      "Ġoboru": 4321,
      "ĠsportovnÃŃ": 4322,
      "Ġsymbo": 4323,
      "ĠpovÃŃ": 4324,
      "ÅĪovÃ¡nÃŃ": 4325,
      "ĠpÃŃsem": 4326,
      "ĠJedno": 4327,
      "terÃ©": 4328,
      "ĠhÃ¡": 4329,
      "ĠnÃ¡zvem": 4330,
      "Ten": 4331,
      "Ġvyh": 4332,
      "stÃ¡le": 4333,
      "Ã¡tky": 4334,
      "ĠutkÃ¡nÃŃ": 4335,
      "Ġudr": 4336,
      "ĠznÄĽnÃŃ": 4337,
      "Ġdce": 4338,
      "ĠkÅ¯": 4339,
      "mail": 4340,
      "tÃ¡ch": 4341,
      "gii": 4342,
      "padlo": 4343,
      "Ġrekonstru": 4344,
      "ĠkÃ³": 4345,
      "Ġmod": 4346,
      "Ġuvi": 4347,
      "veden": 4348,
      "cu": 4349,
      "Ġverze": 4350,
      "Ġpove": 4351,
      "26": 4352,
      "Ġvoda": 4353,
      "ation": 4354,
      "ĠorgÃ¡n": 4355,
      "dago": 4356,
      "Ġvyvo": 4357,
      "Ġjednom": 4358,
      "th": 4359,
      "vosti": 4360,
      "Ġodvo": 4361,
      "ĠnÃ¡mÄĽstÃŃ": 4362,
      "ĠNebo": 4363,
      "ĠÅĻadÄĽ": 4364,
      "OS": 4365,
      "EM": 4366,
      "ĠdalÅ¡ÃŃm": 4367,
      "ĠostatnÃŃch": 4368,
      "vobo": 4369,
      "Ġnovin": 4370,
      "Ġchemi": 4371,
      "vnitÅĻ": 4372,
      "ĠsnÃŃm": 4373,
      "Ġzav": 4374,
      "Ġnapo": 4375,
      "rej": 4376,
      "Ġhotelu": 4377,
      "ĠÅĻady": 4378,
      "JÃ¡": 4379,
      "ĠAsi": 4380,
      "ĠhlÃ¡": 4381,
      "Ġtrest": 4382,
      "Ġtep": 4383,
      "ĠdesÃŃ": 4384,
      "ĠsklÃ¡": 4385,
      "ĠÅłko": 4386,
      "ĠÅĺe": 4387,
      "ĠcÃŃlem": 4388,
      "Ġvra": 4389,
      "hal": 4390,
      "Ġpracovat": 4391,
      "bilnÃŃ": 4392,
      "ĠnemÃ¡m": 4393,
      "alizace": 4394,
      "Ġ198": 4395,
      "ÅĪovat": 4396,
      "Ġprosin": 4397,
      "Ðµ": 4398,
      "ĠzemÄĽdÄĽl": 4399,
      "Ġsportov": 4400,
      "Ġdal": 4401,
      "rny": 4402,
      "oko": 4403,
      "hroma": 4404,
      "delnÃŃ": 4405,
      "ĠniÅ¾Å¡ÃŃ": 4406,
      "ĠVyso": 4407,
      "ĠMat": 4408,
      "Ġenerge": 4409,
      "inek": 4410,
      "ĠdivÃ¡": 4411,
      "ĠposÃŃ": 4412,
      "ĠDÃ¡le": 4413,
      "mech": 4414,
      "lnÃ©": 4415,
      "Ġtisk": 4416,
      "gr": 4417,
      "ilu": 4418,
      "vuje": 4419,
      "ĠpozdÄĽ": 4420,
      "ÅĪte": 4421,
      "ĠstÃ¡tu": 4422,
      "ĠchtÄĽla": 4423,
      "Ġabyste": 4424,
      ".:": 4425,
      "Å¡etÅĻ": 4426,
      "Te": 4427,
      "Ġregu": 4428,
      "bÄĽr": 4429,
      "ĠrodiÄįe": 4430,
      "Ġmuze": 4431,
      "kologi": 4432,
      "ĠdÅ¯sled": 4433,
      "Ġfunkci": 4434,
      "ĠÄįtenÃ¡": 4435,
      "ĠhvÄĽz": 4436,
      "Ġpohybu": 4437,
      "ks": 4438,
      "ĠStu": 4439,
      "rÃ¡tit": 4440,
      "ĠprohlÃ¡": 4441,
      "ĠDP": 4442,
      "ĠWin": 4443,
      "Ġ45": 4444,
      "ĠBez": 4445,
      "ĠÃºrovni": 4446,
      "ĠnÃ¡zev": 4447,
      "chem": 4448,
      "Ġprezen": 4449,
      "AS": 4450,
      "zÅ¯": 4451,
      "ĠmasÃ¡": 4452,
      "Ġ31": 4453,
      "moc": 4454,
      "PÅĻÃŃ": 4455,
      "Ġjo": 4456,
      "ĠtrÃ©nin": 4457,
      "skyt": 4458,
      "rami": 4459,
      "ĠklÃŃÄį": 4460,
      "Ġmysle": 4461,
      "Ġfirma": 4462,
      "ĠkrÃ¡snÃ©": 4463,
      "lar": 4464,
      "Ġdisk": 4465,
      "pÃ¡nÃŃ": 4466,
      "Ġpohledu": 4467,
      "ĠvÅ¾dycky": 4468,
      "Pr": 4469,
      "!!!": 4470,
      "ĠbodÅ¯": 4471,
      "enty": 4472,
      "Ġkarty": 4473,
      "Ġtext": 4474,
      "Ġnoci": 4475,
      "Ġmusel": 4476,
      "lus": 4477,
      "Ġpodrob": 4478,
      "chÃ¡zejÃŃ": 4479,
      "Ġturna": 4480,
      "ĠvÃ½robce": 4481,
      "inÃ¡ch": 4482,
      "Ġobli": 4483,
      "Ġwebu": 4484,
      "ĠSu": 4485,
      "ĠvybÃŃ": 4486,
      "27": 4487,
      "ĠDa": 4488,
      "Ġfestival": 4489,
      "ĠHD": 4490,
      "zala": 4491,
      "Ã³ny": 4492,
      "ĠOlomou": 4493,
      "Dr": 4494,
      "ĠSamo": 4495,
      "ĠmÄĽsÃŃc": 4496,
      "Ġvztahu": 4497,
      "US": 4498,
      "enÃ½mi": 4499,
      "vak": 4500,
      "Ġrozvoj": 4501,
      "ĠcestÄĽ": 4502,
      "Ġsig": 4503,
      "Ġporno": 4504,
      "leb": 4505,
      "ym": 4506,
      "ĠtÃ©Å¾": 4507,
      "Å¡tina": 4508,
      "vice": 4509,
      "ĠsÃŃtÄĽ": 4510,
      "ĠchtÄĽjÃŃ": 4511,
      "ĠvydÃ¡": 4512,
      "Ġokolo": 4513,
      "ĠjejichÅ¾": 4514,
      "boo": 4515,
      "lÃ¡rnÃŃ": 4516,
      "ĠCÃŃ": 4517,
      "ĠPor": 4518,
      "cenÄĽ": 4519,
      "Ġsrdce": 4520,
      "ĠpouÅ¾ÃŃvat": 4521,
      "ĠknÃŃ": 4522,
      "Ġvlasy": 4523,
      "napÅĻ": 4524,
      "ĠÅ¾ena": 4525,
      "ĠprodÃ¡vajÃŃcÃŃ": 4526,
      "ĠvÃ½stup": 4527,
      "ĠzÅĻejmÄĽ": 4528,
      "ĠtakovÃ¡": 4529,
      "ĠpÅĻÃ¡tel": 4530,
      "ÅĻÃŃv": 4531,
      "Ġvztah": 4532,
      "Ġchci": 4533,
      "Re": 4534,
      "nikajÃŃcÃŃ": 4535,
      "Ġsestav": 4536,
      "Ġdnech": 4537,
      "ĠzaÅĻÃŃ": 4538,
      "Ġbal": 4539,
      "Ġlidem": 4540,
      "ĠvybavenÃŃ": 4541,
      "ĠseznÃ¡": 4542,
      "ceme": 4543,
      "ĠcelÃ©m": 4544,
      "ĠpÃ¡tek": 4545,
      "Ġinten": 4546,
      "Ġlokali": 4547,
      "mnÄĽ": 4548,
      "vÅ¡ak": 4549,
      "Ġosoba": 4550,
      "ĠZde": 4551,
      "ĠplÃ¡nu": 4552,
      "ret": 4553,
      "tÃŃt": 4554,
      "ĠfÃ¡": 4555,
      "ĠBi": 4556,
      "ĠmilionÅ¯": 4557,
      "ĠnÃ¡kup": 4558,
      "ĠJaro": 4559,
      "jete": 4560,
      "ĠnÄĽmu": 4561,
      "ĠpÅĻibli": 4562,
      "ĠzamÄĽÅĻ": 4563,
      "Ġpoby": 4564,
      "Ġrecep": 4565,
      "ĠzÃ¡klad": 4566,
      "lÃ©ho": 4567,
      "ĠnemajÃŃ": 4568,
      "ĠskÅĻÃŃ": 4569,
      "Ġmedi": 4570,
      "Ġzap": 4571,
      "ĠÄįtvrt": 4572,
      "strÃ¡": 4573,
      "Ale": 4574,
      "ĠdÅĻevÄĽ": 4575,
      "Ġ300": 4576,
      "ĠmÃ©ho": 4577,
      "ĠFor": 4578,
      "terÃ½": 4579,
      "nutÃŃm": 4580,
      "Ġbod": 4581,
      "ĠnÃ¡vrh": 4582,
      "ĠTer": 4583,
      "hoj": 4584,
      "Ġstalo": 4585,
      "dlenÃŃ": 4586,
      "Ġinform": 4587,
      "Ġinteri": 4588,
      "mile": 4589,
      "ĠJana": 4590,
      "sor": 4591,
      "ĠpÅĻÃŃpadech": 4592,
      "ĠTÃŃm": 4593,
      "Ġ&": 4594,
      "bÃ¡ch": 4595,
      "ĠpoÅĻÃŃ": 4596,
      "Ġcesta": 4597,
      "Ġvybrat": 4598,
      "leÅ¾ÃŃ": 4599,
      "28": 4600,
      "Ġmot": 4601,
      "chyb": 4602,
      "Ġsubje": 4603,
      "novÄĽ": 4604,
      "Ġosa": 4605,
      "hajÃŃ": 4606,
      "Å¾ku": 4607,
      "Å¾enÃŃm": 4608,
      "ÄįÃŃch": 4609,
      "Ġstavby": 4610,
      "nam": 4611,
      "ĠukonÄįenÃŃ": 4612,
      "ĠkancelÃ¡": 4613,
      "Ġkov": 4614,
      "Ġsouvislosti": 4615,
      "ĠSi": 4616,
      "Ġdeset": 4617,
      "ĠKaÅ¾dÃ½": 4618,
      "ĠmusÃŃte": 4619,
      "Å¾ÃŃm": 4620,
      "ĠzÃ¡ru": 4621,
      "ĠmÃ³": 4622,
      "laci": 4623,
      "mov": 4624,
      "jnÄĽ": 4625,
      "Ġbody": 4626,
      "tujÃŃ": 4627,
      "PÅĻed": 4628,
      "ĠumÄĽnÃŃ": 4629,
      "formace": 4630,
      "ĠAp": 4631,
      "Ġtechnologie": 4632,
      "ĠvzÃ¡jem": 4633,
      "lti": 4634,
      "ĠNic": 4635,
      "vÃ©ho": 4636,
      "Å¾nost": 4637,
      "Ġklub": 4638,
      "ĠzajÃŃma": 4639,
      "ĠspojenÃŃ": 4640,
      "ĠpenÄĽz": 4641,
      "Äįeb": 4642,
      "Ġdigit": 4643,
      "Ġpomalu": 4644,
      "ĠpoloÅ¾": 4645,
      "Ġskupin": 4646,
      "Ġpropa": 4647,
      "ĠOstra": 4648,
      "dennÃŃ": 4649,
      "ĠjasnÃ©": 4650,
      "ĠcelÃ¡": 4651,
      "Ġfotografie": 4652,
      "Ġauta": 4653,
      "ĠtentokrÃ¡t": 4654,
      "Ġdop": 4655,
      "vise": 4656,
      "Ġele": 4657,
      "Ġevi": 4658,
      "Ġchod": 4659,
      "ĠdlouhÃ©": 4660,
      "ĠvlÃ¡dy": 4661,
      "Ġlou": 4662,
      "Ġstr": 4663,
      "Ġimp": 4664,
      "ovatele": 4665,
      "lovÃ½ch": 4666,
      "Ġsmysl": 4667,
      "ĠmaximÃ¡lnÃŃ": 4668,
      "Ġkoupel": 4669,
      "kvi": 4670,
      "ĠTV": 4671,
      "Ġkat": 4672,
      "ĠsetkÃ¡nÃŃ": 4673,
      "ĠByl": 4674,
      "ĠvyhledÃ¡": 4675,
      "ĠHar": 4676,
      "ĠstavebnÃŃ": 4677,
      "gram": 4678,
      "Ġrady": 4679,
      "ĠSloven": 4680,
      "Ġrepre": 4681,
      "ĠpodobnÄĽ": 4682,
      "ld": 4683,
      "Ġoblast": 4684,
      "Ġhlubo": 4685,
      "rÃ¡ch": 4686,
      "Ho": 4687,
      "ĠzpÄĽ": 4688,
      "Ġprocent": 4689,
      "ĠchovÃ¡nÃŃ": 4690,
      "Ã©ry": 4691,
      "ÅĻenÃŃm": 4692,
      "ĠSla": 4693,
      "Ġpas": 4694,
      "ĠDav": 4695,
      "Ġsoudu": 4696,
      "ĠÃºva": 4697,
      "ĠpÅĻeno": 4698,
      "Ġgrafi": 4699,
      "ĠStar": 4700,
      "sh": 4701,
      "ĠumÄĽle": 4702,
      "razil": 4703,
      "Å¡tÄĽstÃŃ": 4704,
      "Ġoto": 4705,
      "ĠhledÃ¡": 4706,
      "Ġextra": 4707,
      "ĠsprÃ¡vnÄĽ": 4708,
      "ĠvzdÄĽlÃ¡nÃŃ": 4709,
      "novÃ¡": 4710,
      "vÅ¯r": 4711,
      "star": 4712,
      "ĠosobnÄĽ": 4713,
      "niÄįnÃŃ": 4714,
      "Ġpremi": 4715,
      "199": 4716,
      "ÃŃce": 4717,
      "ĠPan": 4718,
      "ĠvysÃŃ": 4719,
      "Ġocho": 4720,
      "ĠTakÃ©": 4721,
      "ĠHu": 4722,
      "ÄįemÅ¾": 4723,
      "ĠpÅĻedem": 4724,
      "ton": 4725,
      "ĠpoÅ¾Ã¡": 4726,
      "ĠrozpoÄį": 4727,
      "ĠkonkrÃ©tnÃŃ": 4728,
      "Ġpsycho": 4729,
      "rel": 4730,
      "lemati": 4731,
      "ĠskuteÄįnosti": 4732,
      "xx": 4733,
      "Ġhlediska": 4734,
      "Ġkvality": 4735,
      "Ġpoplat": 4736,
      "lenÃ½": 4737,
      "tora": 4738,
      "Ġnechce": 4739,
      "ĠveÅĻejnÃ©": 4740,
      "Ġobchod": 4741,
      "Ġvystav": 4742,
      "platek": 4743,
      "AM": 4744,
      "ovin": 4745,
      "Ġ;": 4746,
      "ĠVÃ¡no": 4747,
      "ÅĻÃŃme": 4748,
      "Ġosm": 4749,
      "Ġvzhledem": 4750,
      "ĠpÅĻiÅ¡el": 4751,
      "ĠIng": 4752,
      "Ġnejde": 4753,
      "ĠneustÃ¡le": 4754,
      "ĠÅ¡an": 4755,
      "Å¡ÃŃch": 4756,
      "Ġfunguje": 4757,
      "pie": 4758,
      "vanÃ©": 4759,
      "Ġzakou": 4760,
      "Ġspoluprac": 4761,
      "ĠNak": 4762,
      "\\\\\\\\\\\\\\\\": 4763,
      "Ġpoch": 4764,
      "ĠÃºstav": 4765,
      "ĠlÃ©kaÅĻ": 4766,
      "Â°": 4767,
      "cro": 4768,
      "ingu": 4769,
      "au": 4770,
      "kÃ©m": 4771,
      "Ġkontakt": 4772,
      "Ġnezbyt": 4773,
      "Ġkonfer": 4774,
      "jezdu": 4775,
      "vovat": 4776,
      "Ġsrp": 4777,
      "ĠdveÅĻe": 4778,
      "Ġnaho": 4779,
      "By": 4780,
      "AD": 4781,
      "ĠpÅĻedstavuje": 4782,
      "hrÃ¡l": 4783,
      "Ġinf": 4784,
      "tickÃ½": 4785,
      "ĠproblÃ©mÅ¯": 4786,
      "Ġmar": 4787,
      "mÄĽst": 4788,
      "ĠkaÅ¾dou": 4789,
      "ĠvaÅ¡ÃŃ": 4790,
      "ĠkrÃ¡lov": 4791,
      "Ġvych": 4792,
      "ĠFi": 4793,
      "dejte": 4794,
      "ĠÅĺÃŃ": 4795,
      "zaÄįnÃŃ": 4796,
      "ĠpÅĻinÃ¡Å¡ÃŃ": 4797,
      "ĠBer": 4798,
      "ister": 4799,
      "ĠvydÃ¡nÃŃ": 4800,
      "ĠBylo": 4801,
      "ĠprostÅĻedky": 4802,
      "ĠnenÃ¡": 4803,
      "Ġvelikost": 4804,
      "ĠvnÃŃm": 4805,
      "ĠpoÅĻÃ¡": 4806,
      "Ġopu": 4807,
      "ĠvytÃ¡": 4808,
      "tejnÄĽ": 4809,
      "seli": 4810,
      "ĠKe": 4811,
      "Ġvzduchu": 4812,
      "volu": 4813,
      "ĠpromÄĽ": 4814,
      "ĠÄįase": 4815,
      "ĠtÅĻ": 4816,
      "stila": 4817,
      "ĠzamÄĽstna": 4818,
      "ĠpodstatÄĽ": 4819,
      "Ġsmyslu": 4820,
      "ĠSlu": 4821,
      "Å¡te": 4822,
      "mÃŃr": 4823,
      "Ġmuset": 4824,
      "Ġprinci": 4825,
      "ID": 4826,
      "Ġprakticky": 4827,
      "ĠaktuÃ¡lnÃŃ": 4828,
      "ĠnÃ¡bo": 4829,
      "ĠprvnÃŃho": 4830,
      "ĠcelkovÃ©": 4831,
      "ĠlÃ¡tky": 4832,
      "33": 4833,
      "ĠkaÅ¾dÃ©m": 4834,
      "ĠradÄĽji": 4835,
      "inÃ¡le": 4836,
      "Ġzr": 4837,
      "ĠplnÄĽnÃŃ": 4838,
      "ĠÅĻÃ¡": 4839,
      "ĠbalenÃŃ": 4840,
      "han": 4841,
      "Å¡nÃ©": 4842,
      "ĠplnÃ©": 4843,
      "ĠvzpomÃŃ": 4844,
      "ĠÅ½e": 4845,
      "Ġskle": 4846,
      "ĠvÃ¡lky": 4847,
      "Ġskla": 4848,
      "Ġhroma": 4849,
      "Ġkalen": 4850,
      "Ġ36": 4851,
      "Ġokol": 4852,
      "ĠjelikoÅ¾": 4853,
      "pÅĻÃŃklad": 4854,
      "Ġ2009": 4855,
      "Ġstati": 4856,
      "Ġkoncer": 4857,
      "ÅĻÃŃt": 4858,
      "fun": 4859,
      "rok": 4860,
      "ser": 4861,
      "ĠspoleÄįnostÃŃ": 4862,
      "ĠnemÄĽl": 4863,
      "Ġochranu": 4864,
      "ĠKrÃ¡": 4865,
      "Ġofi": 4866,
      "ðŁ": 4867,
      "lovat": 4868,
      "dnosti": 4869,
      "Ġuvedl": 4870,
      "Ġtrh": 4871,
      "ĠdÄĽj": 4872,
      "Ġztra": 4873,
      "ĠonemocnÄĽnÃŃ": 4874,
      "produ": 4875,
      "Ġvodou": 4876,
      "ĠÅ¡kolnÃŃ": 4877,
      "dacÃŃ": 4878,
      "ĠÅ¡tÄĽstÃŃ": 4879,
      "Ġy": 4880,
      "75": 4881,
      "gle": 4882,
      "Ġand": 4883,
      "ĠÄįaso": 4884,
      "ĠzaÄįne": 4885,
      "konÃ¡": 4886,
      "avÃ¡": 4887,
      "zel": 4888,
      "ÄĽjÅ¡ÃŃ": 4889,
      "Ġnapl": 4890,
      "nÄĽjÅ¡ÃŃm": 4891,
      "Ġnechat": 4892,
      "lila": 4893,
      "bek": 4894,
      "Å¾ela": 4895,
      "Ġrozhov": 4896,
      "hlednÄĽ": 4897,
      "Ġstrate": 4898,
      "ĠpÅĻedchozÃŃ": 4899,
      "ĠtÄĽle": 4900,
      "ĠzajÃŃmavÃ©": 4901,
      "ĠgÃ³": 4902,
      "Ġformou": 4903,
      "Ð¸": 4904,
      "DalÅ¡ÃŃ": 4905,
      "ĠProtoÅ¾e": 4906,
      "Ġpokoje": 4907,
      "Ġpon": 4908,
      "EC": 4909,
      "Ġkategorii": 4910,
      "Ġona": 4911,
      "Ġsmlu": 4912,
      "ĠBrnÄĽ": 4913,
      "tisk": 4914,
      "Ġsedm": 4915,
      "Ġrespe": 4916,
      "ĠmuÅ¾e": 4917,
      "zent": 4918,
      "ĠzÃ¡ch": 4919,
      "zena": 4920,
      "Ġskupina": 4921,
      "Ġdeseti": 4922,
      "ĠzadnÃŃ": 4923,
      "odpovÄĽ": 4924,
      "ĠnÃ¡stroj": 4925,
      "ÅĪujÃŃcÃŃ": 4926,
      "Ġpokoj": 4927,
      "Ġpedago": 4928,
      "tnÃŃm": 4929,
      "Ġzelen": 4930,
      "Ġsexu": 4931,
      "Ġinstitu": 4932,
      "ĠKrÃ¡l": 4933,
      "Ġostrov": 4934,
      "ĠpouÅ¾i": 4935,
      "vÄĽjÅ¡ÃŃ": 4936,
      "ĠdomÃ¡c": 4937,
      "hlo": 4938,
      "ĠpÅĻiÄįemÅ¾": 4939,
      "Ġochrany": 4940,
      "ĠzastÃ¡": 4941,
      "Ġkomunikace": 4942,
      "ĠdÅ¯vodÅ¯": 4943,
      "Ġvznik": 4944,
      "Ġ150": 4945,
      "Ġdoru": 4946,
      "ĠDnes": 4947,
      "ĠvÃ½roby": 4948,
      "Ġnoc": 4949,
      "Ġluxus": 4950,
      "ĠRak": 4951,
      "ĠsvÃ©mu": 4952,
      "ĠmalÃ½": 4953,
      "ia": 4954,
      "Ġvypa": 4955,
      "ĠtermÃŃ": 4956,
      "dubi": 4957,
      "ĠÅĻekla": 4958,
      "ĠzÃ¡j": 4959,
      "Ġjedine": 4960,
      "ĠhudebnÃŃ": 4961,
      "ĠvÄĽdÄĽt": 4962,
      "dilo": 4963,
      "Ġnaleznete": 4964,
      "Ã©nu": 4965,
      "ĠodbornÃŃ": 4966,
      "29": 4967,
      "ĠnedÄĽli": 4968,
      "ĠDÅ¯": 4969,
      "ĠVÅ¡echny": 4970,
      "Ġneda": 4971,
      "ĠletoÅ¡": 4972,
      "ĠmoÅ¾no": 4973,
      "ĠEvropÄĽ": 4974,
      "Ġnesta": 4975,
      "Ġnejd": 4976,
      "Ġhotel": 4977,
      "Ġneg": 4978,
      "Ġbrzy": 4979,
      "Ġposlou": 4980,
      "Ġdosud": 4981,
      "ĠnejlÃ©pe": 4982,
      "ĠzahraniÄįÃŃ": 4983,
      "ĠprospÄĽ": 4984,
      "ĠvÃŃm": 4985,
      "ĠobtÃŃ": 4986,
      "ĠzaÄįÃŃt": 4987,
      "Ma": 4988,
      "ĠzvlÃ¡Å¡tnÃŃ": 4989,
      "hodnÄĽ": 4990,
      "ĠptÃ¡": 4991,
      "Ġfrancouz": 4992,
      "ober": 4993,
      "OT": 4994,
      "Ġdobro": 4995,
      "ĠleÅ¾ÃŃ": 4996,
      "ĠCZ": 4997,
      "Ġlogi": 4998,
      "Ġzaru": 4999,
      "ĠduÅ¡e": 5000,
      "ĠpÅĻednÃŃ": 5001,
      "ĠdÃ¡vÃ¡": 5002,
      "Ġsklo": 5003,
      "ĠudrÅ¾": 5004,
      "ĠdodÃ¡vÃ¡": 5005,
      "ĠschÅ¯": 5006,
      "ĠvÃ½Å¡": 5007,
      "Ġkapacit": 5008,
      "ĠÅĻÃŃjna": 5009,
      "car": 5010,
      "Ġproveden": 5011,
      "viz": 5012,
      "Ġteprve": 5013,
      "ĠpravidelnÄĽ": 5014,
      "Ġprodukty": 5015,
      "ĠSP": 5016,
      "Ġkomplex": 5017,
      "Ġpozici": 5018,
      "jÃŃmÃ¡": 5019,
      "ĠnÄĽkoho": 5020,
      "Ġaku": 5021,
      "zeÅĪ": 5022,
      "Ġju": 5023,
      "Ġbarva": 5024,
      "kuje": 5025,
      "ĠJsem": 5026,
      "Ġblog": 5027,
      "ĠVol": 5028,
      "tÅĻeb": 5029,
      "stili": 5030,
      "dly": 5031,
      "Ġsoft": 5032,
      "ĠvaÅ¡eho": 5033,
      "ĠnÄĽho": 5034,
      "okolÃ¡": 5035,
      "ĠpoznÃ¡": 5036,
      "ĠpracÃŃ": 5037,
      "ĠprobÄĽh": 5038,
      "bri": 5039,
      "kovÃ½m": 5040,
      "ĠstÅĻedu": 5041,
      "Ġpal": 5042,
      "ĠzruÅ¡enÃŃ": 5043,
      "Ġautomobil": 5044,
      "ĠodmÄĽ": 5045,
      "ĠÅ¾lu": 5046,
      "Ġ#": 5047,
      "ĠJeÅ¾ÃŃ": 5048,
      "bÃŃzÃŃme": 5049,
      "arm": 5050,
      "ĠpÅĻevÃ¡": 5051,
      "Ġvojen": 5052,
      "ĠUr": 5053,
      "Ġnasa": 5054,
      "ĠodpovÄĽÄı": 5055,
      "ĠPRO": 5056,
      "ĠmontÃ¡": 5057,
      "ĠToto": 5058,
      "ĠvyuÅ¾ÃŃvÃ¡": 5059,
      "Ġsouse": 5060,
      "Ġadresu": 5061,
      "Å¯h": 5062,
      "ware": 5063,
      "ĠnormÃ¡lnÃŃ": 5064,
      "ĠPC": 5065,
      "ĠIS": 5066,
      "kazu": 5067,
      "utor": 5068,
      "ĠKdy": 5069,
      "ĠnÃ¡dob": 5070,
      "graf": 5071,
      "Ã¼": 5072,
      "Ġmohu": 5073,
      "vence": 5074,
      "ĠnebezpeÄį": 5075,
      "Ġulici": 5076,
      "ĠMas": 5077,
      "Äįilo": 5078,
      "Ġposkytuje": 5079,
      "ĠÄįÃ¡ste": 5080,
      "ĠpronÃ¡": 5081,
      "ĠtÅĻÃŃdy": 5082,
      "telnÃ¡": 5083,
      "ĠjednoduchÃ©": 5084,
      "ĠvedoucÃŃ": 5085,
      "arket": 5086,
      "enu": 5087,
      "Ġfotky": 5088,
      "Å¾ÃŃme": 5089,
      "ĠKou": 5090,
      "Ġnijak": 5091,
      "ml": 5092,
      "Ġvod": 5093,
      "ruÅ¡": 5094,
      "tali": 5095,
      "gem": 5096,
      "Ġmnou": 5097,
      "Ġolej": 5098,
      "ĠJestli": 5099,
      "enÃ©ho": 5100,
      "ĠjednoduÅ¡e": 5101,
      "jÃŃch": 5102,
      "tah": 5103,
      "Ġlehce": 5104,
      "Ġvzniku": 5105,
      "ĠAni": 5106,
      "ĠVÃŃce": 5107,
      "Ġvodu": 5108,
      "ĠzprÃ¡vy": 5109,
      "Ġzpo": 5110,
      "Ġkategorie": 5111,
      "ĠanalÃ½": 5112,
      "ĠformulÃ¡ÅĻ": 5113,
      "klid": 5114,
      "ĠnedokÃ¡": 5115,
      "Ã©rie": 5116,
      "Ġrychlost": 5117,
      "ĠpoÄįÃŃtaÄį": 5118,
      "Ġobo": 5119,
      "ree": 5120,
      "Ġnese": 5121,
      "ĠpÃŃÅ¡e": 5122,
      "ĠvyÅĻe": 5123,
      "Le": 5124,
      "ĠÄįerst": 5125,
      "ĠminimÃ¡lnÄĽ": 5126,
      "OM": 5127,
      "ĠudÄĽlÃ¡": 5128,
      "Ġnajednou": 5129,
      "ĠpÅĻedpisÅ¯": 5130,
      "ĠmÄĽnÃŃ": 5131,
      "lzeÅĪ": 5132,
      "ĠHav": 5133,
      "ĠveÅ¡kerÃ©": 5134,
      "Ã¡tka": 5135,
      "Å¡ila": 5136,
      "ĠOr": 5137,
      "Ġnaj": 5138,
      "Ġslune": 5139,
      "Ġcestou": 5140,
      "ĠNez": 5141,
      "Ġfanou": 5142,
      "ĠpÅĻipojenÃŃ": 5143,
      "pili": 5144,
      "Ġcerti": 5145,
      "Äįnost": 5146,
      "Ġslovo": 5147,
      "oviÅ¡tÄĽ": 5148,
      "enom": 5149,
      "Ġvypad": 5150,
      "Ġsmrti": 5151,
      "ĠdalÅ¡ÃŃho": 5152,
      "ĠpoÅ¾adavky": 5153,
      "Ġrozsahu": 5154,
      "Ġspecifi": 5155,
      "ĠOn": 5156,
      "ĠjednotlivÃ©": 5157,
      "ĠodliÅ¡": 5158,
      "Ġdouf": 5159,
      "ĠzÃ¡leÅ¾ito": 5160,
      "Ġhlavy": 5161,
      "valy": 5162,
      "ĠaspoÅĪ": 5163,
      "Ġvarian": 5164,
      "ÄįÃŃtÃ¡": 5165,
      "Ġor": 5166,
      "Ġprv": 5167,
      "Ġsvoje": 5168,
      "Ġproblemati": 5169,
      "ĠSch": 5170,
      "ĠdÃ©lka": 5171,
      "ĠpodÃŃvat": 5172,
      "ĠjenÅ¾": 5173,
      "ĠvytvoÅĻit": 5174,
      "Ġzla": 5175,
      "ĠPrÅ¯": 5176,
      "48": 5177,
      "ĠchybÄĽ": 5178,
      "ĠPavel": 5179,
      "dak": 5180,
      "tika": 5181,
      "ĠMoÅ¾nÃ¡": 5182,
      "Spo": 5183,
      "ĠKr": 5184,
      "avy": 5185,
      "ĠsÃŃÅ¥": 5186,
      "ĠaktivnÃŃ": 5187,
      "dni": 5188,
      "hÃ½ch": 5189,
      "Ġsdru": 5190,
      "alÃ©": 5191,
      "Ã½Å¡": 5192,
      "ĠBro": 5193,
      "Ġrozli": 5194,
      "bytek": 5195,
      "ĠkvÄĽtna": 5196,
      "ĠdÄĽtmi": 5197,
      "onec": 5198,
      "ovka": 5199,
      "ĠvÃ½sledek": 5200,
      "ĠmoÅĻe": 5201,
      "Ġzauj": 5202,
      "Ġtj": 5203,
      "ĠdochÃ¡zÃŃ": 5204,
      "ĠroÄįnÃŃk": 5205,
      "Ġbru": 5206,
      "jÃŃcÃŃm": 5207,
      "rali": 5208,
      "obec": 5209,
      "ĠzatÃŃmco": 5210,
      "covÃ¡nÃŃ": 5211,
      "ĠustanovenÃŃ": 5212,
      "II": 5213,
      "ĠKla": 5214,
      "lÃŃm": 5215,
      "ĠcviÄįenÃŃ": 5216,
      "Ġit": 5217,
      "Ġkru": 5218,
      "ĠÄįlenÅ¯": 5219,
      "zech": 5220,
      "Ġpane": 5221,
      "Ġzb": 5222,
      "ĠmimoÅĻÃ¡d": 5223,
      "Ġstane": 5224,
      "ÃŃt": 5225,
      "ĠÅ¡patnÄĽ": 5226,
      "ĠvÅ¡ude": 5227,
      "38": 5228,
      "chÃ¡zet": 5229,
      "Ġsni": 5230,
      "Ġ2008": 5231,
      "Ġminulosti": 5232,
      "raÄįnÃŃ": 5233,
      "vatelÃ©": 5234,
      "tex": 5235,
      "panÄĽl": 5236,
      "ĠpamÃ¡t": 5237,
      "ĠpÃ©Äįi": 5238,
      "Ġmak": 5239,
      "lovÃ½": 5240,
      "Ġinvest": 5241,
      "Ġtru": 5242,
      "cenÃ©": 5243,
      "Ġbio": 5244,
      "lohy": 5245,
      "ĠtradiÄįnÃŃ": 5246,
      "Ġsprav": 5247,
      "ĠsociÃ¡lnÃŃch": 5248,
      "ĠdÅ¯vÄĽ": 5249,
      "Ġbytu": 5250,
      "ĠhlÃŃ": 5251,
      "dÃ¡ch": 5252,
      "ĠtrenÃ©": 5253,
      "ĠotÃ¡zky": 5254,
      "Ġnedosta": 5255,
      "jit": 5256,
      "ĠprvnÃŃch": 5257,
      "ĠÃºÅĻad": 5258,
      "Ġanebo": 5259,
      "tickÃ¡": 5260,
      "Ġaktivity": 5261,
      "ĠvyprÃ¡": 5262,
      "Ġtakovou": 5263,
      "Roz": 5264,
      "zali": 5265,
      "ĠdÃŃtÄĽte": 5266,
      "Ġprodukt": 5267,
      "ĠzajiÅ¡tÄĽnÃŃ": 5268,
      "ĠosvÄĽt": 5269,
      "ĠÄĮS": 5270,
      "Ġvlh": 5271,
      "bÅĻe": 5272,
      "ÄĮe": 5273,
      "lec": 5274,
      "ĠLiber": 5275,
      "Ġhlavu": 5276,
      "ĠPer": 5277,
      "ĠprofesionÃ¡lnÃŃ": 5278,
      "ĠvÃ¡Å¾nÄĽ": 5279,
      "ĠVÅ¾dy": 5280,
      "ĠpotÄĽ": 5281,
      "ĠlÃ©ta": 5282,
      "ĠJeÅ¡tÄĽ": 5283,
      "svÄĽt": 5284,
      "Ġpsychi": 5285,
      "dav": 5286,
      "Ġzu": 5287,
      "Ġspu": 5288,
      "Ġkonec": 5289,
      "dnÃ½": 5290,
      "Ġ?": 5291,
      "Ġznak": 5292,
      "nut": 5293,
      "Ty": 5294,
      "ĠpohÃ¡": 5295,
      "Ġtextu": 5296,
      "Å¾ad": 5297,
      "ĠAby": 5298,
      "Ġtajem": 5299,
      "Ġcentru": 5300,
      "ÄįnÃŃk": 5301,
      "lÃ¡m": 5302,
      "tÄĽÅ¾": 5303,
      "Ġkoupit": 5304,
      "we": 5305,
      "ork": 5306,
      "ĠGa": 5307,
      "Ġvozidla": 5308,
      "Ã©st": 5309,
      "rozu": 5310,
      "Ġprvky": 5311,
      "Ġhlad": 5312,
      "OU": 5313,
      "enti": 5314,
      "ĠNÃ¡rodnÃŃ": 5315,
      "logie": 5316,
      "Ġstart": 5317,
      "ĠdÅ¯vod": 5318,
      "ĠstrÃ¡nek": 5319,
      "ell": 5320,
      "EK": 5321,
      "Ġpozornost": 5322,
      "Ġleti": 5323,
      "ĠPÅĻesto": 5324,
      "ĠpÅĻehled": 5325,
      "Ġdostala": 5326,
      "ĠÅĻeÅ¡it": 5327,
      "lada": 5328,
      "ĠlÃŃbÃŃ": 5329,
      "Ġdy": 5330,
      "vÃ©st": 5331,
      "ĠSk": 5332,
      "MS": 5333,
      "lÃ¡ch": 5334,
      "ĠpÅĻednÃ¡": 5335,
      "ĠmÃŃstnosti": 5336,
      "najÃŃ": 5337,
      "zovanÃ©": 5338,
      "skÃ©mu": 5339,
      "ĠGe": 5340,
      "ĠÄįÃ¡stÃŃ": 5341,
      "Ġdruhy": 5342,
      "cii": 5343,
      "Ġhladin": 5344,
      "Ġslad": 5345,
      "ĠbydlenÃŃ": 5346,
      "ĠmÃŃstech": 5347,
      "Ġ196": 5348,
      "kupu": 5349,
      "ĠÅ¾Ã¡kÅ¯": 5350,
      "Ġmani": 5351,
      "Ġleg": 5352,
      "dujÃŃ": 5353,
      "kdy": 5354,
      "ĠProÄį": 5355,
      "ĠlhÅ¯": 5356,
      "Ġmajetku": 5357,
      "ĠÄįervna": 5358,
      "ÄįkÅ¯": 5359,
      "ĠÅ¾Ã¡dnÃ¡": 5360,
      "OB": 5361,
      "hlas": 5362,
      "ĠDruh": 5363,
      "ĠZatÃŃm": 5364,
      "Ġkol": 5365,
      "zÃ¡nÃŃ": 5366,
      "Ġdro": 5367,
      "ĠkÅ¯Å¾e": 5368,
      "Ġalkoho": 5369,
      "Ġklubu": 5370,
      "Ġramen": 5371,
      "stek": 5372,
      "kazy": 5373,
      "fri": 5374,
      "nos": 5375,
      "ĠuvedenÃ©": 5376,
      "bora": 5377,
      "Ġnim": 5378,
      "Ġnekon": 5379,
      "ĠstÃ¡l": 5380,
      "poÄįet": 5381,
      "ĠvhodnÃ½": 5382,
      "Ġstylu": 5383,
      "Ġvlastnosti": 5384,
      "ĠbÃ½vÃ¡": 5385,
      "Ġnas": 5386,
      "Ġtren": 5387,
      "Ġzdroje": 5388,
      "ĠspoluprÃ¡ce": 5389,
      "dows": 5390,
      "DÄĽ": 5391,
      "Ġkniha": 5392,
      "ĠÃºpl": 5393,
      "Ġrostlin": 5394,
      "Ġsouvise": 5395,
      "dnes": 5396,
      "stoupit": 5397,
      "Ġizo": 5398,
      "lovou": 5399,
      "ĠAno": 5400,
      "ĠzmÄĽnÄĽ": 5401,
      "Ġner": 5402,
      "36": 5403,
      "Ġmine": 5404,
      "32": 5405,
      "Ġminister": 5406,
      "vÃŃte": 5407,
      "pory": 5408,
      "ĠFranti": 5409,
      "ĠdostÃ¡": 5410,
      "Ġodpa": 5411,
      "Ġexp": 5412,
      "ĠarmÃ¡": 5413,
      "ĠJejÃŃ": 5414,
      "loha": 5415,
      "ĠcÃŃle": 5416,
      "ĠKdo": 5417,
      "ĠnemÅ¯Å¾": 5418,
      "mpi": 5419,
      "Ġbou": 5420,
      "ĠoddÄĽlenÃŃ": 5421,
      "ĠðŁ": 5422,
      "ĠsprÃ¡vnÃ©": 5423,
      "ĠsouÄįasnÄĽ": 5424,
      "ĠproduktÅ¯": 5425,
      "Ã©f": 5426,
      "Ġhrdin": 5427,
      "ĠdruhÃ©ho": 5428,
      "Ġtlu": 5429,
      "Ġmamin": 5430,
      "mÄĽnÃŃ": 5431,
      "Ġvar": 5432,
      "nÄĽt": 5433,
      "ĠpracovnÃŃch": 5434,
      "pÅĻed": 5435,
      "tickÃ½ch": 5436,
      "ĠÄįeskÃ©ho": 5437,
      "ĠJejich": 5438,
      "Å¡enÃ½": 5439,
      "zenÃ½": 5440,
      "ĠPlzeÅĪ": 5441,
      "55": 5442,
      "Ġdemokra": 5443,
      "Ġtakhle": 5444,
      "ovanÃ½m": 5445,
      "ÄįnÃ½ch": 5446,
      "ĠÅĻÃŃci": 5447,
      "Ġstala": 5448,
      "xy": 5449,
      "ĠodmÃŃt": 5450,
      "ĠÅ¾elez": 5451,
      "Ġviz": 5452,
      "pravi": 5453,
      "sech": 5454,
      "Ġperfe": 5455,
      "MÃ¡": 5456,
      "39": 5457,
      "ĠÄįeskÃ½": 5458,
      "ĠmusÃŃme": 5459,
      "ovacÃŃch": 5460,
      "Ġdola": 5461,
      "Ġvrst": 5462,
      "Äįte": 5463,
      "ĠmlÃ¡de": 5464,
      "ilÃŃ": 5465,
      "ĠBla": 5466,
      "ĠloÅĪ": 5467,
      "ĠOS": 5468,
      "ĠpomÃ¡hÃ¡": 5469,
      "Bo": 5470,
      "Ġzazna": 5471,
      "ÑĤ": 5472,
      "Ġps": 5473,
      "ĠMÃ¡m": 5474,
      "ĠEvropy": 5475,
      "ĠMÅ¯Å¾ete": 5476,
      "Ġodkaz": 5477,
      "ĠpodÃ¡nÃŃ": 5478,
      "IV": 5479,
      "dice": 5480,
      "ĠokamÅ¾itÄĽ": 5481,
      "Ġoproti": 5482,
      "ĠDPH": 5483,
      "Ġrozu": 5484,
      "inÃ¡ÅĻ": 5485,
      "Ġtypi": 5486,
      "Ġdomlu": 5487,
      "metry": 5488,
      "ĠnezÃ¡vis": 5489,
      "dec": 5490,
      "ĠjinÃ½m": 5491,
      "34": 5492,
      "Äįov": 5493,
      "pri": 5494,
      "ĠpodobnÃ©": 5495,
      "ĠstÃ¡vajÃŃcÃŃ": 5496,
      "pomen": 5497,
      "pem": 5498,
      "boj": 5499,
      "chat": 5500,
      "Ġcentrum": 5501,
      "ĠJenÅ¾e": 5502,
      "lÃŃk": 5503,
      "ĠÃºÅĻadu": 5504,
      "chou": 5505,
      "rÃ¡tor": 5506,
      "ĠpÄĽknÄĽ": 5507,
      "mar": 5508,
      "Å¡enÃ¡": 5509,
      "minist": 5510,
      "Ġochran": 5511,
      "Ġprodlou": 5512,
      "hoda": 5513,
      "lÃ½m": 5514,
      "slech": 5515,
      "ĠRych": 5516,
      "ĠCena": 5517,
      "Ġcharakteri": 5518,
      "Ġmechani": 5519,
      "ĠPoÄįet": 5520,
      "Ġkvalitu": 5521,
      "ĠsoustÅĻe": 5522,
      "Ã¶": 5523,
      "Ġnohy": 5524,
      "ĠodpoÄį": 5525,
      "ted": 5526,
      "Ġverzi": 5527,
      "ĠÃºz": 5528,
      "Ġkandi": 5529,
      "ĠkterÃ©mu": 5530,
      "Ġtepel": 5531,
      "ĠJde": 5532,
      "ĠÅ¡lo": 5533,
      "ĠpÅĻÃŃzni": 5534,
      "ĠmateriÃ¡lÅ¯": 5535,
      "ĠchÃ¡": 5536,
      "ĠzdrojÅ¯": 5537,
      "lena": 5538,
      "ĠInter": 5539,
      "ĠkupnÃŃ": 5540,
      "Ġobchodu": 5541,
      "ĠmalÃ¡": 5542,
      "ĠzÃ¡kladnÃŃch": 5543,
      "Ġschopnost": 5544,
      "ĠÃºdrÅ¾": 5545,
      "Ġtrval": 5546,
      "ĠreÃ¡l": 5547,
      "ĠsÃŃly": 5548,
      "Ġzni": 5549,
      "ini": 5550,
      "Ġzbav": 5551,
      "ĠvÃ½bÄĽru": 5552,
      "chÃ½": 5553,
      "Ġpokro": 5554,
      "rovÃ©": 5555,
      "ĠnapÄĽtÃŃ": 5556,
      "Ġruku": 5557,
      "Ġpoznat": 5558,
      "ĠstrÃ¡nce": 5559,
      "rnÃŃch": 5560,
      "itÄĽ": 5561,
      "nÃ¬": 5562,
      "ĠorgÃ¡": 5563,
      "ĠdÄĽje": 5564,
      "ĠnejÄįa": 5565,
      "ĠÅ¡la": 5566,
      "ght": 5567,
      "Ð½": 5568,
      "os": 5569,
      "ĠÄįlÃ¡n": 5570,
      "ĠVÄĽtÅ¡": 5571,
      "Ġnere": 5572,
      "Ġmrt": 5573,
      "Ġatra": 5574,
      "ĠprostÅĻedkÅ¯": 5575,
      "ĠnÃ¡stup": 5576,
      "avou": 5577,
      "ĠTomÃ¡Å¡": 5578,
      "Ġjinou": 5579,
      "prostÅĻed": 5580,
      "Ġhraje": 5581,
      "ĠZÃ¡kladnÃŃ": 5582,
      "Ġks": 5583,
      "jÃŃcÃŃho": 5584,
      "Ġklik": 5585,
      "lub": 5586,
      "ĠuloÅ¾": 5587,
      "ĠdruhÅ¯": 5588,
      "Ġprocen": 5589,
      "nÃ¡ct": 5590,
      "Ġzlat": 5591,
      "ĠpomÅ¯": 5592,
      "ĠchtÄĽli": 5593,
      "ĠunikÃ¡": 5594,
      "Ġprote": 5595,
      "ĠJosef": 5596,
      "chodem": 5597,
      "Ġdesign": 5598,
      "ĠDr": 5599,
      "ĠPri": 5600,
      "ĠFe": 5601,
      "ines": 5602,
      "kadem": 5603,
      "ĠzÃ¡jmu": 5604,
      "Ġidenti": 5605,
      "itÃ©": 5606,
      "Ġlit": 5607,
      "ĠpÅĻÃ¡nÃŃ": 5608,
      "lax": 5609,
      "ĠklidnÄĽ": 5610,
      "rÅ¯z": 5611,
      "pisy": 5612,
      "ĠhospodÃ¡ÅĻ": 5613,
      "Å¡Å¥ov": 5614,
      "Å¾ovat": 5615,
      "ince": 5616,
      "KÄį": 5617,
      "ĠWi": 5618,
      "ĠoznaÄį": 5619,
      "ĠByla": 5620,
      "mut": 5621,
      "ĠSpe": 5622,
      "Ġles": 5623,
      "ĠkterÃ½mi": 5624,
      "vÄĽÅĻi": 5625,
      "plÅĪ": 5626,
      "ĠKrÃ¡lovÃ©": 5627,
      "aÄįnÃŃ": 5628,
      "ĠpravdÄĽpodobnÄĽ": 5629,
      "ĠpoÅĻÃ¡dku": 5630,
      "Ġvysokou": 5631,
      "ĠvyrÃ¡bÄĽ": 5632,
      "Podle": 5633,
      "ĠvÅ¡eho": 5634,
      "ĠTr": 5635,
      "rajÃŃ": 5636,
      "nik": 5637,
      "Ġklient": 5638,
      "jekt": 5639,
      "mer": 5640,
      "ĠvyÅ¾a": 5641,
      "ĠvÃ½t": 5642,
      "dov": 5643,
      "Ġvysoce": 5644,
      "Ġkari": 5645,
      "ĠdolÅ¯": 5646,
      "ĠÅĻÃŃdÃŃ": 5647,
      "Ġran": 5648,
      "book": 5649,
      "Ġeviden": 5650,
      "ĠpondÄĽlÃŃ": 5651,
      "Ġ00": 5652,
      "ĠÃºÄįtu": 5653,
      "Äįkem": 5654,
      "ĠoriginÃ¡lnÃŃ": 5655,
      "78": 5656,
      "Ġleta": 5657,
      "enky": 5658,
      "ĠPl": 5659,
      "ĠvÃ½robky": 5660,
      "ĠpÃ¡t": 5661,
      "ĠdanÃ©": 5662,
      "ĠPrac": 5663,
      "Ġzastupitel": 5664,
      "ĠzvÃ½Å¡enÃŃ": 5665,
      "Ġrozho": 5666,
      "our": 5667,
      "ĠjinÃ¡": 5668,
      "ĠSte": 5669,
      "Ġspis": 5670,
      "ang": 5671,
      "ĠnicmÃ©nÄĽ": 5672,
      "Ġpravda": 5673,
      "vÃ½m": 5674,
      "ĠkrÃ¡snÄĽ": 5675,
      "Ġpraxe": 5676,
      "Ġdubna": 5677,
      "ĠPol": 5678,
      "ĠsloÅ¾it": 5679,
      "ĠdodrÅ¾": 5680,
      "ĠhnÄĽ": 5681,
      "ĠkÅĻesÅ¥": 5682,
      "ĠpotÃŃ": 5683,
      "kej": 5684,
      "ĠpÅĻirozen": 5685,
      "Å¡u": 5686,
      "vÄįÃŃ": 5687,
      "dovÄĽ": 5688,
      "Ġ38": 5689,
      "chala": 5690,
      "Ġstanice": 5691,
      "Ġkousek": 5692,
      "Mi": 5693,
      "Å¾ovÃ¡nÃŃ": 5694,
      "ĠÃºzem": 5695,
      "Ġpovinen": 5696,
      "ĠMon": 5697,
      "sila": 5698,
      "Ġmulti": 5699,
      "Ġprezident": 5700,
      "zeno": 5701,
      "Ġ..": 5702,
      "smus": 5703,
      "Ġbudovy": 5704,
      "leh": 5705,
      "ĠtÄĽÅ¾kÃ©": 5706,
      "Ġdobrou": 5707,
      "ĠsoutÄĽÅ¾": 5708,
      "ĠzmÄĽnit": 5709,
      "Å¡ÃŃme": 5710,
      "ĠakcÃŃ": 5711,
      "ĠsvÄĽtovÃ©": 5712,
      "ĠBÄĽhem": 5713,
      "ĠAd": 5714,
      "Ġregistra": 5715,
      "ĠMno": 5716,
      "danÃ©": 5717,
      "ĠmÃŃru": 5718,
      "pravu": 5719,
      "ĠhornÃŃ": 5720,
      "stran": 5721,
      "Ġtomuto": 5722,
      "Ġam": 5723,
      "rnÃŃho": 5724,
      "Ġ2000": 5725,
      "ĠdoplnÄĽ": 5726,
      "Ġpraxi": 5727,
      "vanÃ½": 5728,
      "ĠvÃ½jim": 5729,
      "Ġinfo": 5730,
      "ĠÅ¾ivotnÃŃho": 5731,
      "ĠUSB": 5732,
      "Ġuvol": 5733,
      "Ġzept": 5734,
      "ĠvodnÃŃ": 5735,
      "ĠuÄįitel": 5736,
      "ĠTra": 5737,
      "ĠGoo": 5738,
      "ĠzmÄĽnu": 5739,
      "int": 5740,
      "ĠvodÄĽ": 5741,
      "Ġstyl": 5742,
      "Ġexistuje": 5743,
      "Ġzobraz": 5744,
      "stÃ©m": 5745,
      "ĠvynikajÃŃcÃŃ": 5746,
      "ĠdÄĽtem": 5747,
      "ĠzÃŃskal": 5748,
      "roni": 5749,
      "Ġmodu": 5750,
      "ĠvelkÃ½ch": 5751,
      "komu": 5752,
      "Ġstrana": 5753,
      "rze": 5754,
      "Ġsval": 5755,
      "Ġbolesti": 5756,
      "ĠpÅĻizpÅ¯sob": 5757,
      "IL": 5758,
      "ĠzÃ¡m": 5759,
      "Ġposou": 5760,
      "ĠzÃ¡pas": 5761,
      "ada": 5762,
      "Ġpobo": 5763,
      "ĠuvnitÅĻ": 5764,
      "ĠzÃŃska": 5765,
      "ĠzaÄįÃ¡": 5766,
      "Tento": 5767,
      "ĠotÃ¡zku": 5768,
      "Ġlov": 5769,
      "ĠpÅĻÃŃspÄĽvek": 5770,
      "Ġemo": 5771,
      "ĠtechnickÃ©": 5772,
      "toÅĻi": 5773,
      "ĠroÄįnÃŃku": 5774,
      "Ġrozum": 5775,
      "DS": 5776,
      "ĠEvropskÃ©": 5777,
      "ĠtÃ½ka": 5778,
      "land": 5779,
      "Ġhistorii": 5780,
      "ĠCon": 5781,
      "ĠnahrÃ¡": 5782,
      "Ġdem": 5783,
      "Ġjisto": 5784,
      "ĠpÅĻibliÅ¾nÄĽ": 5785,
      "ĠsvÄĽtlo": 5786,
      "ĠdveÅĻÃŃ": 5787,
      "ĠÅ¡anci": 5788,
      "Ġnovo": 5789,
      "stky": 5790,
      "ĠzÃ¡Å¾it": 5791,
      "ĠdopravnÃŃ": 5792,
      "ĠMinister": 5793,
      "Ġfotbal": 5794,
      "Ġokna": 5795,
      "Ġledna": 5796,
      "ĠjÃŃdlo": 5797,
      "?\"": 5798,
      "ĠkompletnÃŃ": 5799,
      "Å¾ka": 5800,
      "Ġextr": 5801,
      "Ġmaso": 5802,
      "teriÃ¡l": 5803,
      "Ġ2007": 5804,
      "Ġzane": 5805,
      "Ġreag": 5806,
      "Ġdopravy": 5807,
      "ĠnadÃ¡le": 5808,
      "ĠponÄĽ": 5809,
      "kry": 5810,
      "ĠvÃ½hra": 5811,
      "44": 5812,
      "ĠsdÃŃ": 5813,
      "ĠodbornÃ©": 5814,
      "Ġstou": 5815,
      "ĠmÄĽÅĻenÃŃ": 5816,
      "ĠareÃ¡lu": 5817,
      "Ġtrou": 5818,
      "ĠvÃ½Å¾i": 5819,
      "tÃ©Å¾": 5820,
      "ĠÃ¨": 5821,
      "Pa": 5822,
      "ĠtakovÃ©ho": 5823,
      "ĠstarÃ©": 5824,
      "Ġpravidla": 5825,
      "ĠzodpovÄĽ": 5826,
      "Ġdojde": 5827,
      "Ġtroj": 5828,
      "ĠnabÃŃdku": 5829,
      "ĠnabÃŃze": 5830,
      "Å¾u": 5831,
      "ĠÅ¾Ã¡dost": 5832,
      "ĠprobÃŃhÃ¡": 5833,
      "Ġrestaurace": 5834,
      "UT": 5835,
      "ĠdruhÃ©m": 5836,
      "vace": 5837,
      "Ġpne": 5838,
      "ĠstÃ¡vÃ¡": 5839,
      "MÄĽ": 5840,
      "ĠÅ¡esti": 5841,
      "ĠkuchyÅĪ": 5842,
      "ĠtechnologiÃŃ": 5843,
      "ĠPat": 5844,
      "ĠneÃº": 5845,
      "ÑĢ": 5846,
      "Ġrecen": 5847,
      "ĠBÃŃ": 5848,
      "ĠÃºro": 5849,
      "Ġvypla": 5850,
      "Ġmonit": 5851,
      "ĠÅ¡a": 5852,
      "lÃ¡t": 5853,
      "Ġnesou": 5854,
      "Ġkonstrukce": 5855,
      "sahuje": 5856,
      "alou": 5857,
      "Ġokra": 5858,
      "tice": 5859,
      "ĠobecnÄĽ": 5860,
      "dol": 5861,
      "Ġkomise": 5862,
      "jo": 5863,
      "Ġodstav": 5864,
      "wer": 5865,
      "ĠrÅ¯st": 5866,
      "Ġmodr": 5867,
      "vÃ¡ch": 5868,
      "stickÃ½": 5869,
      "ĠBohu": 5870,
      "lujÃŃ": 5871,
      "Ġasist": 5872,
      "dÅ¯leÅ¾it": 5873,
      "Ġveden": 5874,
      "razenÃŃ": 5875,
      "Ġposta": 5876,
      "Ġgu": 5877,
      "ĠdobrÃ¡": 5878,
      "rÃ¡z": 5879,
      "nt": 5880,
      "ĠmÃ½": 5881,
      "ves": 5882,
      "hlÃ©dnout": 5883,
      "ÅĪÅ¯": 5884,
      "Ġkosme": 5885,
      "ktnÃŃ": 5886,
      "ĠpoÄįÃ¡tku": 5887,
      "Ġfakul": 5888,
      "ĠcenÄĽ": 5889,
      "ĠBoÅ¾ÃŃ": 5890,
      "Ġpit": 5891,
      "ĠOstat": 5892,
      "stoupil": 5893,
      "ĠBohuÅ¾el": 5894,
      "apa": 5895,
      "Ġvyzna": 5896,
      "Ġjednotky": 5897,
      "exist": 5898,
      "vot": 5899,
      "chovÃ¡": 5900,
      "ĠsystÃ©my": 5901,
      "100": 5902,
      "ĠpotÅĻebnÃ©": 5903,
      "ĠsignÃ¡": 5904,
      "ĠNovÃ¡": 5905,
      "Ġpoza": 5906,
      "Ġbl": 5907,
      "ĠmÃ¡Å¡": 5908,
      "Ġ01": 5909,
      "ĠpÅĻÃŃÄį": 5910,
      "Ġport": 5911,
      "Ġstabili": 5912,
      "ÅĻenÃ½": 5913,
      "Ġhasi": 5914,
      "Ġ32": 5915,
      "ĠpÅĻiÅ¡la": 5916,
      "Ġknih": 5917,
      "ĠStejnÄĽ": 5918,
      "ĠnÃ¡pa": 5919,
      "ĠWindows": 5920,
      "ĠJinak": 5921,
      "ticky": 5922,
      "vakrÃ¡t": 5923,
      "ĠnejvÃ½": 5924,
      "Ġkombin": 5925,
      "ĠBra": 5926,
      "ĠBude": 5927,
      "mila": 5928,
      "ĠlÃ¡tek": 5929,
      "ĠjejÃŃho": 5930,
      "ĠdÃ¡r": 5931,
      "ĠĠĠĠ": 5932,
      "ĠvÃŃtÄĽzstvÃŃ": 5933,
      "ĠprÅ¯mysl": 5934,
      "ÄįovÃ¡nÃŃ": 5935,
      "ĠmuÅ¾i": 5936,
      "ĠPardubi": 5937,
      "Ġorganis": 5938,
      "Ġarchitek": 5939,
      "ĠskvÄĽle": 5940,
      "Ġspousta": 5941,
      "ĠÅ¾Ã¡dosti": 5942,
      "Ġhodinu": 5943,
      "stin": 5944,
      "jiÅ¡tÄĽnÃŃ": 5945,
      "Ġproduktu": 5946,
      "bat": 5947,
      "Ġkatast": 5948,
      "Ġbaterie": 5949,
      "Ġnebudou": 5950,
      "Ġobslu": 5951,
      "Sou": 5952,
      "Ġtelefonu": 5953,
      "IM": 5954,
      "ĠsouÄįasnosti": 5955,
      "Ġteda": 5956,
      "ĠvloÅ¾": 5957,
      "cena": 5958,
      "Ġautomaticky": 5959,
      "Ġpodzim": 5960,
      "acÃŃ": 5961,
      "ÄįkovÃ©": 5962,
      "Ġdot": 5963,
      "itou": 5964,
      "kol": 5965,
      "zivnÃŃ": 5966,
      "stribu": 5967,
      "ĠLED": 5968,
      "hn": 5969,
      "nicÃŃ": 5970,
      "ĠSvÄĽt": 5971,
      "ĠhlavnÃŃm": 5972,
      "ĠdomÄĽ": 5973,
      "Ġvylou": 5974,
      "My": 5975,
      "ill": 5976,
      "ĠpodÄĽ": 5977,
      "Ġobci": 5978,
      "Ġstroje": 5979,
      "ĠnemÄĽla": 5980,
      "Ġhypo": 5981,
      "ĠÃºroveÅĪ": 5982,
      "ĠTeÄı": 5983,
      "ĠKraj": 5984,
      "Ġema": 5985,
      "ĠbÅĻezna": 5986,
      "ici": 5987,
      "Ġchvil": 5988,
      "ĠvychÃ¡zÃŃ": 5989,
      "ÅĻena": 5990,
      "Ġrozhodl": 5991,
      "Ġlete": 5992,
      "ĠPÃ¡": 5993,
      "ĠzÅĻÃŃ": 5994,
      "slova": 5995,
      "ĠpouÅ¾ÃŃvÃ¡nÃŃ": 5996,
      "ĠÅ¾Ã¡dnou": 5997,
      "ĠpÅĻedÃ¡": 5998,
      "ĠminimÃ¡lnÃŃ": 5999,
      "05": 6000,
      "Ġbla": 6001,
      "Ġmysli": 6002,
      "ĠnepÅĻÃŃjem": 6003,
      "ĠpotÅĻebuje": 6004,
      "ĠfÃ³": 6005,
      "ĠProstÄĽ": 6006,
      "Ġreg": 6007,
      "Å¾by": 6008,
      "ĠÃºÄįelem": 6009,
      "ĠspÃ¡": 6010,
      "Ġ400": 6011,
      "ĠnÃ¡vrhu": 6012,
      "Ġtechniky": 6013,
      "Ġreklama": 6014,
      "psat": 6015,
      "pÅĻedu": 6016,
      "Ġost": 6017,
      "roÄįnÄĽ": 6018,
      "krÃ¡tka": 6019,
      "ĠjasnÄĽ": 6020,
      "psal": 6021,
      "ĠzkuÅ¡enost": 6022,
      "dent": 6023,
      "tala": 6024,
      "Ġbon": 6025,
      "ĠuznÃ¡": 6026,
      "Ġabsolv": 6027,
      "dnutÃŃ": 6028,
      "Ġpravdu": 6029,
      "ÄįtÄĽ": 6030,
      "ĠspoÄįÃŃ": 6031,
      "Å¾ÃŃvÃ¡": 6032,
      "ĠavÅ¡ak": 6033,
      "nad": 6034,
      "Ġpracuje": 6035,
      "ĠÅ¡Å¥ast": 6036,
      "Ġmarket": 6037,
      "zenÃ½ch": 6038,
      "razu": 6039,
      "Ġstudia": 6040,
      "pti": 6041,
      "ĠnÃ¡boÅ¾en": 6042,
      "ĠnejmÃ©nÄĽ": 6043,
      "lili": 6044,
      "ĠvelkÃ½m": 6045,
      "ĠPrav": 6046,
      "Ġmohly": 6047,
      "nec": 6048,
      "ĠsvÄĽtla": 6049,
      "ĠrychlÃ©": 6050,
      "ĠnÄĽmÅ¾": 6051,
      "ĠPre": 6052,
      "eznam": 6053,
      "ĠÄįlÃ¡nky": 6054,
      "ĠHy": 6055,
      "ness": 6056,
      "poruÄį": 6057,
      "Ñģ": 6058,
      "kujeme": 6059,
      "ĠVaÅ¡i": 6060,
      "ĠFa": 6061,
      "ĠjedinÃ½": 6062,
      "Ġmuseli": 6063,
      "Ġkombinaci": 6064,
      "ĠcÃŃl": 6065,
      "ĠrÅ¯Å¾": 6066,
      "ĠCar": 6067,
      "Ġzajistit": 6068,
      "ÄįkovÃ¡": 6069,
      "37": 6070,
      "ĠzabÃ½": 6071,
      "Ġvaz": 6072,
      "Ġklimati": 6073,
      "ĠpÅĻedstavit": 6074,
      "ĠfiremnÃŃ": 6075,
      "ĠrozvÃŃ": 6076,
      "KY": 6077,
      "ĠPÃŃ": 6078,
      "ĠNew": 6079,
      "Ġfanta": 6080,
      "ĠreÅ¾imu": 6081,
      "benÃŃ": 6082,
      "ĠnÄĽkteÅĻÃŃ": 6083,
      "Å¡ovÃ¡nÃŃ": 6084,
      "sala": 6085,
      "ĠsÃ©rie": 6086,
      "zda": 6087,
      "kÃ¡lnÃŃ": 6088,
      "kÃ¡ÅĻ": 6089,
      "Pra": 6090,
      "lob": 6091,
      "ĠpÅĻesu": 6092,
      "46": 6093,
      "ĠmaximÃ¡lnÄĽ": 6094,
      "nomi": 6095,
      "tin": 6096,
      "artmÃ¡": 6097,
      "ĠHlavnÃŃ": 6098,
      "ĠletnÃŃ": 6099,
      "ĠÄįeho": 6100,
      "Ġznamen": 6101,
      "ĠzÃ¡vodnÃŃ": 6102,
      "ĠvÃ½zkum": 6103,
      "ĠzÃ¡ko": 6104,
      "ĠvÃ½robkÅ¯": 6105,
      "ĠmanaÅ¾e": 6106,
      "Ġslav": 6107,
      "war": 6108,
      "ĠpÅĻÃŃjemnÃ©": 6109,
      "rke": 6110,
      "Ġfin": 6111,
      "31": 6112,
      "Ġovoce": 6113,
      "ĠpojiÅ¡Å¥ov": 6114,
      "ile": 6115,
      "ĠpoÅ¡t": 6116,
      "ĠveÅĻejnosti": 6117,
      "Ġkraji": 6118,
      "ĠMan": 6119,
      "49": 6120,
      "-)": 6121,
      "ĠBru": 6122,
      "ĠPrÃ¡vÄĽ": 6123,
      "ĠnabÃŃdce": 6124,
      "Ġlitera": 6125,
      "ĠÃºÅĻe": 6126,
      "cku": 6127,
      "ĠpÅĻÃŃleÅ¾itost": 6128,
      "ĠvÄĽde": 6129,
      "ĠvhodnÃ¡": 6130,
      "Ġaltern": 6131,
      "ĠprokÃ¡": 6132,
      "ĠVÃ¡Å¡": 6133,
      "Ġ120": 6134,
      "kdo": 6135,
      "Ġdistribu": 6136,
      "ĠkrÃ©m": 6137,
      "ĠzaÄįali": 6138,
      "ĠaniÅ¾": 6139,
      "ĠformÄĽ": 6140,
      "ĠdalÅ¡ÃŃmi": 6141,
      "ĠsloÅ¾enÃŃ": 6142,
      "vÃŃme": 6143,
      "rovat": 6144,
      "sch": 6145,
      "ĠRÃ¡": 6146,
      "rovol": 6147,
      "Ġlidmi": 6148,
      "Ġvita": 6149,
      "Ġohledu": 6150,
      "cete": 6151,
      "ĠÄįet": 6152,
      "fikov": 6153,
      "Ġvyv": 6154,
      "ĠzamÄĽstnancÅ¯": 6155,
      "ĠvÃ½robu": 6156,
      "ĠÅĻek": 6157,
      "ĠfunkcÃŃ": 6158,
      "enost": 6159,
      "Ġmoment": 6160,
      "ĠpodnikÃ¡nÃŃ": 6161,
      "ĠovlÃ¡dÃ¡nÃŃ": 6162,
      "ĠzemÃŃch": 6163,
      "niÄįky": 6164,
      "utnÃ¡": 6165,
      "jel": 6166,
      "ĠPotÃ©": 6167,
      "AC": 6168,
      "ĠbÄĽÅ¾nÃ©": 6169,
      "ĠtÃ½dne": 6170,
      "Å¾enÃ¡": 6171,
      "ĠbÃŃlÃ©": 6172,
      "ujte": 6173,
      "ĠvÃ½sledkÅ¯": 6174,
      "pky": 6175,
      "ĠpoÅ¡kozenÃŃ": 6176,
      "Ġvybud": 6177,
      "Ġzah": 6178,
      "Ġekologi": 6179,
      "anÃ½m": 6180,
      "Ġpodpory": 6181,
      "ĠzÃ¡vod": 6182,
      "Ġpovr": 6183,
      "Ġdla": 6184,
      "ĠnejspÃŃ": 6185,
      "Ġseda": 6186,
      "nova": 6187,
      "Ġbet": 6188,
      "ĠÃºÄįinky": 6189,
      "ĠGu": 6190,
      "lÃ¡tor": 6191,
      "ĠodpovÃŃdÃ¡": 6192,
      "Ġdopad": 6193,
      "ÅĻenÃ¡": 6194,
      "Ġvysoko": 6195,
      "Ġsmr": 6196,
      "ĠhodÃŃ": 6197,
      "ĠdrÅ¾ÃŃ": 6198,
      "jn": 6199,
      "hovÃ©": 6200,
      "Ġkrou": 6201,
      "77": 6202,
      "Ġodpoledne": 6203,
      "ĠjakÃ½m": 6204,
      "ĠmobilnÃŃ": 6205,
      "ĠObec": 6206,
      "ĠhÅĻiÅ¡tÄĽ": 6207,
      "Ġklou": 6208,
      "Ġzachy": 6209,
      "ĠzÃ¡stupce": 6210,
      "Ġsloven": 6211,
      "Ġnote": 6212,
      "Ġbrat": 6213,
      "tebnÃŃ": 6214,
      "Ġono": 6215,
      "Ġelegan": 6216,
      "KaÅ¾": 6217,
      "IP": 6218,
      "ĠpÅĻine": 6219,
      "zt": 6220,
      "rovi": 6221,
      "Ġpobytu": 6222,
      "pÅ¯jÄįky": 6223,
      "Ġkoncent": 6224,
      "ĠhrÃ¡Äįi": 6225,
      "Ġnejprve": 6226,
      "ĠspodnÃŃ": 6227,
      "Ġpolicie": 6228,
      "snÃ½": 6229,
      "Ġsledovat": 6230,
      "ĠchtÃŃt": 6231,
      "ĠmateriÃ¡ly": 6232,
      "mout": 6233,
      "Ġparku": 6234,
      "tÃ¡nÃŃ": 6235,
      "ĠchybÃŃ": 6236,
      "Ġzava": 6237,
      "Ġital": 6238,
      "Ġmusela": 6239,
      "Ġvez": 6240,
      "ĠrozsÃ¡": 6241,
      "ĠNaÅ¡e": 6242,
      "haj": 6243,
      "Â´": 6244,
      "ĠdruhÃ¡": 6245,
      "ĠjmÃ©nem": 6246,
      "hav": 6247,
      "ĠNor": 6248,
      ");": 6249,
      "Ġhistorie": 6250,
      "ĠstejnÃ½": 6251,
      "ÄįnÃ©ho": 6252,
      "ĠÄįÃŃsla": 6253,
      "Ġkapito": 6254,
      "ĠdÃ¡rky": 6255,
      "ĠpÃ¡n": 6256,
      "ĠKarlov": 6257,
      "ĠKli": 6258,
      "Ġmuzi": 6259,
      "ÄįÃŃst": 6260,
      "slava": 6261,
      "ĠnÃ¡jem": 6262,
      "2016": 6263,
      "Ġruka": 6264,
      "ĠprÃ¡zdn": 6265,
      "ĠÄĮa": 6266,
      "kÃ¡t": 6267,
      "ĠnatÃ¡": 6268,
      "ĠHer": 6269,
      "Ġkontaktu": 6270,
      "?âĢľ": 6271,
      "ĠjÃŃdel": 6272,
      "ĠdneÅ¡": 6273,
      "Ġsam": 6274,
      "Ġvysa": 6275,
      "Ġabsolu": 6276,
      "ĠsmÄĽru": 6277,
      "dÃŃÅ¾": 6278,
      "Sa": 6279,
      "2014": 6280,
      "zeny": 6281,
      "stickÃ½ch": 6282,
      "ĠskvÄĽlÃ©": 6283,
      "ĠnÃ¡kladÅ¯": 6284,
      "jÃŃm": 6285,
      "ĠpÅĻichÃ¡zÃŃ": 6286,
      "ĠPoz": 6287,
      "ĠvrÃ¡tit": 6288,
      "Ġvyhra": 6289,
      "teru": 6290,
      "ĠobjednÃ¡vky": 6291,
      "Ġtouto": 6292,
      "ĠkaÅ¾dÃ¡": 6293,
      "enÃ½m": 6294,
      "ĠpoÅĻÃ¡dnÄĽ": 6295,
      "Ġklid": 6296,
      "ĠblÃŃzkosti": 6297,
      "2015": 6298,
      "Ã¡lÅ¯": 6299,
      "cov": 6300,
      "Ġpozice": 6301,
      "ĠpokraÄįovat": 6302,
      "ĠPh": 6303,
      "Ġkot": 6304,
      "ĠSto": 6305,
      "Ġscho": 6306,
      "Ġrozto": 6307,
      "ÄįitÄĽ": 6308,
      "ĠkonÄįÃŃ": 6309,
      "Ġdisple": 6310,
      "Ġzaslou": 6311,
      "gickÃ©": 6312,
      "Ġucha": 6313,
      "bory": 6314,
      "sm": 6315,
      "Ġhum": 6316,
      "Ġ250": 6317,
      "Ġdala": 6318,
      "Ġdostali": 6319,
      "Ġrelati": 6320,
      "ĠpamÄĽti": 6321,
      "2017": 6322,
      "chÃ©": 6323,
      "Ġmanipu": 6324,
      "ĠCho": 6325,
      "ĠmÄĽk": 6326,
      "Å¾nÃ½": 6327,
      "ĠveÄįe": 6328,
      "bÃ½vÃ¡": 6329,
      "ĠCD": 6330,
      "fle": 6331,
      "ĠpolovinÄĽ": 6332,
      "Ġinteg": 6333,
      "umati": 6334,
      "klÃŃ": 6335,
      "bar": 6336,
      "nci": 6337,
      "Ġbak": 6338,
      "Ġnejsem": 6339,
      "ĠpÅĻidÃ¡": 6340,
      "ĠÄįernÃ©": 6341,
      "ĠocenÄĽ": 6342,
      "gne": 6343,
      "Vel": 6344,
      "Ġpry": 6345,
      "Ġdomov": 6346,
      "ĠdvakrÃ¡t": 6347,
      "Ġprocesu": 6348,
      "ĠAÅ¾": 6349,
      "ĠÄįinÃŃ": 6350,
      "ĠdanÄĽ": 6351,
      "Å¡ly": 6352,
      "ĠÄįtenÃŃ": 6353,
      "ÄįÃ¡stÃŃ": 6354,
      "ĠomezenÃŃ": 6355,
      "ĠvlastnÃŃm": 6356,
      "SK": 6357,
      "wn": 6358,
      "ĠpohÃ¡d": 6359,
      "Ġlikvi": 6360,
      "ĠzprÃ¡va": 6361,
      "ĠNakonec": 6362,
      "Ġholky": 6363,
      "Ġprosa": 6364,
      "nali": 6365,
      "ĠpÅĻÃŃrody": 6366,
      "NA": 6367,
      "Ġplynu": 6368,
      "ĠjakÃ¡": 6369,
      "ĠodstÃŃ": 6370,
      "ĠhrÃ¡Äį": 6371,
      "ĠMax": 6372,
      "Ġpohla": 6373,
      "hodnocenÃŃ": 6374,
      "ĠnÄĽjakÃ¡": 6375,
      "VÄĽ": 6376,
      "ĠdostateÄįnÄĽ": 6377,
      "ĠotÃ¡zka": 6378,
      "lejÅ¡ÃŃ": 6379,
      "Ġhodnota": 6380,
      "Ġkrabi": 6381,
      "ĠKy": 6382,
      "Ġdiag": 6383,
      "Ġseznamu": 6384,
      "ĠprÅ¯vod": 6385,
      "Ġ2006": 6386,
      "Ġpotenci": 6387,
      "Ġpovinnosti": 6388,
      "HO": 6389,
      "ĠobjevÃŃ": 6390,
      "ĠsÃ©ri": 6391,
      "ĠvojÃ¡": 6392,
      "Ġuka": 6393,
      "Ahoj": 6394,
      "ĠjÃŃm": 6395,
      "hly": 6396,
      "ĠnovÃ½m": 6397,
      "ĠhÅĻÃŃ": 6398,
      "ĠplnÃ½": 6399,
      "ĠÂ·": 6400,
      "Äįena": 6401,
      "ĠzajiÅ¡Å¥uje": 6402,
      "Ð¾Ð": 6403,
      "ĠÅ¾ije": 6404,
      "ĠÄįemu": 6405,
      "ĠÅłtÄĽ": 6406,
      "ĠsrovnÃ¡nÃŃ": 6407,
      "Äįkami": 6408,
      "taÄįnÃŃ": 6409,
      "Ġ48": 6410,
      "ĠNynÃŃ": 6411,
      "ĠpomÅ¯Å¾e": 6412,
      "Ġtvaru": 6413,
      "ĠtroÅ¡ku": 6414,
      "rtu": 6415,
      "ĠÄįasem": 6416,
      "kace": 6417,
      "Ġzele": 6418,
      "Ġklidu": 6419,
      "ĠIII": 6420,
      "ĠuvÃ¡dÃŃ": 6421,
      "Å¯v": 6422,
      "ĠpoÅ¡": 6423,
      "eku": 6424,
      "vz": 6425,
      "vaÄį": 6426,
      "ĠLÃ¡": 6427,
      "Ġtelevize": 6428,
      "Ġoni": 6429,
      "ĠCent": 6430,
      "ĠVlast": 6431,
      "Ġuply": 6432,
      "ĠprovÃ¡dÄĽ": 6433,
      "Ġ75": 6434,
      "ling": 6435,
      "Ġnejmen": 6436,
      "voda": 6437,
      "tvr": 6438,
      "ĠaÄį": 6439,
      "ĠvÅ¡emi": 6440,
      "ĠtÄĽÅ¾ko": 6441,
      "znÃ¡m": 6442,
      "ĠloÅ¾": 6443,
      "ĠÅ¾ÃŃt": 6444,
      "ĠSer": 6445,
      "Ji": 6446,
      "tev": 6447,
      "ĠzÅ¯stÃ¡vÃ¡": 6448,
      "ĠVelkÃ©": 6449,
      "ĠtÅĻech": 6450,
      "Ġneh": 6451,
      "pozice": 6452,
      "Ġpobyt": 6453,
      "vujÃŃ": 6454,
      "stev": 6455,
      "pust": 6456,
      "ÅĻÃŃÅ¾": 6457,
      "ĠPR": 6458,
      "pÃ¡d": 6459,
      "mina": 6460,
      "ĠPu": 6461,
      "ĠuskuteÄį": 6462,
      "ĠAuto": 6463,
      "vodem": 6464,
      "ĠZD": 6465,
      "ĠvÃ¡noÄįnÃŃ": 6466,
      "tip": 6467,
      "ĠmalÃ½ch": 6468,
      "ĠtÃ½kÃ¡": 6469,
      "ĠprojektÅ¯": 6470,
      "Ġoleje": 6471,
      "Pod": 6472,
      "krat": 6473,
      "ĠÄįtvrtek": 6474,
      "Ġpoje": 6475,
      "Ġ55": 6476,
      "Ġduch": 6477,
      "EZ": 6478,
      "ĠÅĻÃ¡du": 6479,
      "ĠMgr": 6480,
      "Ġhlavou": 6481,
      "Ġzave": 6482,
      "Ġefekti": 6483,
      "nÄĽnÃ½ch": 6484,
      "ĠvÃ½jime": 6485,
      "Ġvozidel": 6486,
      "ort": 6487,
      "Ġbezpe": 6488,
      "Ġpovinnost": 6489,
      "ĠOstrava": 6490,
      "ĠGoogle": 6491,
      "Ġvelko": 6492,
      "Ġplochy": 6493,
      "ĠpÅĻispÄĽ": 6494,
      "ĠDV": 6495,
      "Ġkus": 6496,
      "2012": 6497,
      "nickÃ½ch": 6498,
      "ĠsoutÄĽÅ¾ÃŃ": 6499,
      "Ġpotravin": 6500,
      "Ġseku": 6501,
      "Ġdokud": 6502,
      "Ġobjektu": 6503,
      "nesenÃŃ": 6504,
      "Ġnene": 6505,
      "ĠsnÃŃÅ¾enÃŃ": 6506,
      "ĠpodÃŃl": 6507,
      "ĠneÅĻe": 6508,
      "ĠIN": 6509,
      "Ġprosince": 6510,
      "ĠprÅ¯zku": 6511,
      "ĠvidÄĽl": 6512,
      "ĠGo": 6513,
      "bky": 6514,
      "ĠvÃ½da": 6515,
      "Ġkurz": 6516,
      "ĠmÃ©di": 6517,
      "Ġned": 6518,
      "ĠvÃ½let": 6519,
      "Ġgenerace": 6520,
      "ĠudÃ¡losti": 6521,
      "chÃ¡zejÃŃcÃŃ": 6522,
      "Ġdetail": 6523,
      "ĠsetkÃ¡": 6524,
      "PrvnÃŃ": 6525,
      "ĠmuÅ¾Å¯": 6526,
      "rii": 6527,
      "lal": 6528,
      "Å¾itek": 6529,
      "Ġdoslova": 6530,
      "ĠpozitivnÃŃ": 6531,
      "ÄįÃŃme": 6532,
      "rovÃ½": 6533,
      "telnÃ½ch": 6534,
      "maz": 6535,
      "Ġrepublika": 6536,
      "org": 6537,
      "nÃ¡sob": 6538,
      "Ġhledat": 6539,
      "ĠnÃ¡stroje": 6540,
      "Ġrelax": 6541,
      "ĠsezÃ³": 6542,
      "ĠtÄĽles": 6543,
      "stoupÃŃ": 6544,
      "lety": 6545,
      "Ġaplikaci": 6546,
      "Ġkomfor": 6547,
      "ĠTam": 6548,
      "ĠpÅ¯vodnÄĽ": 6549,
      "Ġhranice": 6550,
      "rÃ¡nit": 6551,
      "ĠbezpeÄįnostnÃŃ": 6552,
      "Ġteploty": 6553,
      "Ġboty": 6554,
      "Ġhodnotu": 6555,
      "ĠIP": 6556,
      "ĠvÃŃkend": 6557,
      ".[": 6558,
      "ĠneuvÄĽÅĻi": 6559,
      "ĠdatabÃ¡": 6560,
      "letÃ½": 6561,
      "ĠkulturnÃŃ": 6562,
      "ĠStan": 6563,
      "ĠvÄĽtÅ¡inu": 6564,
      "Å¾nosti": 6565,
      "ĠpÅĻiroz": 6566,
      "ĠvyÅ¡etÅĻenÃŃ": 6567,
      "dace": 6568,
      "Ġzabezpe": 6569,
      "ĠkuchynÄĽ": 6570,
      "ĠÅ¡tÃŃ": 6571,
      "lent": 6572,
      "Ġrovnou": 6573,
      "ĠobyÄįej": 6574,
      "laÄįnÃŃ": 6575,
      "nÃ¡cti": 6576,
      "ic": 6577,
      "tos": 6578,
      "ĠStav": 6579,
      "ĠzajistÃŃ": 6580,
      "Ġvztahy": 6581,
      "ĠskuteÄįnost": 6582,
      "ĠdÄĽtskÃ©": 6583,
      "ĠvÄĽdomÃŃ": 6584,
      "!\"": 6585,
      "ĠzimnÃŃ": 6586,
      "ĠuÅ¾ivatele": 6587,
      "ĠuvedenÃ½ch": 6588,
      "ĠpÅĻÃŃsluÅ¡enstvÃŃ": 6589,
      "Å®": 6590,
      "Ã¡tkem": 6591,
      "ĠkandidÃ¡": 6592,
      "feren": 6593,
      "ĠbezpeÄįnosti": 6594,
      "ĠBÅ¯h": 6595,
      "ĠlÃ©Äįi": 6596,
      "Ġchceme": 6597,
      "Ġpozemku": 6598,
      "Ġsrpna": 6599,
      "dovat": 6600,
      "ĠrÃ½": 6601,
      "Ġlegen": 6602,
      "ĠÄįokolÃ¡": 6603,
      "Ġbit": 6604,
      "pin": 6605,
      "ĠumÃŃstÄĽnÃŃ": 6606,
      "ĠÅĻedi": 6607,
      "ĠGra": 6608,
      "ĠzpÃ¡tky": 6609,
      "ĠpravÃ©": 6610,
      "Ġnebezpe": 6611,
      "Ġdlouhou": 6612,
      "ĠvÄĽnovat": 6613,
      "Ġopa": 6614,
      "kost": 6615,
      "Ġkrok": 6616,
      "ĠHon": 6617,
      "ĠletoÅ¡nÃŃ": 6618,
      "ĠklasickÃ©": 6619,
      "Ġzub": 6620,
      "47": 6621,
      "ĠpsÃ¡t": 6622,
      "ĠdÅĻeva": 6623,
      "Ġcykli": 6624,
      "Ġhovo": 6625,
      "ssi": 6626,
      "Ġbrit": 6627,
      "stika": 6628,
      "formu": 6629,
      "vel": 6630,
      "ĠdÃŃla": 6631,
      "ĠLÃŃ": 6632,
      "ĠtvrdÃŃ": 6633,
      "letÃ©": 6634,
      "65": 6635,
      "ĠobcÃŃ": 6636,
      "Ġdar": 6637,
      "ĠvymÄĽ": 6638,
      "Ġnemu": 6639,
      "ĠWe": 6640,
      "dnat": 6641,
      "ĠÅ¡el": 6642,
      "ĠmÅ¯Å¾u": 6643,
      "Ġstrach": 6644,
      "Ġtypy": 6645,
      "Ġnezna": 6646,
      "deo": 6647,
      "ĠmÃŃrnÄĽ": 6648,
      "ĠtvÅ¯r": 6649,
      "covÃ©": 6650,
      "2013": 6651,
      "nÄĽk": 6652,
      "Ġzbyt": 6653,
      "ĠVÃ¡clav": 6654,
      "cin": 6655,
      "ĠSamozÅĻejmÄĽ": 6656,
      "ĠÃºÄįely": 6657,
      "Ġspol": 6658,
      "ĠpÃŃsm": 6659,
      "Ġvzhled": 6660,
      "ĠzÃ¡vÄĽr": 6661,
      "Ġjinde": 6662,
      "cel": 6663,
      "ĠPoli": 6664,
      "pÃŃna": 6665,
      "ĠpÄĽst": 6666,
      "ĠnÃŃÅ¾e": 6667,
      "ĠsluÅ¾ba": 6668,
      "ĠHol": 6669,
      "ÅĻeno": 6670,
      "Ġpuj": 6671,
      "ENÃį": 6672,
      "Ġfotoapa": 6673,
      "ÄįtÃŃ": 6674,
      "klÃ¡dat": 6675,
      "ĠNicmÃ©nÄĽ": 6676,
      "ĠprimÃ¡": 6677,
      "ĠlidskÃ©": 6678,
      "UÅ¾": 6679,
      "ĠzmÄĽna": 6680,
      "ĠdennÃŃ": 6681,
      "rgu": 6682,
      "ĠznÃ¡mÃ©": 6683,
      "AV": 6684,
      "Å¡ili": 6685,
      "ĠkÅĻesÅ¥an": 6686,
      "ĠurÄįitÃ©": 6687,
      "ĠodehrÃ¡": 6688,
      "ĠzvÃŃÅĻat": 6689,
      "ÅĻela": 6690,
      "ĠnÄĽkolikrÃ¡t": 6691,
      "ĠMÃŃsto": 6692,
      "Ġrej": 6693,
      "Ġnapsal": 6694,
      "42": 6695,
      "loÅ¾ÃŃ": 6696,
      "Se": 6697,
      "Ġfrek": 6698,
      "Ġstudent": 6699,
      "ĠÄįaj": 6700,
      "Ġsoli": 6701,
      "shop": 6702,
      "ĠKup": 6703,
      "ĠsdruÅ¾enÃŃ": 6704,
      "soci": 6705,
      "snÃ¡": 6706,
      "ĠpÅĻevÃ¡Å¾nÄĽ": 6707,
      "stiky": 6708,
      "ĠnalÃ©": 6709,
      "lor": 6710,
      "olf": 6711,
      "menty": 6712,
      "ĠnabÃŃdka": 6713,
      "ĠÅ¡Ã©f": 6714,
      "hovÃ¡nÃŃ": 6715,
      "Ġschopnosti": 6716,
      "Ġdohod": 6717,
      "ĠrozdÃŃ": 6718,
      "ĠCelÃ½": 6719,
      "ĠohlednÄĽ": 6720,
      ".).": 6721,
      "Ġenergii": 6722,
      "ĠSpoj": 6723,
      "jednodu": 6724,
      "dnu": 6725,
      "ujÃŃcÃŃch": 6726,
      "ĠOv": 6727,
      "ktem": 6728,
      "Ġtvar": 6729,
      "Ġadminist": 6730,
      "ĠAnd": 6731,
      "Ġdokonale": 6732,
      "ĠRakou": 6733,
      "ĠpÅĻÃŃspÄĽv": 6734,
      "Fi": 6735,
      "Ġukazuje": 6736,
      "ĠnÃ¡po": 6737,
      "nÄĽna": 6738,
      "Ġnapsat": 6739,
      "ske": 6740,
      "Ġnepou": 6741,
      "zce": 6742,
      "ĠmluvÃŃ": 6743,
      "ÅĻeny": 6744,
      "Ġstre": 6745,
      "ĠtakovÃ½ch": 6746,
      "Ġobjekti": 6747,
      "ĠwebovÃ½ch": 6748,
      "ĠzamÄĽstnÃ¡nÃŃ": 6749,
      "klÃ¡dÃ¡nÃŃ": 6750,
      "ĠnejdÅĻÃŃve": 6751,
      "konce": 6752,
      "ĠnejrÅ¯z": 6753,
      "pek": 6754,
      "Å¾enÃ½ch": 6755,
      "tÃ¡m": 6756,
      "ĠextrÃ©m": 6757,
      "Ġrokem": 6758,
      "Ġneexist": 6759,
      "vody": 6760,
      "Ġmob": 6761,
      "IA": 6762,
      "Ġkurzu": 6763,
      "Ġfondu": 6764,
      "ĠdÃ¡vno": 6765,
      "leg": 6766,
      "bel": 6767,
      "Ġporaden": 6768,
      "__": 6769,
      "VÅ¡e": 6770,
      "ĠzdÅ¯": 6771,
      "ĠsÃŃtÃŃ": 6772,
      "rche": 6773,
      "nÄĽn": 6774,
      "ĠtÃ½Äįe": 6775,
      "Ġdie": 6776,
      "Ġvoli": 6777,
      "ĠuÅ¾ÃŃvÃ¡nÃŃ": 6778,
      "ĠÄįernÃ¡": 6779,
      "ĠÃºpravy": 6780,
      "ĠtrvÃ¡": 6781,
      "jnÃŃho": 6782,
      "ĠNapÅĻÃŃklad": 6783,
      "lii": 6784,
      "Å¡ela": 6785,
      "Ġnebyly": 6786,
      "Ġnava": 6787,
      "ĠPetra": 6788,
      "ĠnapÃ¡": 6789,
      "tÃŃte": 6790,
      "ĠDra": 6791,
      "dex": 6792,
      "ĠkilometrÅ¯": 6793,
      "Ġvenku": 6794,
      "Li": 6795,
      "Ġpose": 6796,
      "Ġbanky": 6797,
      "ĠRad": 6798,
      "ĠJedin": 6799,
      "stickÃ¡": 6800,
      "ĠlÃ©tÄĽ": 6801,
      "ĠochranÄĽ": 6802,
      "ĠsystÃ©mÅ¯": 6803,
      "Ġhmo": 6804,
      "Ġdeko": 6805,
      "Ġspolehli": 6806,
      "ĠAutor": 6807,
      "Ġnedostat": 6808,
      "ĠzavÃ¡": 6809,
      "Ġtel": 6810,
      "ond": 6811,
      "Ġresp": 6812,
      "vkou": 6813,
      "matu": 6814,
      "ĠBudÄĽj": 6815,
      "sovÃ©": 6816,
      "ĠdÃ½ch": 6817,
      "ĠCha": 6818,
      "Ġradi": 6819,
      "ĠvnÄĽjÅ¡ÃŃ": 6820,
      "Ġslavnost": 6821,
      "ĠhlavnÃŃho": 6822,
      "bali": 6823,
      "ding": 6824,
      "Ġvylep": 6825,
      "ĠpÅĻÃŃstroj": 6826,
      "Ta": 6827,
      "cip": 6828,
      "ovnÃ©": 6829,
      "LE": 6830,
      "ĠNech": 6831,
      "ĠpÅĻedtÃŃm": 6832,
      "Ġneva": 6833,
      ",,": 6834,
      "Ġbolest": 6835,
      "telnou": 6836,
      "Ġjednozna": 6837,
      "ĠVladi": 6838,
      "ĠÄįervence": 6839,
      "nily": 6840,
      "ĠchvÃŃle": 6841,
      "arnÃŃ": 6842,
      "ĠpÅĻemÃ½Å¡": 6843,
      "ĠnemÄĽli": 6844,
      "ĠzpracovÃ¡": 6845,
      "De": 6846,
      "SpoleÄį": 6847,
      "ĠdÄĽkuji": 6848,
      "Ġtane": 6849,
      "Ġparla": 6850,
      "ĠsÃŃlu": 6851,
      "ĠKdyby": 6852,
      "hranÃŃ": 6853,
      "Ġdovolenou": 6854,
      "stoj": 6855,
      "Ġvnit": 6856,
      "ĠvyuÅ¾i": 6857,
      "tovÃ©": 6858,
      "lympi": 6859,
      "Ġska": 6860,
      "ĠodvÃ¡": 6861,
      "ĠMateriÃ¡l": 6862,
      "bila": 6863,
      "kvali": 6864,
      "ĠdovolenÃ©": 6865,
      "Ġorganiz": 6866,
      "Ġfas": 6867,
      "Ġpodnikatel": 6868,
      "09": 6869,
      "Ġlicen": 6870,
      "ĠjmÃ©na": 6871,
      "ĠtlaÄįÃŃtko": 6872,
      "asy": 6873,
      "Ġmodelu": 6874,
      "ĠzahraniÄįnÃŃ": 6875,
      "Ġpark": 6876,
      "Ġpodporuje": 6877,
      "Ġpokle": 6878,
      "ord": 6879,
      "ĠÄĮeskosloven": 6880,
      "ĠvzÃŃt": 6881,
      "ĠhrÃ¡ÄįÅ¯": 6882,
      "AP": 6883,
      "ĠvyzkouÅ¡et": 6884,
      "Ġkontra": 6885,
      "ĠformÃ¡": 6886,
      "pci": 6887,
      "Ġ37": 6888,
      "livÃ½": 6889,
      "Ġohledem": 6890,
      "ovÃ©st": 6891,
      "enÄĽjÅ¡ÃŃ": 6892,
      "ĠzjistÃŃ": 6893,
      "hromady": 6894,
      "Ġtop": 6895,
      "ĠdÅ¯sledku": 6896,
      "ĠÄĮeskÃ½": 6897,
      "Ġrozvoje": 6898,
      "ĠvÃ½hod": 6899,
      "Ġvyhov": 6900,
      "Ġpoplatek": 6901,
      "ĠotevÃŃ": 6902,
      "Ġteori": 6903,
      "Ġdruhu": 6904,
      "ĠumoÅ¾nÃŃ": 6905,
      "ĠpÅĻÃŃleÅ¾itosti": 6906,
      "ĠpoÄįÃŃtaÄįe": 6907,
      "Ġvznikl": 6908,
      "ĠvÃ½voje": 6909,
      "ovce": 6910,
      "ÃŃme": 6911,
      "ĠvykonÃ¡": 6912,
      "chÃ¡ch": 6913,
      "ĠBan": 6914,
      "Ġobnov": 6915,
      "ĠÅ¡aty": 6916,
      "Ġknihu": 6917,
      "Ġprogramy": 6918,
      "Ġmodely": 6919,
      "ĠpomÄĽr": 6920,
      "usÃŃm": 6921,
      "ĠNE": 6922,
      "ĠÄįÃŃmÅ¾": 6923,
      "ĠkrÃ¡snÃ½": 6924,
      "Ġmr": 6925,
      "ĠmladÅ¡ÃŃ": 6926,
      "ĠpÅĻekÃ¡": 6927,
      "ĠdozvÄĽ": 6928,
      "hodu": 6929,
      "ki": 6930,
      "teligen": 6931,
      "ĠDÄĽkuji": 6932,
      "ĠHotel": 6933,
      "kaÅ¾": 6934,
      "ĠItÃ¡": 6935,
      "ĠzkuÅ¡enostÃŃ": 6936,
      "tes": 6937,
      "ĠÃºterÃ½": 6938,
      "Ġzrc": 6939,
      "Ġdesky": 6940,
      "Ġdobrovol": 6941,
      "ĠnejvÃŃc": 6942,
      "ĠMicha": 6943,
      "Ġsurov": 6944,
      "Ġzakon": 6945,
      "tva": 6946,
      "Ġdostatek": 6947,
      "ĠBen": 6948,
      "ĠtudÃŃÅ¾": 6949,
      "ĠSam": 6950,
      "ĠBabi": 6951,
      "znak": 6952,
      "Ġslab": 6953,
      "ĠjejÃŃÅ¾": 6954,
      "Ġhol": 6955,
      "ĠÃºspÄĽch": 6956,
      "Ġ'": 6957,
      "nÃŃky": 6958,
      "ĠpÅĻedstavenÃŃ": 6959,
      "Ġhli": 6960,
      "ĠprochÃ¡": 6961,
      "Äįel": 6962,
      "ĠnejdÅ¯leÅ¾it": 6963,
      "Ġnebudu": 6964,
      "ĠluxusnÃŃ": 6965,
      "ÅĻice": 6966,
      "ĠlÃ¡sky": 6967,
      "all": 6968,
      "Ġprodeje": 6969,
      "Ġepi": 6970,
      "ÄįkÃ¡ch": 6971,
      "Ġvystup": 6972,
      "Ġ65": 6973,
      "41": 6974,
      "anÃ©m": 6975,
      "ĠDavid": 6976,
      "pravidla": 6977,
      "ĠchodÃŃ": 6978,
      "hala": 6979,
      "ĠudÄĽlal": 6980,
      "Ġdotaz": 6981,
      "Ġunie": 6982,
      "zovÃ©": 6983,
      "ĠdosÃ¡hnout": 6984,
      "ĠKarel": 6985,
      "Äįina": 6986,
      "redit": 6987,
      "tickÃ©ho": 6988,
      "Ġkalho": 6989,
      "Ġaktuali": 6990,
      "dlu": 6991,
      "ĠdlouhodobÄĽ": 6992,
      "sce": 6993,
      "top": 6994,
      "ĠurÄįen": 6995,
      "Ġgeo": 6996,
      "07": 6997,
      "ĠrozpoÄįtu": 6998,
      "ÄįÃŃn": 6999,
      "ĠTru": 7000,
      "ĠÃºse": 7001,
      "ÅĻuje": 7002,
      "ĠEuro": 7003,
      "ĠMez": 7004,
      "ĠjÃŃdla": 7005,
      "Ġpes": 7006,
      "ĠÄįinnostÃŃ": 7007,
      "kola": 7008,
      "ĠstupnÄĽ": 7009,
      "ĠMyslÃŃm": 7010,
      "Ġinfra": 7011,
      "Ġkonkuren": 7012,
      "rb": 7013,
      "ĠâĢĶ": 7014,
      "Ġplyn": 7015,
      "pojenÃŃ": 7016,
      "ĠÃºnora": 7017,
      "ĠNovÃ©": 7018,
      "ĠÄįesko": 7019,
      "Ġpovrchu": 7020,
      "ĠFace": 7021,
      "vitu": 7022,
      "Ġjazyk": 7023,
      "temati": 7024,
      "ilem": 7025,
      "rovÃ¡": 7026,
      "ĠpÅĻehrÃ¡": 7027,
      "ĠbÃŃlÃ¡": 7028,
      "Ġnejbli": 7029,
      "ĠJiho": 7030,
      "Ġhere": 7031,
      "Ġkonf": 7032,
      "ĠhorÅ¡ÃŃ": 7033,
      "dujeme": 7034,
      "Ġplane": 7035,
      "Ġsal": 7036,
      "ĠbÅĻi": 7037,
      "ĠpÃ³": 7038,
      "Ġhodnot": 7039,
      "ĠnabÃŃzÃŃme": 7040,
      "ĠoblÃŃbenÃ©": 7041,
      "ĠtermÃŃn": 7042,
      "ĠzÃ¡vodu": 7043,
      "ĠnÃ¡dra": 7044,
      "shopu": 7045,
      "Äįnosti": 7046,
      "jmen": 7047,
      "ĠdÃŃlo": 7048,
      "ĠDÃŃ": 7049,
      "Ġkontrolu": 7050,
      "ĠvytvÃ¡ÅĻe": 7051,
      "ĠPS": 7052,
      "ĠindividuÃ¡lnÃŃ": 7053,
      "ĠvaÅ¡ich": 7054,
      "rativnÃŃ": 7055,
      "ĠzÃ¡leÅ¾ÃŃ": 7056,
      "Ġseni": 7057,
      "ĠZemÄĽ": 7058,
      "ĠfunkÄįnÃŃ": 7059,
      "revnÃ©": 7060,
      "TA": 7061,
      "Â®": 7062,
      "ĠvidÃŃ": 7063,
      "ĠsmÄĽÅĻ": 7064,
      "Ġ1000": 7065,
      "ĠvyhrÃ¡": 7066,
      "ĠpodmÃŃnkÃ¡ch": 7067,
      "ĠNovÃ½": 7068,
      "livost": 7069,
      "ĠQu": 7070,
      "Ġpolici": 7071,
      "Ġnarozen": 7072,
      "ĠzadÃ¡": 7073,
      "Ġdneska": 7074,
      "))": 7075,
      "ĠKni": 7076,
      "pÄĽnÃŃ": 7077,
      "giÃŃ": 7078,
      "tiky": 7079,
      "vÃ©d": 7080,
      "ĠcÃŃrk": 7081,
      "tÄĽl": 7082,
      "Ġobjev": 7083,
      "dujÃŃcÃŃch": 7084,
      "ĠsprÃ¡vy": 7085,
      "ĠvÄįera": 7086,
      "Å¡eli": 7087,
      "Ġoslov": 7088,
      "ĠÅĻeÄįeno": 7089,
      "stalace": 7090,
      "ĠjÃ¡d": 7091,
      "zenÃ¡": 7092,
      "zujÃŃcÃŃ": 7093,
      "rant": 7094,
      "Ġroman": 7095,
      "Ġfilo": 7096,
      "ĠnoÄįnÃŃ": 7097,
      "Ġilu": 7098,
      "ĠponÄĽkud": 7099,
      "booku": 7100,
      "Ġvrch": 7101,
      "drÅ¾e": 7102,
      "ĠdlouhÃ¡": 7103,
      "vateli": 7104,
      "Ġredak": 7105,
      "Ġkultury": 7106,
      "Ġruky": 7107,
      "ĠMarie": 7108,
      "UR": 7109,
      "Ġtlak": 7110,
      "padla": 7111,
      "ĠtÃ½dnÅ¯": 7112,
      "Ġkampa": 7113,
      "tacÃŃ": 7114,
      "ĠvÃŃna": 7115,
      "Ġtitul": 7116,
      "Ġmistrov": 7117,
      "ĠzaÄįalo": 7118,
      "tajÃŃ": 7119,
      "hnu": 7120,
      "ĠBene": 7121,
      "ĠDÃ¡": 7122,
      "ĠÃºÄįa": 7123,
      "Ġ39": 7124,
      "ĠVelmi": 7125,
      "ĠvystoupenÃŃ": 7126,
      "Ġ195": 7127,
      "Ġzje": 7128,
      "Ġrodina": 7129,
      "ÅĻte": 7130,
      "ĠSan": 7131,
      "Ġplno": 7132,
      "lue": 7133,
      "enka": 7134,
      "bere": 7135,
      "ĠÂ°": 7136,
      "ĠRE": 7137,
      "Ġriziko": 7138,
      "ĠÄįÃ¡steÄįnÄĽ": 7139,
      "grafie": 7140,
      "ĠpÅĻÃŃjmu": 7141,
      "Ġzpro": 7142,
      "ĠMS": 7143,
      "ovÃ¡ni": 7144,
      "Ġexeku": 7145,
      "Ġdoty": 7146,
      "ĠMÄĽst": 7147,
      "pak": 7148,
      "ĠVzhledem": 7149,
      "Ġpoky": 7150,
      "Ġdivo": 7151,
      "ruje": 7152,
      "ĠzajiÅ¡tÄĽ": 7153,
      "ĠInformace": 7154,
      "ÅĪky": 7155,
      "ĠsplÃ¡": 7156,
      "ĠDlou": 7157,
      "Ġslovy": 7158,
      "pozdÄĽji": 7159,
      "Ġnemocnice": 7160,
      "ĠspojenÃ©": 7161,
      "ĠposkytovÃ¡nÃŃ": 7162,
      "Ġpodi": 7163,
      "ĠZÅł": 7164,
      "Ġpana": 7165,
      "ĠStaÄįÃŃ": 7166,
      "ÅĻovÃ¡nÃŃ": 7167,
      "----": 7168,
      "ĠvÅ¡echna": 7169,
      "ĠprÅ¯mÄĽru": 7170,
      "ĠstraÅ¡nÄĽ": 7171,
      "ĠRozmÄĽry": 7172,
      "ĠdÃ¡rek": 7173,
      "!âĢľ": 7174,
      "Ġnemovitosti": 7175,
      "Ġ,,": 7176,
      "ril": 7177,
      "nkou": 7178,
      "ros": 7179,
      "ĠÃºkol": 7180,
      "ĠÄĮesku": 7181,
      "Ġneroz": 7182,
      "Ġchyb": 7183,
      "armoni": 7184,
      "ĠfinÃ¡le": 7185,
      "ĠdÃŃly": 7186,
      "Ġmajitel": 7187,
      "Ġbabi": 7188,
      "Ġdotace": 7189,
      "ĠÅ¡at": 7190,
      "Ġ//": 7191,
      "nii": 7192,
      "ologie": 7193,
      "Ġmiliar": 7194,
      "ĠdolarÅ¯": 7195,
      "ĠelektronickÃ©": 7196,
      "Ġble": 7197,
      "ĠDen": 7198,
      "Ġmetody": 7199,
      "vÃ½car": 7200,
      "Ġstudie": 7201,
      "ĠzkouÅ¡ky": 7202,
      "vnÃ½": 7203,
      "Ġmalou": 7204,
      "enÃŃm": 7205,
      "lÃŃch": 7206,
      "ĠzabÃŃ": 7207,
      "ĠzÃ¡sadnÃŃ": 7208,
      "votnÃŃ": 7209,
      "ĠvÃ¡mi": 7210,
      "ĠÅ¾alu": 7211,
      "Ġdohromady": 7212,
      "Ġprostory": 7213,
      "08": 7214,
      "ĠAngli": 7215,
      "ĠzmÄĽn": 7216,
      "ĠpotÅĻebujete": 7217,
      "ĠLabem": 7218,
      "Å£": 7219,
      "Ġplatit": 7220,
      "Ġdvoji": 7221,
      "ĠpÅĻÃŃtel": 7222,
      "Ġdia": 7223,
      "ĠpouÅ¾ÃŃvajÃŃ": 7224,
      "tec": 7225,
      "ĠLÃ©": 7226,
      "ĠhledÃ¡nÃŃ": 7227,
      "ĠvÃ½Å¡ka": 7228,
      "ĠangliÄįt": 7229,
      "Ġosmi": 7230,
      "66": 7231,
      "ĠzÃ¡kaznÃŃkÅ¯": 7232,
      "jÃŃme": 7233,
      "ÅĻÃŃte": 7234,
      "ÄįnÃ½m": 7235,
      "ĠvlÃ¡da": 7236,
      "Ġim": 7237,
      "ĠNÄĽm": 7238,
      "ratu": 7239,
      "aka": 7240,
      "ĠodpovÃŃdajÃŃcÃŃ": 7241,
      "Å¡nÃ½": 7242,
      "ĠMer": 7243,
      "ĠuprostÅĻed": 7244,
      "ovaÄį": 7245,
      "razili": 7246,
      "ĠtÃ½dny": 7247,
      "ĠsystÃ©mem": 7248,
      "Ġsmlouvu": 7249,
      "ĠspoleÄįnÃ©": 7250,
      "ĠvÃ½povÄĽÄı": 7251,
      "Ġzjistit": 7252,
      "kontro": 7253,
      "Ġimu": 7254,
      "Ġ2005": 7255,
      "ĠrodiÄįÅ¯": 7256,
      "Ano": 7257,
      "seda": 7258,
      "Ġadresa": 7259,
      "Ġvypo": 7260,
      "ĠVÅ¡ichni": 7261,
      "Ġ600": 7262,
      "ĠnejÄįastÄĽji": 7263,
      "Ġhost": 7264,
      "Ġdov": 7265,
      "Ġreprodu": 7266,
      "ĠodpovÄĽdi": 7267,
      "ÄįenÃ½": 7268,
      "itÃ©ri": 7269,
      "ovÄĽt": 7270,
      "ĠMichal": 7271,
      "diÅ¡tÄĽ": 7272,
      "Ġlib": 7273,
      "Ġfotograf": 7274,
      "nicÃŃch": 7275,
      "Ġkyseli": 7276,
      "vov": 7277,
      "ĠOsob": 7278,
      "ĠvlastnÃŃch": 7279,
      "sol": 7280,
      "mple": 7281,
      "ĠzÃ¡vÄĽre": 7282,
      "ĠBarva": 7283,
      "ĠTur": 7284,
      "ĠfanouÅ¡": 7285,
      "Ġpreven": 7286,
      "orit": 7287,
      "ĠÅ¡kolu": 7288,
      "ĠnapÃŃ": 7289,
      "Ġrostou": 7290,
      "Ġchodit": 7291,
      "Ġhudby": 7292,
      "Ġnahoru": 7293,
      "Ġvej": 7294,
      "dam": 7295,
      "Ġtv": 7296,
      "Ġfestivalu": 7297,
      "Ġpodpora": 7298,
      "Ġeli": 7299,
      "Jako": 7300,
      "ĠvÃŃte": 7301,
      "Ġakadem": 7302,
      "Ġkost": 7303,
      "ĠprovÃ¡dÃŃ": 7304,
      "ĠTro": 7305,
      "metr": 7306,
      "ĠsÃ½": 7307,
      "ĠzobrazenÃŃ": 7308,
      "ĠpleÅ¥": 7309,
      "ĠPoslednÃŃ": 7310,
      "vez": 7311,
      "ĠvÅ¡im": 7312,
      "Ġpneumati": 7313,
      "Ġzbytek": 7314,
      "lÃŃna": 7315,
      "Ġanaly": 7316,
      "Dne": 7317,
      "Ġrozhodla": 7318,
      "Ġuchaze": 7319,
      "ĠokamÅ¾iku": 7320,
      "ĠÄįleny": 7321,
      "Ġkonkur": 7322,
      "Ġnutno": 7323,
      "ĠvyvÃ¡": 7324,
      "Ġrevolu": 7325,
      "ĠsluÅ¾bu": 7326,
      "06": 7327,
      "ĠinformaÄįnÃŃ": 7328,
      "ĠÄĮech": 7329,
      "ĠstÃ¡tÅ¯": 7330,
      "ĠstaÅ¾enÃŃ": 7331,
      "ĠVÃ½sled": 7332,
      "ĠÃºsmÄĽ": 7333,
      "79": 7334,
      "UDr": 7335,
      "43": 7336,
      "ĠSvat": 7337,
      "Ġ<": 7338,
      "ĠhrÃ¡Äįe": 7339,
      "ĠnÃ¡kupu": 7340,
      "Ġnemohl": 7341,
      "ĠromÃ¡": 7342,
      "zetÃŃ": 7343,
      "leno": 7344,
      "ĠvyuÅ¾ÃŃvat": 7345,
      "ĠvlastnÃŃho": 7346,
      "Ġprojekty": 7347,
      "ovnÄĽ": 7348,
      "Å¡kol": 7349,
      "tivnÃŃ": 7350,
      "Ġkoncem": 7351,
      "tur": 7352,
      "nÄĽnÃ½": 7353,
      "mes": 7354,
      "kg": 7355,
      "ÅĻskÃ½ch": 7356,
      "Tu": 7357,
      "mum": 7358,
      "ĠneznÃ¡": 7359,
      "ĠÅ¾Ã¡ci": 7360,
      "ĠzÃ¡konem": 7361,
      "ĠdÅĻevo": 7362,
      "zit": 7363,
      "Ġzdi": 7364,
      "Ġkab": 7365,
      "ĠosvÄĽd": 7366,
      "nickÃ¡": 7367,
      "Ġ--": 7368,
      "ĠnedÃ¡vno": 7369,
      "ĠpoÅĻadÃŃ": 7370,
      "tovÃ¡nÃŃ": 7371,
      "Ġtmav": 7372,
      "dÄĽje": 7373,
      "ĠsnadnÃ©": 7374,
      "ĠrukÃ¡": 7375,
      "Äıar": 7376,
      "ĠmÃ½ch": 7377,
      "diÄį": 7378,
      "ĠvlasÅ¯": 7379,
      "Ġkomer": 7380,
      "ĠÄįeskÃ¡": 7381,
      "ĠzÃ¡vÄĽru": 7382,
      "ĠvÃ½hodou": 7383,
      "ĠprogramÅ¯": 7384,
      "Ġnajde": 7385,
      "gÃ¡": 7386,
      "nnÃ©": 7387,
      "Ġpali": 7388,
      "loze": 7389,
      "ĠvÄįas": 7390,
      "Ġsmlouva": 7391,
      "ĠpÅĻÃŃrodÄĽ": 7392,
      "Ġvolby": 7393,
      "vanÃ½ch": 7394,
      "dostÃŃ": 7395,
      "bez": 7396,
      "TE": 7397,
      "Ġhygi": 7398,
      "ĠvaÅ¡em": 7399,
      "Ġmluvit": 7400,
      "Å¾eme": 7401,
      "fy": 7402,
      "ĠtÅĻet": 7403,
      "ĠpozdÄĽjÅ¡ÃŃch": 7404,
      "lÅ¯Å¾": 7405,
      "venÃ©": 7406,
      "ĠcizÃŃ": 7407,
      "ĠosvÄĽtlenÃŃ": 7408,
      "Ġstat": 7409,
      "Ġhudeb": 7410,
      "ĠletiÅ¡tÄĽ": 7411,
      "Ġnetu": 7412,
      "ĠuÄįenÃŃ": 7413,
      "Ġzeptat": 7414,
      "ĠkancelÃ¡ÅĻ": 7415,
      "Ġvele": 7416,
      "Ġvyme": 7417,
      "ĠMilo": 7418,
      "ĠfotografiÃŃ": 7419,
      "ĠSE": 7420,
      "Ġfle": 7421,
      "ĠÅ¡irokÃ©": 7422,
      "ovacÃŃho": 7423,
      "ĠoficiÃ¡lnÃŃ": 7424,
      "Hz": 7425,
      "ĠzlepÅ¡enÃŃ": 7426,
      "Ġciz": 7427,
      "Ġosu": 7428,
      "mÃ¡lnÄĽ": 7429,
      "jenÃŃm": 7430,
      "Ġinstala": 7431,
      "ĠSport": 7432,
      "Ġperson": 7433,
      "blo": 7434,
      "ĠÄĮT": 7435,
      "fikaci": 7436,
      "ĠZÃ¡roveÅĪ": 7437,
      "zn": 7438,
      "ĠdÅ¯chod": 7439,
      "ĠnemovitostÃŃ": 7440,
      "ĠOnd": 7441,
      "ĠÅ¾Ã¡ky": 7442,
      "ĠtÃ©matu": 7443,
      "Ġloni": 7444,
      "ovanÄĽ": 7445,
      "lia": 7446,
      "ĠuspoÅĻÃ¡": 7447,
      "Ġpono": 7448,
      "Ġbodu": 7449,
      "Ġsor": 7450,
      "2011": 7451,
      "ĠnÃ¡hradnÃŃ": 7452,
      "ĠpÅĻedseda": 7453,
      "ĠzvÄĽ": 7454,
      "Ġkrve": 7455,
      "ĠrejstÅĻÃŃ": 7456,
      "ĠEn": 7457,
      "Ġnechal": 7458,
      "nÄĽnÃŃm": 7459,
      "76": 7460,
      "Ġmaje": 7461,
      "ĠNÄĽkterÃ©": 7462,
      "Ġbor": 7463,
      "tÃ¡ÅĻ": 7464,
      "ĠdÃ¡mskÃ©": 7465,
      "ĠÄįlÃ¡nkÅ¯": 7466,
      "Ġzahrnuje": 7467,
      "Ġdole": 7468,
      "Å¡ov": 7469,
      "ĠveÅĻejnÃ½ch": 7470,
      "ĠhlavÄĽ": 7471,
      "Ġ33": 7472,
      "ĠbÃŃl": 7473,
      "ĠvytvÃ¡ÅĻÃŃ": 7474,
      "ĠdigitÃ¡lnÃŃ": 7475,
      "ĠIÄĮ": 7476,
      "ĠaplikacÃŃ": 7477,
      "Kon": 7478,
      "ĠdÅĻÃŃv": 7479,
      "ĠrozmÄĽry": 7480,
      "teb": 7481,
      "Ġis": 7482,
      "Ġkonzer": 7483,
      "ĠuÅ¾ivatelÅ¯": 7484,
      "Ġrychlosti": 7485,
      "ĠjedinÃ©": 7486,
      "ĠvlÃ¡k": 7487,
      "Ġkore": 7488,
      "lovÄĽ": 7489,
      "Å¾eno": 7490,
      "Ġbram": 7491,
      "ĠOstatnÃŃ": 7492,
      "Ġgale": 7493,
      "ĠprovÃ©st": 7494,
      "jat": 7495,
      "likost": 7496,
      "Ce": 7497,
      "ovek": 7498,
      "Ġsoustav": 7499,
      "ĠvytvoÅĻenÃŃ": 7500,
      "Å¥Ã¡": 7501,
      "Ġ!": 7502,
      "Ġobu": 7503,
      "inovÃ©": 7504,
      "OZ": 7505,
      "ĠjakÃ©ho": 7506,
      "ĠhÅĻ": 7507,
      "Ġsoukrom": 7508,
      "ĠstÃ¡ty": 7509,
      "ĠVaÅ¡ÃŃ": 7510,
      "Ġpolitiky": 7511,
      "rÃ¡k": 7512,
      "Ġreakce": 7513,
      "ĠMiro": 7514,
      "zou": 7515,
      "ĠsamotnÃ©": 7516,
      "ĠNabÃŃzÃŃme": 7517,
      "ĠmÃŃr": 7518,
      "Ġkoho": 7519,
      "ÅĪÃ¡": 7520,
      "Ġbyto": 7521,
      "ĠMicro": 7522,
      "tickou": 7523,
      "Ġkomunit": 7524,
      "Ġulice": 7525,
      "ĠpolitickÃ©": 7526,
      "lacÃŃ": 7527,
      "ĠÅ¾eb": 7528,
      "ĠÄįekat": 7529,
      "skup": 7530,
      "ĠpoptÃ¡": 7531,
      "ĠdÅ¯raz": 7532,
      "ĠkÃ³d": 7533,
      "Å¾dÄĽ": 7534,
      "ĠstÅĻi": 7535,
      "mene": 7536,
      "85": 7537,
      "Ġregionu": 7538,
      "nÃŃkem": 7539,
      "Ġhub": 7540,
      "ĠoÄįÃŃ": 7541,
      "ĠÄįele": 7542,
      "roub": 7543,
      "Ġnebe": 7544,
      "ĠuÅ¡et": 7545,
      "rÃ¡m": 7546,
      "lna": 7547,
      "ĠpÅĻijÃŃt": 7548,
      "cs": 7549,
      "Ġchlad": 7550,
      "Ġkata": 7551,
      "hoten": 7552,
      "ĠnejspÃŃÅ¡": 7553,
      "Ġfar": 7554,
      "ĠvÃ©st": 7555,
      "ĠreÅ¾is": 7556,
      "inami": 7557,
      "ĠmÄĽÅĻÃŃ": 7558,
      "ĠzkrÃ¡tka": 7559,
      "Ġkdysi": 7560,
      "ĠtÄĽsnÄĽ": 7561,
      "ĠpÅĻevod": 7562,
      "ordin": 7563,
      "Ġvzduch": 7564,
      "stavenÃŃ": 7565,
      "ĠpÅ¯sobenÃŃ": 7566,
      "Å¾ena": 7567,
      "ĠpochÃ¡zÃŃ": 7568,
      "kodob": 7569,
      "Ġregistru": 7570,
      "Ġvznikla": 7571,
      "Ġvozu": 7572,
      "ĠpostavenÃŃ": 7573,
      "Ġpravo": 7574,
      "ĠdojÃŃt": 7575,
      "ĠrozhranÃŃ": 7576,
      "struktu": 7577,
      "Ġdomin": 7578,
      "ĠprobÄĽ": 7579,
      "vej": 7580,
      "ĠzvlÃ¡Å¡tÄĽ": 7581,
      "Ġmeta": 7582,
      "dolÃŃ": 7583,
      "ĠLon": 7584,
      "ĠnemusÃŃte": 7585,
      "GB": 7586,
      "ĠobchodnÃŃch": 7587,
      "ĠsilnÃ©": 7588,
      "Ġhospoda": 7589,
      "ĠrozÅ¡i": 7590,
      "pÅĻÃŃpa": 7591,
      "Ġsaz": 7592,
      "Ġkomunikaci": 7593,
      "ovanÃ©m": 7594,
      "Ġvolba": 7595,
      "Ġstanovi": 7596,
      "hde": 7597,
      "zet": 7598,
      "vaz": 7599,
      "ĠpÅĻijÃŃma": 7600,
      "lic": 7601,
      "Ġschopen": 7602,
      "rab": 7603,
      "lickÃ©": 7604,
      "Ġotec": 7605,
      "dami": 7606,
      "nutÃ©": 7607,
      "ĠzpÃŃ": 7608,
      "ĠvracÃŃ": 7609,
      "ĠvrÃ¡tÃŃ": 7610,
      "ĠÅĻidiÄį": 7611,
      "Ġtebe": 7612,
      "ÄįnÃ©m": 7613,
      "ĠÄįÃŃst": 7614,
      "ĠvÃ½zkumu": 7615,
      "ĠzÃ¡Å¾itek": 7616,
      "Ġmanu": 7617,
      "rÃ¡tu": 7618,
      "Ġdodnes": 7619,
      "ĠnejlepÅ¡ÃŃch": 7620,
      "ĠvysokÃ¡": 7621,
      "Ġfirmu": 7622,
      "Ġul": 7623,
      "ĠwebovÃ©": 7624,
      "Ġoku": 7625,
      "ĠuvaÅ¾": 7626,
      "ĠBritÃ¡": 7627,
      "Ġet": 7628,
      "ÅĻez": 7629,
      "ĠzbyteÄį": 7630,
      "ĠAÅ¥": 7631,
      "ĠkrÃ¡tkÃ©": 7632,
      "ĠposlednÃŃm": 7633,
      "ĠpÅĻipoj": 7634,
      "lÃŃme": 7635,
      "ĠpÃ¡s": 7636,
      "ĠlyÅ¾a": 7637,
      "ĠnÃ¡draÅ¾ÃŃ": 7638,
      "ovicÃŃch": 7639,
      "Ġknize": 7640,
      "Ġokres": 7641,
      "ĠtÄĽÅ¡it": 7642,
      "ĠHan": 7643,
      "ĠdajÃŃ": 7644,
      "Ġinteligen": 7645,
      "Ġvle": 7646,
      "VA": 7647,
      "Ġmam": 7648,
      "Ġnikoliv": 7649,
      "bÅĻeÅ¾ÃŃ": 7650,
      "Ġtenhle": 7651,
      "ĠdostupnÃ©": 7652,
      "Ġschopni": 7653,
      "entu": 7654,
      "ĠunikÃ¡tnÃŃ": 7655,
      "ĠreÅ¾im": 7656,
      "ĠpamÄĽÅ¥": 7657,
      "Ġznalosti": 7658,
      "zav": 7659,
      "ĠPraÅ¾": 7660,
      "ĠSil": 7661,
      "ĠnavÃ¡": 7662,
      "Ġpodez": 7663,
      "pevnÄĽ": 7664,
      "ĠvÃ½roÄįÃŃ": 7665,
      "ĠuÄįeb": 7666,
      "ĠprÅ¯myslu": 7667,
      "ĠMla": 7668,
      "Ġalbu": 7669,
      "ĠskupinÄĽ": 7670,
      "zdu": 7671,
      "dor": 7672,
      "ĠVer": 7673,
      "toÅ¾e": 7674,
      "ĠdostateÄį": 7675,
      "PR": 7676,
      "platit": 7677,
      "OVÃģ": 7678,
      "rÃ¡n": 7679,
      "ĠelektÅĻ": 7680,
      "Ġposil": 7681,
      "Ġdojem": 7682,
      "ĠprÅ¯kaz": 7683,
      "ĠVyu": 7684,
      "Ġvoleb": 7685,
      "Ġnosi": 7686,
      "Ġdokumentace": 7687,
      "vÃ¡te": 7688,
      "].": 7689,
      "Ġdalo": 7690,
      "ĠpovolenÃŃ": 7691,
      "ĠAt": 7692,
      "ĠTri": 7693,
      "dÄĽte": 7694,
      "ĠNA": 7695,
      "ĠtisÃŃce": 7696,
      "vaci": 7697,
      "stickÃ©ho": 7698,
      "Ġexperi": 7699,
      "hone": 7700,
      "mana": 7701,
      "ĠoznaÄįenÃŃ": 7702,
      "Ġsbor": 7703,
      "Ã¡dou": 7704,
      "Ġhmotnost": 7705,
      "ĠhodinÃ¡ch": 7706,
      "Ġprodeji": 7707,
      "ĠMÃ¡me": 7708,
      "ĠbudoucÃŃ": 7709,
      "Ã©lka": 7710,
      "Ġben": 7711,
      "ĠpÅĻÃŃm": 7712,
      "ĠdÄĽlajÃŃ": 7713,
      "ĠpÅĻÃŃstupu": 7714,
      "ĠzahrÃ¡": 7715,
      "Ġmotoru": 7716,
      "ĠÃºspÄĽÅ¡nÄĽ": 7717,
      "ĠuzavÃŃ": 7718,
      "ĠpÃ¡d": 7719,
      "pome": 7720,
      "ĠkaÅ¾dÃ©mu": 7721,
      "vaÄįe": 7722,
      "ĠNabÃŃ": 7723,
      "Ġdatum": 7724,
      "ĠÄįiÅ¡tÄĽnÃŃ": 7725,
      "Ġslunce": 7726,
      "Ġkombinace": 7727,
      "ÅĻstvÃŃ": 7728,
      "Ġ%.": 7729,
      "Ġrodinu": 7730,
      "ĠWil": 7731,
      "ĠSouÄįÃ¡stÃŃ": 7732,
      "Ġdlouh": 7733,
      "ĠtÅĻÃŃdÄĽ": 7734,
      "Ġ2004": 7735,
      "ĠnÃ¡byt": 7736,
      "ĠTechni": 7737,
      "ĠseriÃ¡lu": 7738,
      "ĠbazÃ©n": 7739,
      "ĠtÃ½kajÃŃcÃŃ": 7740,
      "Ġjezd": 7741,
      "ĠÄįlenovÃ©": 7742,
      "Ã¸e": 7743,
      "ÄįkÃ¡": 7744,
      "lovi": 7745,
      "ÅĻad": 7746,
      "hovat": 7747,
      "Ġopravy": 7748,
      "Ġnedale": 7749,
      "ĠtakovÃ©m": 7750,
      "Ġmagi": 7751,
      "ÄįujÃŃ": 7752,
      "ĠapartmÃ¡": 7753,
      "ĠminutÄĽ": 7754,
      "ĠIV": 7755,
      "zalo": 7756,
      "Dnes": 7757,
      "ĠznÃŃ": 7758,
      "Ġbro": 7759,
      "Ġmed": 7760,
      "ĠnÃ¡pad": 7761,
      "Ġzpra": 7762,
      "Ġzo": 7763,
      "ĠzÃ¡vaz": 7764,
      "lori": 7765,
      "mpati": 7766,
      "ĠvyuÅ¾it": 7767,
      "ction": 7768,
      "ĠHarry": 7769,
      "ĠFak": 7770,
      "ĠstÅĻedi": 7771,
      "ĠvÅ¡eobec": 7772,
      "davatel": 7773,
      "ĠOvÅ¡em": 7774,
      "Tato": 7775,
      "har": 7776,
      "Ġproh": 7777,
      "Ġada": 7778,
      "ampi": 7779,
      "km": 7780,
      "ovku": 7781,
      "ĠpÅĻednost": 7782,
      "ĠnÃ¡hodou": 7783,
      "ĠdomÃ¡cnosti": 7784,
      "ĠmÃŃstnost": 7785,
      "ĠâĨ": 7786,
      "ĠzÃ¡vislosti": 7787,
      "Ġteplota": 7788,
      "ÅĻiz": 7789,
      "obo": 7790,
      "ĠvyÅ¾aduje": 7791,
      "ĠnebezpeÄįÃŃ": 7792,
      "ĠvÃ½roba": 7793,
      "Ġagre": 7794,
      "mÄĽt": 7795,
      "ĠvÄĽÅĻÃŃ": 7796,
      "Ġzdob": 7797,
      "Ġforma": 7798,
      "ĠnavÅ¡tÃŃvit": 7799,
      "ĠpodÃ©": 7800,
      "Ġbarvu": 7801,
      "ĠvedenÃŃm": 7802,
      "Ġdoprava": 7803,
      "ĠTyp": 7804,
      "Ġvyrov": 7805,
      "plej": 7806,
      "vostÃŃ": 7807,
      "ĠzÃ¡kaznÃŃky": 7808,
      "ĠbarvÄĽ": 7809,
      "ĠvÃ½boru": 7810,
      "ĠÄĮÃ¡": 7811,
      "Ġzaznamen": 7812,
      "Ġhrad": 7813,
      "ĠpÅĻipravit": 7814,
      "ĠCom": 7815,
      "SL": 7816,
      "ĠzÃŃskala": 7817,
      "chodnÃŃ": 7818,
      "ĠjÃŃzdy": 7819,
      "Ġcertifi": 7820,
      "Ġplocha": 7821,
      "ĠnÃ¡zoru": 7822,
      "ĠnejpozdÄĽji": 7823,
      "ĠmÃŃry": 7824,
      "Ġmonitor": 7825,
      "ĠpÅĻedve": 7826,
      "ĠPÅĺ": 7827,
      "Ġjazyka": 7828,
      "ĠstÅ¯l": 7829,
      "kladnÄĽ": 7830,
      "Ġzpravidla": 7831,
      "Ġpostavy": 7832,
      "ĠorganizacÃŃ": 7833,
      "ĠzvÃŃÅĻe": 7834,
      "ĠÅĻeÅ¡ÃŃ": 7835,
      "ĠnÃ¡sledujÃŃcÃŃch": 7836,
      "Hla": 7837,
      "ĠÃºlo": 7838,
      "ĠkritÃ©ri": 7839,
      "ãģ": 7840,
      "ĠstÅĻÃŃbr": 7841,
      "Ġznalost": 7842,
      "ash": 7843,
      "ĠvÃ½robÄĽ": 7844,
      "set": 7845,
      "Ã©ÅĻe": 7846,
      "ĠjakÃ©koliv": 7847,
      "ela": 7848,
      "ĠNÄĽmecku": 7849,
      "ĠslÃ¡": 7850,
      "ĠlÃ©kaÅĻe": 7851,
      "Ġkuli": 7852,
      "ĠvÃ½tvar": 7853,
      "ĠbytÅ¯": 7854,
      "ĠpÅĻÃŃpadÅ¯": 7855,
      "ĠnaÅ¡el": 7856,
      "ĠSpoleÄįnost": 7857,
      "âĢĻ": 7858,
      "pisem": 7859,
      "Ġodpad": 7860,
      "Ġinfe": 7861,
      "ĠvidÃŃm": 7862,
      "ĠskvÄĽlÃ½": 7863,
      "ĠbavÃŃ": 7864,
      "ink": 7865,
      "ĠhlavnÃŃch": 7866,
      "ĠstrÃ¡nka": 7867,
      "Ġ42": 7868,
      "ĠpacientÅ¯": 7869,
      "pali": 7870,
      "aku": 7871,
      "morav": 7872,
      "korÃ¡t": 7873,
      "ram": 7874,
      "VÃ¡": 7875,
      "ĠroÄįnÄĽ": 7876,
      "Ġodsou": 7877,
      "ĠamerickÃ©": 7878,
      "ĠdoporuÄįenÃŃ": 7879,
      "sten": 7880,
      "chÃ¡me": 7881,
      "znÃ¡nÃŃ": 7882,
      "tekt": 7883,
      "ĠvenkovnÃŃ": 7884,
      "ĠkonÃŃ": 7885,
      "ĠdoufÃ¡m": 7886,
      "ĠÅ½Ã¡": 7887,
      "ĠsvojÃŃ": 7888,
      "ĠÅ¡ir": 7889,
      "Ġfajn": 7890,
      ",...": 7891,
      "hodÄĽ": 7892,
      "ĠnabÃŃdnout": 7893,
      "ĠSprÃ¡": 7894,
      "Ġdobou": 7895,
      "ĠOba": 7896,
      "ĠvlastnictvÃŃ": 7897,
      "ĠpÅĻekvapi": 7898,
      "zvlÃ¡": 7899,
      "ĠkÅ¯Å¾i": 7900,
      "Ġmimin": 7901,
      "tvo": 7902,
      "Ġdoktor": 7903,
      "Ġmeda": 7904,
      "Ġmasa": 7905,
      "ÅĻskÃ¡": 7906,
      "Ex": 7907,
      "Ġobdi": 7908,
      "ĠzvlÃ¡Å¡Å¥": 7909,
      "Ġvlo": 7910,
      "ĠSÃ¡": 7911,
      "Ġ56": 7912,
      "Ġstejnou": 7913,
      "Ġozdob": 7914,
      "islati": 7915,
      "ĠmÄĽsÃŃcÃŃch": 7916,
      "drav": 7917,
      "ĠMusÃŃ": 7918,
      "ĠodstranÄĽnÃŃ": 7919,
      "ĠSuper": 7920,
      "Ġvyd": 7921,
      "ĠnejnovÄĽ": 7922,
      "Ġvyjad": 7923,
      "Å¾ou": 7924,
      "Ġgen": 7925,
      "desÃ¡": 7926,
      "Ġprezidenta": 7927,
      "Ġjednat": 7928,
      "vÃ¡t": 7929,
      "Ġprofesion": 7930,
      "ĠpoznÃ¡m": 7931,
      "ĠPÅ¯": 7932,
      "ost": 7933,
      "ĠodbÄĽ": 7934,
      "ĠpÅĻÃŃpravu": 7935,
      "ĠfinanÄįnÃŃch": 7936,
      "ivnÃŃ": 7937,
      "ĠcelkovÄĽ": 7938,
      "ĠDne": 7939,
      "ĠformulÃ¡": 7940,
      "Ġeta": 7941,
      "Ġparametry": 7942,
      "tru": 7943,
      "ĠzvyÅ¡uje": 7944,
      "âĢ¢": 7945,
      "ĠnaÅĻÃŃzenÃŃ": 7946,
      "ph": 7947,
      "Ġdodat": 7948,
      "roba": 7949,
      "Ġpropoj": 7950,
      "Ġdynami": 7951,
      "zdy": 7952,
      "ĠvysokÃ½": 7953,
      "ĠvÃ¡lce": 7954,
      "roÄįnÃŃ": 7955,
      "ers": 7956,
      "Å¡tÄĽnÃ©": 7957,
      "stali": 7958,
      "ĠvÄĽtÅ¡inÄĽ": 7959,
      "Ġteku": 7960,
      "jÅ¡ÃŃho": 7961,
      "ĠÃºÅĻednÃŃ": 7962,
      "ĠJeÅ¾ÃŃÅ¡": 7963,
      "ĠzpÅ¯sobu": 7964,
      "ĠEl": 7965,
      "ĠsoutÄĽÅ¾i": 7966,
      "ĠMimo": 7967,
      "Ġpohodl": 7968,
      "Ġodkud": 7969,
      "ĠLou": 7970,
      "ĠsamÃ©": 7971,
      "Ġnepat": 7972,
      "PrÃ¡": 7973,
      "ĠBrna": 7974,
      "ĠblÃ¡": 7975,
      "Ġtaj": 7976,
      "Ġopra": 7977,
      "ĠkalendÃ¡ÅĻ": 7978,
      "ĠTedy": 7979,
      "ĠUÅ¾i": 7980,
      "ĠnejbliÅ¾Å¡ÃŃ": 7981,
      "pÃ¡dnÄĽ": 7982,
      "ĠtermÃŃnu": 7983,
      "ĠrÅ¯stu": 7984,
      "Ġsel": 7985,
      "ĠzahradÄĽ": 7986,
      "02": 7987,
      "nÃŃci": 7988,
      "ĠFil": 7989,
      "Ġnechci": 7990,
      "ĠÃºhra": 7991,
      "ĠpÅĻines": 7992,
      "ĠvyÅ¡etÅĻ": 7993,
      "DÃŃky": 7994,
      "ĠmluvÄįÃŃ": 7995,
      "ĠprvkÅ¯": 7996,
      "stina": 7997,
      "ĠpÅĻÃŃbÄĽ": 7998,
      "ĠElekt": 7999,
      "Ġvysky": 8000,
      "Ġ800": 8001,
      "ĠhnutÃŃ": 8002,
      "2000": 8003,
      "KO": 8004,
      "Ġbun": 8005,
      "ĠnÃ¡zory": 8006,
      "Ġmarketing": 8007,
      "ip": 8008,
      "pisÅ¯": 8009,
      "Ġsan": 8010,
      "venÃ½": 8011,
      "poli": 8012,
      "ality": 8013,
      "Ġrozhodli": 8014,
      "Ġmenu": 8015,
      "Ġslib": 8016,
      "Ġzdo": 8017,
      "Ġnespo": 8018,
      "Ġodes": 8019,
      "Ã³za": 8020,
      "ĠBel": 8021,
      "ĠJiÅ¾": 8022,
      "Ġrealizaci": 8023,
      "ĠvzÃ¡c": 8024,
      "Ġmik": 8025,
      "ĠpÅĻÃŃpravy": 8026,
      "plÃ¡": 8027,
      "nÃŃmi": 8028,
      "Ġinstru": 8029,
      "Ġvodo": 8030,
      "Ġtepla": 8031,
      "Ġklienty": 8032,
      "Å¾enou": 8033,
      "ĠveÅĻejnost": 8034,
      "Ġsouhlas": 8035,
      "ĠpÅ¯jde": 8036,
      "kres": 8037,
      "Ġdni": 8038,
      "ÄįÃŃte": 8039,
      "Ġreprezen": 8040,
      "ĠhoÅĻ": 8041,
      "ĠostatnÃŃmi": 8042,
      "SSD": 8043,
      "desÃ¡tÃ½ch": 8044,
      "ÅĻitel": 8045,
      "ĠmÃŃstnÃŃch": 8046,
      "ĠdoporuÄįujeme": 8047,
      "jas": 8048,
      "ĠzamÄĽstnance": 8049,
      "ĠzabezpeÄįenÃŃ": 8050,
      "skÅ¯": 8051,
      "mÃŃm": 8052,
      "kÃ½mi": 8053,
      "ĠpÅĻeprav": 8054,
      "ĠmladÃŃ": 8055,
      "ĠZden": 8056,
      "ÄįanÃ©": 8057,
      "citu": 8058,
      "bilo": 8059,
      "Ġnemoci": 8060,
      "stÃ¡l": 8061,
      "ĠrodinÄĽ": 8062,
      "ĠFoto": 8063,
      "ĠVal": 8064,
      "ĠObje": 8065,
      "ĠpapÃŃr": 8066,
      "ĠurÄįenÃ©": 8067,
      "Ġrekor": 8068,
      "ÄįasnÄĽ": 8069,
      "ĠvyvÃŃ": 8070,
      "lÃŃky": 8071,
      "Ġargu": 8072,
      "ĠmanÅ¾e": 8073,
      "ĠHle": 8074,
      "Ġklo": 8075,
      "04": 8076,
      "ĠmÄĽnit": 8077,
      "\\\\\\\\\\\\\\\\\\\\\\\\\\\\\\\\": 8078,
      "Ġca": 8079,
      "Ġdobrodru": 8080,
      "ĠvÅ¯nÄĽ": 8081,
      "Ġdispon": 8082,
      "ĠZku": 8083,
      "stvÃŃm": 8084,
      "ley": 8085,
      "ket": 8086,
      "ĠjakoÅ¾": 8087,
      "ĠdvanÃ¡": 8088,
      "ĠzpÅ¯soby": 8089,
      "Ġspr": 8090,
      "ĠÃļstav": 8091,
      "drÃ¡t": 8092,
      "03": 8093,
      "Ġnevz": 8094,
      "Ġspon": 8095,
      "ĠvyÅ¡": 8096,
      "ĠzasedÃ¡nÃŃ": 8097,
      "ĠpÅĻijetÃŃ": 8098,
      "Ġkoncert": 8099,
      "mÃ¡nÃŃ": 8100,
      "ben": 8101,
      "dovÃ¡": 8102,
      "ĠOs": 8103,
      "Ġsedmi": 8104,
      "Ġcharakter": 8105,
      "ÃŃte": 8106,
      "Ġrole": 8107,
      "ĠobrÃ¡zek": 8108,
      "Ã¤": 8109,
      "ress": 8110,
      "ĠJapon": 8111,
      "ĠzÃ¡mku": 8112,
      "vÃ¡nÃŃm": 8113,
      "ĠpÅĻÃŃstroje": 8114,
      "ĠgÃ³l": 8115,
      "MÃŃ": 8116,
      "zÅĻej": 8117,
      "nala": 8118,
      "Ġalternati": 8119,
      "Ġzkla": 8120,
      "ĠpÅĻedmÄĽty": 8121,
      "ĠdÄĽdi": 8122,
      "lenÃŃm": 8123,
      "Ġnale": 8124,
      "ĠzpÅĻÃŃ": 8125,
      "adu": 8126,
      "Ġplu": 8127,
      "Ġvoj": 8128,
      "tiku": 8129,
      "ĠdesÃŃtky": 8130,
      "ĠrozÅ¡ÃŃÅĻenÃŃ": 8131,
      "Ġprofil": 8132,
      "Äįeho": 8133,
      "Ġfron": 8134,
      "ovic": 8135,
      "nera": 8136,
      "ĠpÅĻispÃŃ": 8137,
      "Ġsilnice": 8138,
      "Ġfilmy": 8139,
      "mrz": 8140,
      "ĠrozliÅ¡enÃŃ": 8141,
      "Ġventi": 8142,
      "Ġpilo": 8143,
      "lnÃŃk": 8144,
      "Ġ85": 8145,
      "Ġkvalita": 8146,
      "diÄįnÃŃ": 8147,
      "slem": 8148,
      "Å¡ovat": 8149,
      "ĠMÅł": 8150,
      "sili": 8151,
      "Ġ34": 8152,
      "Ġcibu": 8153,
      "zz": 8154,
      "niÄįka": 8155,
      "ĠnepÅĻÃ¡": 8156,
      "Ġnos": 8157,
      "ĠpotvrzenÃŃ": 8158,
      "ĠmladÃ©": 8159,
      "88": 8160,
      "Ġobor": 8161,
      "ĠzprÃ¡vu": 8162,
      "2006": 8163,
      "ĠtÄĽhoten": 8164,
      "ĠMora": 8165,
      "ĠbÄĽÅ¾nÄĽ": 8166,
      "Ġoblastech": 8167,
      "Ġfaktor": 8168,
      "enosti": 8169,
      "Ġformy": 8170,
      "Ġlisty": 8171,
      "rÅ¯st": 8172,
      "ĠÅ¡patnÃ©": 8173,
      "movÃ©": 8174,
      "Å¡enou": 8175,
      "ll": 8176,
      "nskÃ½": 8177,
      "Ġdiplo": 8178,
      "pec": 8179,
      "ĠÃºÄįel": 8180,
      "Ġoken": 8181,
      "Äįily": 8182,
      "ĠzprostÅĻed": 8183,
      "ĠfyzickÃ©": 8184,
      "ĠpÅĻipomÃŃnÃ¡": 8185,
      "ĠRozhod": 8186,
      "regi": 8187,
      "Ġvytr": 8188,
      "ĠstarÃ¡": 8189,
      "Ġpolice": 8190,
      "Ġhranici": 8191,
      "ĠcÃŃsa": 8192,
      "Ġutr": 8193,
      "rala": 8194,
      "rovÃ½ch": 8195,
      "smÄĽ": 8196,
      "ĠoblastÃŃ": 8197,
      "ĠcÃŃtit": 8198,
      "Ġdostanete": 8199,
      "95": 8200,
      "ĠnegativnÃŃ": 8201,
      "ĠnÃ½": 8202,
      "Ġsouboru": 8203,
      "ĠpryÄį": 8204,
      "atutÃ¡": 8205,
      "ĠpracovnÃŃkÅ¯": 8206,
      "ĠzimÄĽ": 8207,
      "rovanÃ©": 8208,
      "ĠmalÃŃ": 8209,
      "Ġkarta": 8210,
      "Ġserveru": 8211,
      "ĠSever": 8212,
      "ĠChar": 8213,
      "ĠmnohÃ©": 8214,
      "Ġskry": 8215,
      "ĠzÃ¡stupci": 8216,
      "\":": 8217,
      "tÄĽla": 8218,
      "Ġhttps": 8219,
      "Ġvypadat": 8220,
      "Äįerst": 8221,
      "Jo": 8222,
      "ĠprÅ¯bÄĽ": 8223,
      "provÃ¡": 8224,
      "ĠjinÃ½mi": 8225,
      "voz": 8226,
      "ĠvÃ½sledku": 8227,
      "ovanÃŃ": 8228,
      "Ġneje": 8229,
      "rus": 8230,
      "ĠsilnÄĽ": 8231,
      "ovatelÅ¯": 8232,
      "Ġosobu": 8233,
      "ĠregionÃ¡lnÃŃ": 8234,
      "ĠÄįeskÃ©m": 8235,
      "SP": 8236,
      "ĠmontÃ¡Å¾": 8237,
      "tilo": 8238,
      "kop": 8239,
      "ĠvÃŃkendu": 8240,
      "Ã¡lem": 8241,
      "Ġsme": 8242,
      "dii": 8243,
      "ĠsedÃŃ": 8244,
      "techni": 8245,
      "Ġsyna": 8246,
      "slednÄĽ": 8247,
      ".-": 8248,
      "Ġbankov": 8249,
      "ĠstudentÅ¯": 8250,
      "Ġjednotek": 8251,
      "Ġeroti": 8252,
      "Ġprof": 8253,
      "Ġnavi": 8254,
      "isi": 8255,
      "ĠlÅ¯Å¾": 8256,
      "Ġdnem": 8257,
      "Å¡enÃ½ch": 8258,
      "peÅĪ": 8259,
      "ĠCla": 8260,
      "bylo": 8261,
      "vnÃ¡": 8262,
      "rÃ½vÃ¡": 8263,
      "Ġobsahem": 8264,
      "ĠzasÃŃ": 8265,
      "Ġprsa": 8266,
      "ĠJeden": 8267,
      "ladatel": 8268,
      "ĠvÃ½cvi": 8269,
      "Ġbezplat": 8270,
      "ruÅ¡enÃŃ": 8271,
      "kovanÃ©": 8272,
      "ĠdÃ©le": 8273,
      "Ġtehde": 8274,
      "ĠZlÃŃn": 8275,
      "ĠobÃ½": 8276,
      "ĠvÃŃno": 8277,
      "Ġdali": 8278,
      "Ġlesk": 8279,
      "Ġvyprac": 8280,
      "Ġmoto": 8281,
      "ĠmÄĽste": 8282,
      "mÃŃsto": 8283,
      "vÄĽtÅ¡ÃŃm": 8284,
      "ĠtÄĽmito": 8285,
      "ĠjakÃ½ch": 8286,
      "ĠZna": 8287,
      "Ġpokry": 8288,
      "ĠcÃŃrke": 8289,
      "ĠurÄįena": 8290,
      "mera": 8291,
      "ĠpolÃ©": 8292,
      "ĠpÅĻidat": 8293,
      "ĠMÄĽsto": 8294,
      "ĠvzdÃ¡lenosti": 8295,
      "ĠdruhÃ½m": 8296,
      "Ġrekre": 8297,
      "vie": 8298,
      "nor": 8299,
      "ĠduchovnÃŃ": 8300,
      "hlu": 8301,
      "ĠFun": 8302,
      "ĠnarozenÃŃ": 8303,
      "ĠvelkÃ©ho": 8304,
      "Ġlimit": 8305,
      "Vz": 8306,
      "Ġnejob": 8307,
      "Ġpokr": 8308,
      "UP": 8309,
      "ÅĻily": 8310,
      "Ġefekt": 8311,
      "ĠNaopak": 8312,
      "nÃ¡zi": 8313,
      "ĠseminÃ¡": 8314,
      "doÄįe": 8315,
      "ĠpÅĻiblÃŃ": 8316,
      "ĠatmosfÃ©ru": 8317,
      "Å¡ke": 8318,
      "ĠvolnÄĽ": 8319,
      "Ġzad": 8320,
      "Äįiny": 8321,
      "cion": 8322,
      "ĠupÅĻe": 8323,
      "prch": 8324,
      "ĠvÃ½hody": 8325,
      "Ġgym": 8326,
      "Ġpivo": 8327,
      "ĠCi": 8328,
      "ĠpÅĻekon": 8329,
      "ĠtÃ½dnu": 8330,
      "koval": 8331,
      "ĠVaÅ¡eho": 8332,
      "stry": 8333,
      "Ġodpor": 8334,
      "stvu": 8335,
      "ris": 8336,
      "Ġaler": 8337,
      "lejte": 8338,
      "kladatel": 8339,
      "Ġchyby": 8340,
      "Ġvydat": 8341,
      "ĠzdÅ¯raz": 8342,
      "Ġhezky": 8343,
      "Ġtelefoni": 8344,
      "ĠuhlÃŃ": 8345,
      "Ġpokoji": 8346,
      "ĠmedicÃŃ": 8347,
      "Ġcyklu": 8348,
      "Ã¡dat": 8349,
      "ĠÃļstÃŃ": 8350,
      "ĠocenÄĽnÃŃ": 8351,
      "Ġmali": 8352,
      "lenÃ½ch": 8353,
      "teÅĻskÃ©": 8354,
      "Å¾dÄĽnÃŃ": 8355,
      "ĠkamarÃ¡d": 8356,
      "rnÃŃm": 8357,
      "2010": 8358,
      "ĠÅ¡koda": 8359,
      "Ġel": 8360,
      "ovol": 8361,
      "CD": 8362,
      "Ġ46": 8363,
      "ãĥ": 8364,
      "ĠstÅĻel": 8365,
      "ĠdoporuÄįuji": 8366,
      "vize": 8367,
      "ĠmateÅĻ": 8368,
      "ĠtrpÃŃ": 8369,
      "metri": 8370,
      "Ġpochyb": 8371,
      "ĠvolnÃ©": 8372,
      "Ġpochopi": 8373,
      "StÃ¡": 8374,
      "vent": 8375,
      "Ġmatemati": 8376,
      "ĠzÃŃskÃ¡nÃŃ": 8377,
      "ĠprohlÃŃÅ¾e": 8378,
      "Ġcivili": 8379,
      "bus": 8380,
      "Ġkartu": 8381,
      "ĠpraktickÃ©": 8382,
      "mÄĽna": 8383,
      "Ġaro": 8384,
      "ĠJsme": 8385,
      "bka": 8386,
      "Ba": 8387,
      "klÃ©": 8388,
      "Ġrealiz": 8389,
      "ĠâĨĴ": 8390,
      "ĠCH": 8391,
      "Ġdomy": 8392,
      "domÃŃ": 8393,
      "ĠmladÃ½ch": 8394,
      "Ġlodi": 8395,
      "ĠvozÃŃ": 8396,
      "ĠkvalitÄĽ": 8397,
      "ĠtrpÄĽ": 8398,
      "Ġbeze": 8399,
      "ĠpÅĻedpisy": 8400,
      "vrh": 8401,
      "ĠVoj": 8402,
      "SpoleÄįnost": 8403,
      "Ġprovede": 8404,
      "mocÃŃ": 8405,
      "Ġemail": 8406,
      "ĠletoÅ¡nÃŃho": 8407,
      "Ġadrese": 8408,
      "ĠprovÄĽ": 8409,
      "ĠprohlÃ¡Å¡enÃŃ": 8410,
      "ĠTele": 8411,
      "Ġnastavit": 8412,
      "ovacÃŃm": 8413,
      "ĠÄįast": 8414,
      "sr": 8415,
      "ÄįinÄĽ": 8416,
      "........": 8417,
      "kynÄĽ": 8418,
      "pka": 8419,
      "edl": 8420,
      "ĠvÃ½robku": 8421,
      "nÄĽny": 8422,
      "Ġvtip": 8423,
      "vet": 8424,
      "trÃ©": 8425,
      "gace": 8426,
      "Jen": 8427,
      "des": 8428,
      "Ġdosava": 8429,
      "Ġomy": 8430,
      "ĠzamÄĽstnanci": 8431,
      "Ġzvuk": 8432,
      "ĠnemÃ¡te": 8433,
      "ĠmÄĽstskÃ©": 8434,
      "Å¡nÃ¡": 8435,
      "ĠdoplÅĪky": 8436,
      "soft": 8437,
      "nÄĽnÃ¡": 8438,
      "padne": 8439,
      "ÅĻenou": 8440,
      "ĠhroznÄĽ": 8441,
      "Ġkomplet": 8442,
      "ĠvrÃ¡til": 8443,
      "ĠneznÃ¡m": 8444,
      "Ġkomo": 8445,
      "ĠkonÃ¡": 8446,
      "eu": 8447,
      "ĠrÅ¯znÃ½mi": 8448,
      "ĠnÃ¡bytek": 8449,
      "hledy": 8450,
      "ĠvznikÃ¡": 8451,
      "mÄĽrÅ¯": 8452,
      "ÄįenÃ¡": 8453,
      "Ġzahrnu": 8454,
      "ĠpÅĻeci": 8455,
      "urt": 8456,
      "ĠdopÅĻedu": 8457,
      "ĠjezdÃŃ": 8458,
      "Ġkonzul": 8459,
      "ĠtiskÃ¡": 8460,
      "letu": 8461,
      "ĠzÅ¯stat": 8462,
      ":)": 8463,
      "Ġboji": 8464,
      "ii": 8465,
      "ero": 8466,
      "ĠnovÃ©m": 8467,
      "ÅĪka": 8468,
      "ĠÄįervenÃ©": 8469,
      "ĠmÃŃstem": 8470,
      "Ġjednak": 8471,
      "ĠoznÃ¡menÃŃ": 8472,
      "ĠjejÃŃch": 8473,
      "ĠnÄĽjakÃ©ho": 8474,
      "Ġuhra": 8475,
      "ĠstrojÅ¯": 8476,
      "ktoru": 8477,
      "ĠNÃ¡zev": 8478,
      "ĠklÃ¡ves": 8479,
      "ĠnÄĽkomu": 8480,
      "ĠpÅĻedpoklÃ¡": 8481,
      "ĠAB": 8482,
      "ĠpodÃŃle": 8483,
      "ĠAfri": 8484,
      "ĠJaroslav": 8485,
      "Ġnechy": 8486,
      "ĠdomÃ¡cÃŃch": 8487,
      "ĠkalendÃ¡": 8488,
      "ĠpÅĻiÅ¡lo": 8489,
      "Ġmatka": 8490,
      "ĠSvobo": 8491,
      ".),": 8492,
      "ĠnemÅ¯Å¾u": 8493,
      "ĠstandardnÃŃ": 8494,
      "pech": 8495,
      "ĠTou": 8496,
      "Ġdokument": 8497,
      "ĠÃºprava": 8498,
      "ĠobÄįanÅ¯": 8499,
      "ĠÃºprav": 8500,
      "hromÃ¡": 8501,
      "Ġinici": 8502,
      "ĠSK": 8503,
      "ranÅ¾": 8504,
      "ĠJedna": 8505,
      "chla": 8506,
      "covÃ¡": 8507,
      "72": 8508,
      "cenÃ½": 8509,
      "Ġ95": 8510,
      "ĠliÅ¡ÃŃ": 8511,
      "ĠblÃŃÅ¾ÃŃ": 8512,
      "ĠiP": 8513,
      "Ġrakov": 8514,
      "ĠobrÃ¡zky": 8515,
      "Ġopo": 8516,
      "ĠmyÅ¡lenky": 8517,
      "cal": 8518,
      "ĠznÃ¡t": 8519,
      "ĠZatÃŃmco": 8520,
      "Ġochrana": 8521,
      "ĠvyprÃ¡vÄĽ": 8522,
      "inku": 8523,
      "Ð»": 8524,
      "Ġinformaci": 8525,
      "ĠÅĻeky": 8526,
      "bro": 8527,
      "Ġvirtu": 8528,
      "ÅĻadÃŃ": 8529,
      "Ġminuty": 8530,
      "px": 8531,
      "ĠpozadÃŃ": 8532,
      "NI": 8533,
      "ĠmasÃ¡Å¾": 8534,
      "ĠVÄĽtÅ¡ina": 8535,
      "Ġsorti": 8536,
      "ĠBole": 8537,
      "ĠÅ¾alo": 8538,
      "ĠÄįeskosloven": 8539,
      "ĠGre": 8540,
      "ÄįujÃŃcÃŃ": 8541,
      "ĠprÃ¡dlo": 8542,
      "ĠtÄĽmi": 8543,
      "proti": 8544,
      "ĠdokÃ¡zal": 8545,
      "lÃ¡nÃŃm": 8546,
      "Ġlesa": 8547,
      "Ġprosto": 8548,
      "ĠAb": 8549,
      "bio": 8550,
      "Ġexter": 8551,
      "Å¡ce": 8552,
      "ĠkonÄĽ": 8553,
      "Ġtable": 8554,
      "ĠvÃ½stavy": 8555,
      "ĠpÅ¯vodu": 8556,
      "Ġlegislati": 8557,
      "kar": 8558,
      "Å¡kou": 8559,
      "2009": 8560,
      "ĠvÃ¡leÄį": 8561,
      "Ġrealizace": 8562,
      "ĠzatÃŃ": 8563,
      "ĠinteriÃ©ru": 8564,
      "Ġnazna": 8565,
      "ĠvzdÄĽlÃ¡vacÃŃ": 8566,
      "razila": 8567,
      "Å¡ena": 8568,
      "ĠzaÄįÃ¡tek": 8569,
      "ĠMal": 8570,
      "Ġpoto": 8571,
      "ĠdÃ¡v": 8572,
      "ĠbudeÅ¡": 8573,
      "ĠOP": 8574,
      "rovoz": 8575,
      "Ġdomova": 8576,
      "Ġhotovo": 8577,
      "Ġsma": 8578,
      "Ġzavo": 8579,
      "ĠRady": 8580,
      "ĠchrÃ¡nÃŃ": 8581,
      "Bu": 8582,
      "ĠnÄĽkam": 8583,
      "ĠrelativnÄĽ": 8584,
      "Ġjapon": 8585,
      "ĠDani": 8586,
      "Ġeu": 8587,
      "ĠÃºÄįastnÃŃkÅ¯": 8588,
      "Ġdemon": 8589,
      "lÃ¡k": 8590,
      "uju": 8591,
      "Ġshow": 8592,
      "ĠJestliÅ¾e": 8593,
      "ĠstrÃ¡nku": 8594,
      "dernÃŃ": 8595,
      "Ġstvo": 8596,
      "UM": 8597,
      "ĠkancelÃ¡ÅĻe": 8598,
      "Ġchat": 8599,
      "ĠChy": 8600,
      "ĠzbranÄĽ": 8601,
      "Ġmono": 8602,
      "Ġzahrady": 8603,
      "Ġmnohdy": 8604,
      "ĠkonkrÃ©tnÄĽ": 8605,
      "ĠzahÃ¡jenÃŃ": 8606,
      "ĠIT": 8607,
      "Å¡a": 8608,
      "OK": 8609,
      "ĠLukÃ¡": 8610,
      "ÅĻenÃ½ch": 8611,
      "danÄĽ": 8612,
      "Ġkonference": 8613,
      "ĠvÃ½jimkou": 8614,
      "Ġdiscip": 8615,
      "AK": 8616,
      "ĠpsanÃŃ": 8617,
      "rovod": 8618,
      "ĠDoporuÄį": 8619,
      "ĠsluneÄįnÃŃ": 8620,
      "ĠÄįl": 8621,
      "ĠpÅĻÃŃznak": 8622,
      "âĢ¦]": 8623,
      "ĠvÄĽnuje": 8624,
      "ĠÅłe": 8625,
      "Ġrostliny": 8626,
      "ĠsvÄĽd": 8627,
      "Ġdeska": 8628,
      "Ã¡nskÃ©": 8629,
      "nickÃ©ho": 8630,
      "Ġzpravoda": 8631,
      "ĠAktu": 8632,
      "Ġnet": 8633,
      "ÅĻskÃ½": 8634,
      "Ġamat": 8635,
      "Ġout": 8636,
      "Ġjader": 8637,
      "ĠuzavÅĻenÃŃ": 8638,
      "ĠkomentÃ¡ÅĻ": 8639,
      "Ġpodniku": 8640,
      "Ġsprch": 8641,
      "ĠSle": 8642,
      "ĠvÃŃtÄĽ": 8643,
      "ĠodÄĽ": 8644,
      "Ġkontroly": 8645,
      "ĠspoleÄįnÃ©ho": 8646,
      "ĠvÃŃme": 8647,
      "Ġvese": 8648,
      "Ġreprezent": 8649,
      "zie": 8650,
      "ĠKry": 8651,
      "ĠÅłu": 8652,
      "Ġkoleg": 8653,
      "Ġzre": 8654,
      "ĠpÅĻedmÄĽt": 8655,
      "74": 8656,
      "ĠDis": 8657,
      "ĠFrantiÅ¡ek": 8658,
      "Ġrecept": 8659,
      "Ġobjevil": 8660,
      "Jsem": 8661,
      "ĠpÅĻÃŃbu": 8662,
      "Ġparkovi": 8663,
      "ĠtÃŃ": 8664,
      "Ġnakou": 8665,
      "Ġskrze": 8666,
      "wi": 8667,
      "Å¡ujÃŃ": 8668,
      "Ġmatur": 8669,
      "vale": 8670,
      "ĠUniverz": 8671,
      "ĠnevÃ¡": 8672,
      "ĠsledovÃ¡nÃŃ": 8673,
      "ĠsamostatnÄĽ": 8674,
      "ĠEN": 8675,
      "ĠevropskÃ½ch": 8676,
      "ons": 8677,
      "Ġkompon": 8678,
      "ĠzÃ¡pasu": 8679,
      "ĠÄįistÄĽ": 8680,
      "Vi": 8681,
      "ĻĤ": 8682,
      "Ġorienta": 8683,
      "NÄĽk": 8684,
      "Ġnebudete": 8685,
      "ĠznÃ¡mÃ½": 8686,
      "ĠPP": 8687,
      "Ġlah": 8688,
      "ĠzakÃ¡zky": 8689,
      "Ġdiagnosti": 8690,
      "ĠRegi": 8691,
      "Ġbudoucnosti": 8692,
      "Ġmajetek": 8693,
      "Ġbato": 8694,
      "Ġbri": 8695,
      "ĠporovnÃ¡nÃŃ": 8696,
      "Ġnemohou": 8697,
      "ĠPostup": 8698,
      "ÅĻech": 8699,
      "enek": 8700,
      "ĠuÅ¾ÃŃvat": 8701,
      "Ġprodukce": 8702,
      "ĠoddÃŃ": 8703,
      "ĠprojednÃ¡": 8704,
      "ĠPodÃŃ": 8705,
      "ĠÅ¡li": 8706,
      "Ġdvacet": 8707,
      "kva": 8708,
      "ĠproblÃ©mu": 8709,
      "ĠOri": 8710,
      "Ġpoloviny": 8711,
      "ĠFili": 8712,
      "jeli": 8713,
      "letou": 8714,
      "wit": 8715,
      "iss": 8716,
      "Ġstolu": 8717,
      "TakÅ¾e": 8718,
      "Ġteore": 8719,
      "Ġkrku": 8720,
      "ĠÃºÄįasti": 8721,
      "ĠTÅĻeba": 8722,
      "ĠÅ¡kolenÃŃ": 8723,
      "Ġsrde": 8724,
      "ĠskonÄįil": 8725,
      "padl": 8726,
      "ĠbrÃ½": 8727,
      "que": 8728,
      "Ġhory": 8729,
      "ĠhypotÃ©": 8730,
      "vilo": 8731,
      "ĠotevÅĻe": 8732,
      "Ġbanka": 8733,
      "ĠÄįerno": 8734,
      "ĠnÃ¡rok": 8735,
      "ĠpÅĻiÅ¡li": 8736,
      "ĠpohodlÃŃ": 8737,
      "ĠostatnÃŃm": 8738,
      "ĠvÃ½hradnÄĽ": 8739,
      "Ġprofi": 8740,
      "ĠzvÃŃÅĻata": 8741,
      "ĠMoc": 8742,
      "Ġjab": 8743,
      "ĠDÄĽti": 8744,
      "psÃ¡": 8745,
      "ĠÅ¡ance": 8746,
      "Ġmilan": 8747,
      "ĠMasary": 8748,
      "Ġryb": 8749,
      "mili": 8750,
      "ĠpromÃŃ": 8751,
      "ĠvteÅĻ": 8752,
      "ĠpÅĻÃŃklad": 8753,
      "ĠnelÃŃ": 8754,
      "ĠÅ¡kod": 8755,
      "AG": 8756,
      "Ġblogu": 8757,
      "ĠzabÃ½vÃ¡": 8758,
      "Ġnikoli": 8759,
      "lovÄĽk": 8760,
      "ĠzajÃŃmavÃ½": 8761,
      "ĠÅĻeme": 8762,
      "Ġdivadla": 8763,
      "ĠpracovnÃŃho": 8764,
      "Ġjeze": 8765,
      "ĠÄĮechÃ¡ch": 8766,
      "Ġ2003": 8767,
      "ĠvydrÅ¾ÃŃ": 8768,
      "sc": 8769,
      "DF": 8770,
      "inak": 8771,
      "ĠdlouhÃ½": 8772,
      "Ã»": 8773,
      "kolik": 8774,
      "ĠposkytnutÃŃ": 8775,
      "Ġzvolit": 8776,
      "Ġzhor": 8777,
      "86": 8778,
      "ĠÃºrovnÄĽ": 8779,
      "Ġolympi": 8780,
      "ĠnakrÃ¡": 8781,
      "Ġfungovat": 8782,
      "Ġprobu": 8783,
      "ĠelektrickÃ©": 8784,
      "ĠfilmÅ¯": 8785,
      "ĠjedinÃ¡": 8786,
      "Ġzneu": 8787,
      "ĠpeÄįlivÄĽ": 8788,
      "ĠÅ¾a": 8789,
      "jÃŃmav": 8790,
      "rgani": 8791,
      "ĠdÄĽl": 8792,
      "Ġtero": 8793,
      "Ġtram": 8794,
      "ĠpohodÄĽ": 8795,
      "rad": 8796,
      "ĠHradec": 8797,
      "ĠÅ¡kolstvÃŃ": 8798,
      "Ġpedagogi": 8799,
      "Ġspat": 8800,
      "!!!!": 8801,
      "BÄĽ": 8802,
      "ĠpÅĻÃŃslu": 8803,
      "daÅĻilo": 8804,
      "ĠOst": 8805,
      "Ġpamat": 8806,
      "ĠÄįte": 8807,
      "Ġcokoliv": 8808,
      "ĠÅĻad": 8809,
      "ĠUrÄįitÄĽ": 8810,
      "Ġsmrt": 8811,
      "vovar": 8812,
      "hrad": 8813,
      "rce": 8814,
      "ĠÄįÃ¡stku": 8815,
      "ĠruÄįenÃŃ": 8816,
      "ĠpoÅ¾adavkÅ¯": 8817,
      "Ġrobo": 8818,
      "ĠUkraj": 8819,
      "Ġprezentace": 8820,
      "tud": 8821,
      "ĠjinÃ©m": 8822,
      "mÃŃru": 8823,
      "ĠmalÃ©ho": 8824,
      "ĠpotÅĻebujÃŃ": 8825,
      "fikaÄįnÃŃ": 8826,
      "ĠnevÃ½": 8827,
      "Ġodpo": 8828,
      "Ġnejstar": 8829,
      "Ġpleti": 8830,
      "ĠevropskÃ©": 8831,
      "Ġnatolik": 8832,
      "ĠsouÄįÃ¡st": 8833,
      "Â§": 8834,
      "riz": 8835,
      "Ġinfrastruktu": 8836,
      "ĠreklamnÃŃ": 8837,
      "ĠoÄį": 8838,
      "ĠIzra": 8839,
      "ĠpÅĻÃŃjmÅ¯": 8840,
      "ĠsÃŃdlem": 8841,
      "ĠzvÄĽt": 8842,
      "ĠvyjÃ¡dÅĻenÃŃ": 8843,
      "Ġnece": 8844,
      "dnÄĽnÃŃ": 8845,
      "Ġneban": 8846,
      "Ġ49": 8847,
      "ĠvÅ¡ÃŃm": 8848,
      "Ġvenkov": 8849,
      "ĠpÅĻÃŃpadnÃ©": 8850,
      "ĠnauÄįit": 8851,
      "ĠÃºdajnÄĽ": 8852,
      "Ġdesignu": 8853,
      "ĠvyvolÃ¡": 8854,
      "ĠtÃ¡bor": 8855,
      "myslov": 8856,
      "nÃŃkÅ¯": 8857,
      "Ġroste": 8858,
      "Ġtenis": 8859,
      "ĠoÄįima": 8860,
      "ĠÃºÄįetnÃŃ": 8861,
      "Ġplatby": 8862,
      "niku": 8863,
      "Nem": 8864,
      "ĠplÃ¡Å¾": 8865,
      "Ġdetek": 8866,
      "Ġbere": 8867,
      "ĠÄįÃ¡stky": 8868,
      "ĠSmlou": 8869,
      "non": 8870,
      "ĠkÅĻÃŃÅ¾": 8871,
      "Ġparti": 8872,
      "brÅ¾": 8873,
      "lala": 8874,
      "dÃ¡vajÃŃcÃŃ": 8875,
      "ĠruÄįnÃŃ": 8876,
      "kalo": 8877,
      "TV": 8878,
      "Ġ2019": 8879,
      "ĠcentrÃ¡lnÃŃ": 8880,
      "Ġdisplej": 8881,
      "pÅĻÃŃpadÄĽ": 8882,
      "Ġusa": 8883,
      "ĠpÃŃsmen": 8884,
      "Ġobjekt": 8885,
      "Ġhov": 8886,
      "ĠtÅĻÃŃda": 8887,
      "ĠobliÄįe": 8888,
      "ĠparÃ¡": 8889,
      "Druh": 8890,
      "Ã½Å¡le": 8891,
      "Ġkober": 8892,
      "ĠGi": 8893,
      "Ġsportu": 8894,
      "Ġokru": 8895,
      "ĠtÅĻetÃŃm": 8896,
      "ĠjÃŃdelnÃŃ": 8897,
      "ĠpovaÅ¾uje": 8898,
      "Ġdopo": 8899,
      "desÃ¡ti": 8900,
      "ĠvÅ¯z": 8901,
      "ĠBor": 8902,
      "Ġaj": 8903,
      "dÅĻi": 8904,
      "ĠdÃ¡vat": 8905,
      "ĠrozumÃŃ": 8906,
      "ĠfinancÃŃ": 8907,
      "ĠLidÃ©": 8908,
      "penÃŃm": 8909,
      "rÃ¡Å¾ÃŃ": 8910,
      "Ġseh": 8911,
      "mie": 8912,
      "ĠÅ¡kody": 8913,
      "Ġstudium": 8914,
      "ĠminulÃ©ho": 8915,
      "73": 8916,
      "ĠblÃŃzko": 8917,
      "ĠznaÄįnÄĽ": 8918,
      "ĠscÃ©nÃ¡": 8919,
      "Ġrespekt": 8920,
      "ĠzaÄįaly": 8921,
      "Ġdvo": 8922,
      "nickÃ½": 8923,
      "Ġrada": 8924,
      "ĠmÄĽsÃŃci": 8925,
      "ĠkrÃ¡snÃ¡": 8926,
      "ĠFir": 8927,
      "CO": 8928,
      "lina": 8929,
      "Au": 8930,
      "kovÃ©m": 8931,
      "ĠpÅĻÃŃjemnÃ½": 8932,
      "Ġnikde": 8933,
      "Ġfiltr": 8934,
      "zar": 8935,
      "ä¸": 8936,
      "Ġharmoni": 8937,
      "Ġrekonstrukce": 8938,
      "ĠvyrÃ¡bÃŃ": 8939,
      "ĠkrÃ¡tce": 8940,
      "hnou": 8941,
      "Ġtlaku": 8942,
      "instal": 8943,
      "ĠANO": 8944,
      "ĠuÄįin": 8945,
      "ĠRoman": 8946,
      "ĠfÃ¡zi": 8947,
      "stÅĻednÃŃ": 8948,
      "Å¾ujÃŃ": 8949,
      "ÅĻky": 8950,
      "ĠsmÄĽs": 8951,
      "ĠMÃ¡te": 8952,
      "ĠpodÃ©l": 8953,
      "inky": 8954,
      "Ġsilnici": 8955,
      "ĠOB": 8956,
      "ĠÃºdolÃŃ": 8957,
      "Ġjistotu": 8958,
      "ÄįnÄĽjÅ¡ÃŃ": 8959,
      "ĠperfektnÃŃ": 8960,
      "dÄĽjÃŃ": 8961,
      "Ġnakup": 8962,
      "stalo": 8963,
      "ĠpÅ¯vo": 8964,
      "ffi": 8965,
      "ĠdÃŃlÅ¯": 8966,
      "ĠsilnÃ½": 8967,
      "ï¿½ï¿½": 8968,
      "Ġopera": 8969,
      "ĠmÃ©m": 8970,
      "Ġdopravu": 8971,
      "ĠzÃ¡kaznÃŃka": 8972,
      "Ġdodal": 8973,
      "Ðº": 8974,
      "ĠpracoviÅ¡tÄĽ": 8975,
      "ĠÅ½Ã¡d": 8976,
      "ĠzÃ¡padnÃŃ": 8977,
      "sly": 8978,
      "mavÄĽ": 8979,
      "pii": 8980,
      "Ġrozsah": 8981,
      "Ġnegati": 8982,
      "ĠKat": 8983,
      "ĠÅ¾ivoÄįi": 8984,
      "Ġinvestice": 8985,
      "inem": 8986,
      "ĠdÅ¯kaz": 8987,
      "Ã³zy": 8988,
      "Å¾te": 8989,
      "gon": 8990,
      "ĠÄįlenem": 8991,
      "ĠSnad": 8992,
      "ĠbyÅ¥": 8993,
      "Ġimunit": 8994,
      "ĠtvÃ¡ÅĻ": 8995,
      "Ġadap": 8996,
      "ĠFer": 8997,
      "Ġspal": 8998,
      "Ġ09": 8999,
      "ÅĻÃŃch": 9000,
      "ĠzranÄĽnÃŃ": 9001,
      "ĠKontak": 9002,
      "Ġbakteri": 9003,
      "kovice": 9004,
      "ckÃ©mu": 9005,
      "ĠWC": 9006,
      "ĠsprÃ¡vce": 9007,
      "pÃŃÅ¡e": 9008,
      "ĠdÃ©lce": 9009,
      "ĠchystÃ¡": 9010,
      "ĠzÃ¡znam": 9011,
      "ĠnaÅ¡tÄĽstÃŃ": 9012,
      "ĠhrozÃŃ": 9013,
      "Ġpub": 9014,
      "ĠvÃ½Å¡ky": 9015,
      "ĠÅ¾ebÅĻÃŃ": 9016,
      "ĠnÃ¡strojÅ¯": 9017,
      "Ġkruh": 9018,
      "ĠzÃ¡mek": 9019,
      "ktory": 9020,
      "Ġskupinu": 9021,
      "Ġnove": 9022,
      "ĠformÃ¡tu": 9023,
      "Ġdokumenty": 9024,
      "ĠÅ¡Å¥Ã¡": 9025,
      "ĠÅłkoda": 9026,
      "tnÃ½": 9027,
      "ĠinternetovÃ©": 9028,
      "Ġpej": 9029,
      "Äįast": 9030,
      "ĠPodob": 9031,
      "ĠefektivnÃŃ": 9032,
      "Ġduchu": 9033,
      "ĠpÅĻedmÄĽtu": 9034,
      "HD": 9035,
      "ĠLondÃ½": 9036,
      "ĠPotom": 9037,
      "ĠjistÃ©": 9038,
      "Ġkousky": 9039,
      "ĠpomÄĽru": 9040,
      "ĠsprÃ¡vnÃŃ": 9041,
      "ĠplnÃ¡": 9042,
      "ĠBoha": 9043,
      "ĠOlomouc": 9044,
      "Ġnikoho": 9045,
      "rovÄĽ": 9046,
      "ĠchÅ¯": 9047,
      "Ġ44": 9048,
      "ĠTady": 9049,
      "ranit": 9050,
      "ĠzahraniÄįnÃŃch": 9051,
      "ĠpÅĻekvapenÃŃ": 9052,
      "Ġinterpre": 9053,
      "ĠAlex": 9054,
      "Ġzdr": 9055,
      "ĠudÃ¡lostÃŃ": 9056,
      "ĠVÃ¡noce": 9057,
      "ĠdospÄĽlÃ©": 9058,
      "Ã³znÃŃ": 9059,
      "Ġpoti": 9060,
      "ĠZeman": 9061,
      "Å¥te": 9062,
      "ĠzÃ¡zemÃŃ": 9063,
      "Ġpanel": 9064,
      "2004": 9065,
      "gypt": 9066,
      "Ġaudi": 9067,
      "fr": 9068,
      "ĠcÃŃtÃŃ": 9069,
      "Ġpouzd": 9070,
      "ĠmÅ¯Å¾eÅ¡": 9071,
      "grace": 9072,
      "ÄįÅ¯m": 9073,
      "ĠvitamÃŃ": 9074,
      "Ġsmut": 9075,
      "moÅĻ": 9076,
      "vÄĽzd": 9077,
      "ĠmlÃ¡deÅ¾e": 9078,
      "Ġtechnika": 9079,
      "ĠbrÃ¡t": 9080,
      "ceni": 9081,
      "stka": 9082,
      "ĠGB": 9083,
      "hÃ¡ch": 9084,
      "Ġrestauraci": 9085,
      "ĠpevnÃ©": 9086,
      "ĠTÃ©": 9087,
      "ĠmateÅĻskÃ©": 9088,
      "Ġmiliardy": 9089,
      "ĠpÅĻedmÄĽtÅ¯": 9090,
      "ĠNovo": 9091,
      "hodnÄĽjÅ¡ÃŃ": 9092,
      "stnÃ©": 9093,
      "ĠoÅ¡etÅĻ": 9094,
      "ĠnenÃ¡vi": 9095,
      "stÅĻÃŃc": 9096,
      "nÄĽno": 9097,
      "ĠHP": 9098,
      "ktnÄĽ": 9099,
      "Ġvizu": 9100,
      "venÃ¡": 9101,
      "Ġvlastnost": 9102,
      "ĠoÄįekÃ¡vÃ¡nÃŃ": 9103,
      "Ġobrazu": 9104,
      "ĠvydÃ¡vÃ¡": 9105,
      "Ġspoleh": 9106,
      "ĠnezbytnÃ©": 9107,
      "ĠvolnÃ½": 9108,
      "ĠbÃŃlkov": 9109,
      "Ġnohou": 9110,
      "ĠNÄĽkdy": 9111,
      "ĠnÃ¡roÄįnÃ©": 9112,
      "Ġsoftware": 9113,
      "ĠAir": 9114,
      "ÃŃn": 9115,
      "ĠZboÅ¾ÃŃ": 9116,
      "ami": 9117,
      "Ġkome": 9118,
      "ĠCzech": 9119,
      "ĠnÃ½brÅ¾": 9120,
      "Ġnefun": 9121,
      "Ġglob": 9122,
      "ĠmÃŃÄį": 9123,
      "ĠHospo": 9124,
      ".....": 9125,
      "ĠzÃŃtra": 9126,
      "rand": 9127,
      "hejte": 9128,
      "piÅ¡te": 9129,
      "hodnÃ½": 9130,
      "Ġneboli": 9131,
      "lÃŃnÄĽ": 9132,
      "ĠpokraÄįuje": 9133,
      "Ġstovky": 9134,
      "dÃ¡te": 9135,
      "ĠJÃŃ": 9136,
      "ĠudrÅ¾et": 9137,
      "ĠuÄįit": 9138,
      "Ġcukru": 9139,
      "Ġnapa": 9140,
      "Ġstartu": 9141,
      "ĠvztahÅ¯": 9142,
      "ĠoptimÃ¡lnÃŃ": 9143,
      "ĠPracovnÃŃ": 9144,
      "ĠpÅĻestÃ¡": 9145,
      "Ġstudenty": 9146,
      "ĠpÅĻÃŃstav": 9147,
      "ĠrozdÄĽ": 9148,
      "Ġkurzy": 9149,
      "Ġkuchyni": 9150,
      "Ġpostavit": 9151,
      "Ġredu": 9152,
      "IG": 9153,
      "ĠstÄĽny": 9154,
      "ĠobsahujÃŃ": 9155,
      "rz": 9156,
      "zenou": 9157,
      "ĠuÅ¾it": 9158,
      "ĠtisÃŃ": 9159,
      "ĠprospÄĽch": 9160,
      "Ġvstupu": 9161,
      "Ġostr": 9162,
      "Ġdez": 9163,
      "doval": 9164,
      "ĠdrobnÃ©": 9165,
      "Ġzapomen": 9166,
      "ĠOK": 9167,
      "Ġnemohla": 9168,
      "Ġkoordin": 9169,
      "ĠcestovnÃŃ": 9170,
      "ĠZvlÃ¡": 9171,
      "Ġprezent": 9172,
      "ĠupÅĻÃŃ": 9173,
      "hujÃŃ": 9174,
      "ĠÅ¾ivnost": 9175,
      "stor": 9176,
      "Ġkolegy": 9177,
      "Ġuva": 9178,
      "ProdÃ¡m": 9179,
      "Ġkouz": 9180,
      "Ġobdr": 9181,
      "ĠkoleÄį": 9182,
      "cuje": 9183,
      "ĠomÃ¡": 9184,
      "Ġpovz": 9185,
      "Ġfond": 9186,
      "Ġvydal": 9187,
      "ĠumÄĽl": 9188,
      "Ġvznika": 9189,
      "Äįela": 9190,
      "ĠzbyteÄįnÄĽ": 9191,
      "fie": 9192,
      "ĠlÅ¾i": 9193,
      "Ġkryt": 9194,
      "ĠMist": 9195,
      "ĠMP": 9196,
      "vity": 9197,
      "Å¾itel": 9198,
      "Ġvzal": 9199,
      "EG": 9200,
      "Ġpocity": 9201,
      "Ġkdykoliv": 9202,
      "ĠAndro": 9203,
      "ĠnÃŃzkÃ©": 9204,
      "Ġnekone": 9205,
      "ĠzÃ¡chra": 9206,
      "ĠpÄĽknÃ©": 9207,
      "ĠðŁĻĤ": 9208,
      "Ġstadi": 9209,
      "ĠnejmenÅ¡ÃŃ": 9210,
      "Ã¨nÃŃ": 9211,
      "Ġjakoby": 9212,
      "Ġmiliard": 9213,
      "Ġshr": 9214,
      "ĠdoprovÃ¡": 9215,
      "Ġnepla": 9216,
      "ĠMiku": 9217,
      "vanou": 9218,
      "ĠskÃ¡": 9219,
      "LO": 9220,
      "Ġvan": 9221,
      "Ġgril": 9222,
      "ĠmilovnÃŃ": 9223,
      "ĠKur": 9224,
      "ĠpÅĻÃŃspÄĽvku": 9225,
      "ĠpÅĻevzetÃŃ": 9226,
      "ĠmyÅ¡lenÃŃ": 9227,
      "ĠjednoznaÄįnÄĽ": 9228,
      "ĠobÄįerst": 9229,
      "ĠkomplexnÃŃ": 9230,
      "Ġï": 9231,
      "Ġautomob": 9232,
      "ĠuskuteÄįnÃŃ": 9233,
      "Å¾nÃ½ch": 9234,
      "iru": 9235,
      "ĠelektrÃ¡": 9236,
      "ĠZaÄį": 9237,
      "ĠpÅĻedstaven": 9238,
      "ĠsprÃ¡vnÃ½": 9239,
      "Ġpostele": 9240,
      "Ġlinky": 9241,
      "orech": 9242,
      "SD": 9243,
      "Ġvrchol": 9244,
      "now": 9245,
      "Ġkop": 9246,
      "Ġkonstat": 9247,
      "71": 9248,
      "Ġnemy": 9249,
      "ĠVelikost": 9250,
      "Ġdosti": 9251,
      "likace": 9252,
      "ovÃ©mu": 9253,
      "Ġpohybuje": 9254,
      "dliÅ¡tÄĽ": 9255,
      "Ġfan": 9256,
      "ĠkusÅ¯": 9257,
      "Ġtelevizi": 9258,
      "pÃŃnÃ¡nÃŃ": 9259,
      "ĠÄįistÃ©": 9260,
      "Ġson": 9261,
      "ĠodmÃŃ": 9262,
      "ĠÅĻÃŃkÃ¡m": 9263,
      "bava": 9264,
      "Ġvrace": 9265,
      "ĠdosaÅ¾enÃŃ": 9266,
      "ĠzÃ¡mÄĽr": 9267,
      "ĠstanovÃŃ": 9268,
      "jskÃ©": 9269,
      "ĠpobÅĻeÅ¾ÃŃ": 9270,
      "Ġpun": 9271,
      "ĠmodrÃ©": 9272,
      "ĠzjiÅ¡Å¥": 9273,
      "ĠexistujÃŃ": 9274,
      "Ġpojmen": 9275,
      "stickou": 9276,
      "ĠinÅ¾enÃ½": 9277,
      "ĠÅłpanÄĽl": 9278,
      "ĠfinancovÃ¡nÃŃ": 9279,
      "ĠLan": 9280,
      "sledy": 9281,
      "ĠZob": 9282,
      "Å¡eni": 9283,
      "mezÃŃ": 9284,
      "Ġkredit": 9285,
      "ĠrybnÃŃ": 9286,
      "Ġval": 9287,
      "ĠPÅĻeklady": 9288,
      "ĠurÄįitou": 9289,
      "ĠplÃ¡t": 9290,
      "Ġrizika": 9291,
      "letÃ¡": 9292,
      "rotickÃ©": 9293,
      "Ġhlava": 9294,
      "stoup": 9295,
      "DD": 9296,
      "ĠzkrÃ¡": 9297,
      "inka": 9298,
      "ĠpÅ¯jÄįek": 9299,
      "ĠJohn": 9300,
      "IF": 9301,
      "Ġ[âĢ¦]": 9302,
      "Ġsociali": 9303,
      "Ġkerami": 9304,
[...]
